<unk>	0
<s>	0
</s>	0
▁	-2.92665
▁の	-3.25084
▁、	-3.37816
▁に	-3.53948
▁。	-3.65125
▁は	-3.8938
▁た	-3.95041
▁を	-3.95602
▁と	-4.01495
▁て	-4.09414
▁が	-4.13756
▁で	-4.28951
▁（	-4.37602
▁し	-4.39985
▁）	-4.4018
▁年	-4.5855
▁れ	-5.1346
▁も	-5.17099
▁ある	-5.19461
▁さ	-5.23389
▁・	-5.26814
▁」	-5.38203
▁「	-5.38439
▁する	-5.50949
▁いる	-5.53474
▁月	-5.59925
っ	-5.639
▁日	-5.66716
▁から	-5.73399
▁こと	-5.79289
る	-5.8555
い	-5.85759
▁な	-5.88184
▁大	-5.88419
く	-6.00288
▁れる	-6.01088
▁い	-6.01179
▁や	-6.02072
し	-6.03944
▁など	-6.05014
▁その	-6.05442
▁)	-6.10803
▁(	-6.13252
▁日本	-6.13771
▁後	-6.13884
▁国	-6.15773
▁一	-6.18644
『	-6.26032
▁』	-6.26106
▁3	-6.31196
▁なっ	-6.32889
▁時代	-6.33676
▁いう	-6.36049
▁あっ	-6.36763
▁家	-6.37008
▁もの	-6.37615
▁この	-6.38697
▁天皇	-6.42409
▁2	-6.42471
▁市	-6.44455
▁ない	-6.46974
▁ため	-6.47532
▁られ	-6.49452
▁的	-6.52046
▁寺	-6.5288
ん	-6.53271
▁4	-6.53389
▁京都	-6.54307
り	-6.54888
▁氏	-6.59096
▁19	-6.59282
▁また	-6.5975
▁中	-6.60896
▁よう	-6.61474
ら	-6.61555
▁上	-6.61812
▁三	-6.6367
▁より	-6.68747
さ	-6.69591
田	-6.69922
▁18	-6.70373
原	-6.70757
▁1	-6.71231
▁人	-6.73035
▁5	-6.73921
▁-	-6.77058
▁これ	-6.78517
▁本	-6.80862
▁天	-6.82966
▁へ	-6.83232
▁同	-6.84145
わ	-6.84854
▁あり	-6.86334
▁だ	-6.8689
▁なる	-6.87355
▁平	-6.90432
子	-6.91141
▁者	-6.91243
▁か	-6.9319
▁山	-6.93433
▁11	-6.95075
国	-6.95203
▁行	-6.95881
▁新	-6.97004
▁ら	-6.97925
▁駅	-6.98177
▁代	-6.99055
▁高	-6.99524
▁長	-7.00903
▁県	-7.01187
▁10	-7.02694
山	-7.04028
▁明治	-7.04549
▁12	-7.05214
▁下	-7.05449
か	-7.0575
年	-7.05983
▁第	-7.09178
▁名	-7.09847
▁藤	-7.10621
て	-7.12291
▁まで	-7.1252
人	-7.12673
▁正	-7.13564
▁自	-7.13841
▁15	-7.14387
▁お	-7.14741
▁神	-7.15452
▁内	-7.15548
▁元	-7.1748
▁多	-7.18151
き	-7.1909
▁町	-7.20135
▁法	-7.20214
▁江戸	-7.20995
▁西	-7.21512
▁院	-7.21688
▁つ	-7.22233
▁られる	-7.22742
▁二	-7.24762
▁御	-7.26132
　	-7.27093
▁よっ	-7.28665
▁それ	-7.28847
▁時	-7.31544
▁藩	-7.31827
▁前	-7.32348
▁東	-7.32591
に	-7.33044
▁：	-7.34146
▁位	-7.34347
う	-7.34417
部	-7.34849
れ	-7.34899
▁しかし	-7.34969
▁現在	-7.34988
▁事	-7.35309
▁実	-7.35634
▁重	-7.35885
▁出	-7.36736
▁16	-7.37208
▁小	-7.37262
▁間	-7.37916
方	-7.38262
▁城	-7.38326
安	-7.38756
▁義	-7.40808
▁通	-7.41021
▁従	-7.41156
す	-7.41307
▁なり	-7.41377
▁よる	-7.41379
▁地	-7.41749
▁せ	-7.42276
地	-7.42345
▁宗	-7.42382
▁ず	-7.42714
▁子	-7.42967
野	-7.44789
長	-7.44792
ま	-7.45627
▁見	-7.45941
▁所	-7.46707
▁五	-7.47074
▁石	-7.47638
▁元年	-7.47741
川	-7.47852
▁幕府	-7.48979
み	-7.49426
▁おい	-7.49993
▁なく	-7.52062
明	-7.52097
▁政	-7.52125
かっ	-7.52575
▁道	-7.53109
▁13	-7.53368
▁とも	-7.53427
正	-7.54709
上	-7.55191
名	-7.55376
▁旧暦	-7.55671
▁17	-7.56473
政	-7.57295
▁源	-7.57473
▁説	-7.57655
▁線	-7.57757
▁四	-7.59085
▁ば	-7.59489
▁文	-7.60618
▁権	-7.6096
▁軍	-7.61043
▁官	-7.62071
▁宮	-7.6249
▁府	-7.63237
利	-7.63772
力	-7.63861
▁記	-7.64288
▁つい	-7.64756
▁目	-7.64771
▁生	-7.65004
▁神社	-7.65823
▁呼ば	-7.66311
▁おり	-7.66563
▁公	-7.66775
来	-7.66889
島	-7.67627
▁方	-7.68044
行	-7.68284
▁14	-7.69013
▁父	-7.69278
▁他	-7.69447
▁全	-7.69676
▁特	-7.71234
▁文化	-7.71344
本	-7.71386
▁朝	-7.71497
▁場合	-7.72485
家	-7.72615
▁王	-7.72907
▁経	-7.73255
▁昭和	-7.74048
々	-7.74076
▁書	-7.74082
▁親王	-7.74353
物	-7.74548
▁無	-7.74767
ル	-7.75337
▁流	-7.7557
▁安	-7.77006
▁郡	-7.77299
▁古	-7.78019
文	-7.78027
▁南	-7.78339
門	-7.78497
▁北	-7.78609
▁万	-7.78609
▁化	-7.78708
▁十	-7.7892
和	-7.78979
▁主	-7.7923
め	-7.79268
▁歳	-7.79312
▁会	-7.79481
町	-7.8009
▁水	-7.8017
▁金	-7.80286
▁明	-7.80714
▁鎌倉	-7.81081
▁等	-7.81394
▁集	-7.81399
▁区	-7.81644
ー	-7.82081
▁不	-7.82242
定	-7.8228
た	-7.82513
▁信	-7.8255
▁き	-7.83931
▁足	-7.84386
朝	-7.84433
▁学	-7.84571
身	-7.84722
▁広	-7.84802
▁清	-7.84803
▁際	-7.85534
成	-7.85672
ち	-7.86638
▁戦	-7.87266
▁直	-7.88681
▁受け	-7.88974
▁館	-7.89517
▁入	-7.89645
▁各	-7.89666
中	-7.89854
▁部	-7.90098
ン	-7.90275
▁当時	-7.90873
▁分	-7.91079
え	-7.92427
▁～	-7.92679
▁奈良	-7.92918
手	-7.93
▁手	-7.93035
徳	-7.9322
▁考え	-7.93396
村	-7.93667
津	-7.93698
宮	-7.94328
▁大臣	-7.94626
道	-7.94755
軍	-7.94781
▁豊	-7.95224
▁旧	-7.95616
事	-7.96111
▁村	-7.96354
▁徳川	-7.96446
▁外	-7.97033
間	-7.97216
▁諸	-7.97421
▁両	-7.97499
▁いっ	-7.98256
▁将軍	-7.98642
▁多い	-7.98929
ば	-7.99131
永	-7.99269
▁室	-7.99511
▁京	-8.00306
書	-8.00307
▁社	-8.0068
井	-8.01614
▁相	-8.01666
▁対し	-8.01746
▁大学	-8.01905
▁立	-8.0194
▁忠	-8.02183
▁真	-8.0234
▁存在	-8.02658
▁八	-8.02725
実	-8.02843
▁.	-8.03587
▁娘	-8.03644
な	-8.04896
生	-8.04991
用	-8.05085
体	-8.05119
▁なお	-8.05357
▁次	-8.05432
▁源氏	-8.05539
主	-8.05648
▁号	-8.05674
時	-8.06024
▁派	-8.06627
▁世	-8.06794
臣	-8.06827
▁支	-8.06996
▁鉄道	-8.07255
▁永	-8.08128
▁有	-8.08565
▁東京	-8.08592
け	-8.0867
▁六	-8.09009
分	-8.09065
▁教	-8.0928
▁中国	-8.09305
▁物	-8.09514
元	-8.09782
▁酒	-8.09897
ス	-8.10039
▁開	-8.10328
じ	-8.10559
学	-8.1059
する	-8.1061
つ	-8.10878
▁松	-8.10974
仁	-8.11196
要	-8.11716
▁海	-8.12124
▁領	-8.12308
▁性	-8.12429
▁左	-8.12535
▁関	-8.12602
む	-8.13012
立	-8.13204
▁なか	-8.13579
法	-8.13617
▁のみ	-8.14698
権	-8.14759
▁発	-8.14759
▁当	-8.14813
▁白	-8.1504
木	-8.1542
作	-8.15597
▁用い	-8.15762
▁数	-8.16103
▁あ	-8.16107
▁学校	-8.16584
▁関係	-8.1721
前	-8.17364
▁図	-8.17579
武	-8.17657
▁）-	-8.1775
府	-8.17845
▁母	-8.18172
▁守	-8.18229
▁20	-8.18642
▁慶	-8.18833
内	-8.19255
▁一般	-8.19839
▁光	-8.19928
▁物語	-8.2021
▁頼	-8.20379
▁だっ	-8.20654
▁中心	-8.20739
者	-8.2076
▁乱	-8.20778
▁いわ	-8.20825
▁以降	-8.21068
▁反	-8.2129
▁形	-8.21346
▁巻	-8.22725
神	-8.22792
せ	-8.22999
面	-8.23013
屋	-8.23256
気	-8.23321
▁現	-8.23415
▁川	-8.23514
▁武	-8.23667
河	-8.23979
▁戦い	-8.24156
▁土	-8.2421
▁おけ	-8.2429
城	-8.24515
▁地方	-8.24544
▁今	-8.25043
リ	-8.25193
▁右	-8.25365
▁七	-8.25377
▁ほ	-8.25446
▁期	-8.25656
▁建	-8.25698
▁式	-8.25858
▁条	-8.26281
▁大阪	-8.26419
▁回	-8.26477
▁伝	-8.26509
合	-8.26512
寺	-8.26561
び	-8.26777
記	-8.26845
務	-8.26932
▁女	-8.26952
▁歌	-8.27133
口	-8.2724
▁師	-8.28146
▁とき	-8.28315
出	-8.28548
禄	-8.28572
▁門	-8.28624
光	-8.28783
治	-8.289
▁使用	-8.29368
▁堂	-8.29397
▁称	-8.29741
▁頃	-8.29894
▁別	-8.29956
▁残	-8.30013
▁さらに	-8.30035
▁男	-8.30134
▁研究	-8.30323
後	-8.30382
▁織	-8.30444
▁共	-8.3074
平	-8.30742
▁世紀	-8.30823
様	-8.30844
▁財	-8.31044
ラ	-8.3169
▁同じ	-8.31969
▁円	-8.32148
廷	-8.32458
初	-8.3252
の	-8.32649
▁僧	-8.33286
▁皇子	-8.33473
イ	-8.33508
領	-8.33654
▁大名	-8.33712
▁先	-8.33893
▁信長	-8.33898
ぶ	-8.34285
民	-8.34564
▁知ら	-8.35184
▁制	-8.3531
▁作	-8.35504
久	-8.35664
▁保	-8.35842
▁寛	-8.35916
▁都	-8.36053
大	-8.36182
▁総	-8.36367
▁仏	-8.36411
義	-8.36841
▁役	-8.36865
際	-8.36958
▁成	-8.37054
▁み	-8.37075
▁和	-8.37484
▁約	-8.37568
▁納言	-8.37684
▁かけ	-8.38194
▁太	-8.38267
流	-8.38505
▁風	-8.38572
▁ながら	-8.3887
が	-8.38937
見	-8.38966
位	-8.39012
▁持	-8.39131
▁彼	-8.3932
配	-8.39596
日	-8.39833
崎	-8.399
目	-8.40017
西	-8.4007
▁命	-8.40197
▁木	-8.40355
▁近	-8.40628
▁定	-8.40727
▁勢	-8.40846
▁得	-8.40895
▁親	-8.40973
常	-8.41087
世	-8.41095
楽	-8.4115
州	-8.41309
▁言わ	-8.41351
▁秀吉	-8.41404
▁よ	-8.41673
▁民	-8.41703
一	-8.41918
言	-8.42181
信	-8.42483
▁歴史	-8.42957
馬	-8.43091
下	-8.43538
▁/	-8.4365
▁意味	-8.43759
場	-8.43769
▁結	-8.43977
▁首	-8.43994
▁品	-8.44067
入	-8.44788
▁福	-8.44809
▁側	-8.44873
谷	-8.44881
式	-8.45036
▁千	-8.45416
▁こう	-8.45786
▁事件	-8.46098
士	-8.46234
▁能	-8.46813
▁用	-8.46822
▁兵	-8.46823
▁守護	-8.46954
制	-8.47
▁殿	-8.47109
岡	-8.47128
▁職	-8.47404
藤	-8.47834
▁久	-8.47924
▁為	-8.47945
保	-8.48034
院	-8.4827
▁政治	-8.48772
だけ	-8.48866
▁語	-8.48877
持	-8.49031
王	-8.49068
▁ところ	-8.49261
▁島	-8.49522
母	-8.49585
▁一部	-8.49903
▁系	-8.49915
▁像	-8.50264
▁以下	-8.50298
▁治	-8.50545
ト	-8.5085
所	-8.51306
も	-8.51383
▁兼	-8.5152
▁武士	-8.52021
台	-8.52089
皇	-8.52182
▁地域	-8.52195
▁祭	-8.52453
▁たち	-8.52556
盛	-8.52816
まっ	-8.52873
▁画	-8.52908
▁在	-8.53031
▁車	-8.53112
▁バス	-8.5325
形	-8.53301
▁省	-8.53407
ぐ	-8.53784
▁弟	-8.53856
▁死	-8.54546
▁伊	-8.54695
▁できる	-8.54915
▁人物	-8.54999
土	-8.55494
▁なら	-8.55793
▁近衛	-8.55807
▁九	-8.55818
▁うち	-8.55834
代	-8.55856
▁でき	-8.55892
▁没	-8.5593
こ	-8.5615
▁赤	-8.56384
しい	-8.56595
▁使	-8.56876
色	-8.56897
高	-8.57082
▁合	-8.57309
▁ま	-8.57368
▁朝鮮	-8.57388
統	-8.57407
▁度	-8.57629
▁花	-8.57639
▁吉	-8.57687
▁強	-8.5776
▁与え	-8.58057
心	-8.58243
条	-8.58259
▁造	-8.58349
勢	-8.58429
▁死去	-8.58496
▁唐	-8.58723
▁以後	-8.59165
▁末	-8.59165
▁加	-8.59192
▁令	-8.5923
月	-8.59463
▁仏教	-8.59464
▁対	-8.59487
ぎ	-8.59598
▁例	-8.60063
▁ただし	-8.60094
▁藩主	-8.60111
▁たり	-8.6018
▁陸	-8.6021
▁基	-8.60353
▁設置	-8.60387
▁家康	-8.606
▁続	-8.60603
▁応	-8.60807
▁勝	-8.61013
▁茶	-8.6113
任	-8.61544
▁進	-8.61633
▁面	-8.61906
▁百	-8.6198
沢	-8.62003
▁す	-8.62324
▁口	-8.62392
▁影響	-8.62402
▁祖	-8.62534
▁組	-8.62656
▁座	-8.63201
▁成立	-8.63206
▁論	-8.63299
▁点	-8.63539
華	-8.63656
▁常	-8.63865
▁せる	-8.63883
数	-8.63926
▁良	-8.64167
▁秀	-8.64186
▁表	-8.64287
▁心	-8.64331
官	-8.64443
▁北条	-8.64828
▁初	-8.64935
▁連	-8.64941
▁尊	-8.65095
▁貞	-8.6549
▁以上	-8.6557
▁もと	-8.65576
▁継	-8.65634
▁21	-8.65645
福	-8.65802
▁番	-8.65857
▁大き	-8.65951
会	-8.66092
▁盛	-8.66097
▁屋	-8.66575
▁ん	-8.66864
▁享	-8.66943
▁初期	-8.67193
宝	-8.67303
▁興	-8.67372
カ	-8.67415
▁そし	-8.67568
▁ふ	-8.67922
▁頭	-8.67986
▁京阪	-8.68152
▁米	-8.68447
▁半	-8.69098
▁様	-8.69605
京	-8.70294
▁25	-8.70328
格	-8.70465
▁及び	-8.70469
▁頼朝	-8.7048
造	-8.70637
女	-8.70666
ろう	-8.70924
▁ひ	-8.71085
▁寺院	-8.71291
ぼ	-8.71541
▁置	-8.71553
室	-8.71786
▁場	-8.71791
▁聖	-8.71868
古	-8.71973
▁時期	-8.7198
よう	-8.72051
▁以	-8.72078
度	-8.72314
▁利用	-8.724
▁のち	-8.72602
▁可能	-8.72603
等	-8.72613
白	-8.7277
▁帰	-8.73038
▁独	-8.73304
勝	-8.73344
蔵	-8.73505
暦	-8.73518
▁行う	-8.73564
▁,	-8.73567
▁伊勢	-8.7409
ク	-8.74425
向	-8.74463
号	-8.74467
▁之	-8.74516
業	-8.74745
▁佐	-8.74759
字	-8.75393
▁宝	-8.75584
▁大和	-8.75645
▁30	-8.75741
味	-8.75828
と	-8.75958
▁22	-8.75969
命	-8.76012
▁生まれ	-8.7623
▁史	-8.76314
▁伝え	-8.76429
重	-8.76474
▁要	-8.76505
▁若	-8.76641
▁列車	-8.76845
▁制度	-8.76912
橋	-8.77056
水	-8.771
量	-8.772
▁養子	-8.7732
▁伴	-8.77323
▁ほか	-8.774
▁戦争	-8.77495
▁承	-8.7774
▁住	-8.77833
▁こ	-8.77837
害	-8.77855
▁参	-8.77931
郷	-8.78041
ろ	-8.78073
▁世界	-8.78114
▁－	-8.78141
▁紀	-8.78145
▁まま	-8.78458
▁隊	-8.78632
▁力	-8.78737
▁弘	-8.78823
▁維	-8.78881
▁和歌	-8.79051
▁ほど	-8.7909
▁料理	-8.79179
▁近江	-8.79329
▁異	-8.79444
▁必要	-8.7947
経	-8.79586
座	-8.79739
▁作品	-8.79798
▁24	-8.79835
▁春	-8.79837
▁以外	-8.79895
▁推	-8.80003
▁体	-8.80173
いは	-8.80273
族	-8.80298
別	-8.80537
▁ア	-8.8066
動	-8.80682
▁23	-8.80789
だ	-8.80867
▁鳥	-8.8108
▁田	-8.811
▁変	-8.81194
伝	-8.81546
▁兄	-8.81719
▁意	-8.8194
▁観	-8.8208
▁カ	-8.82659
吉	-8.82719
▁登場	-8.82737
▁身	-8.82774
▁船	-8.829
▁後期	-8.8297
ず	-8.83004
▁細川	-8.83045
▁専	-8.8307
▁律令	-8.83217
▁ノ	-8.83532
▁知	-8.8361
▁かつ	-8.83772
▁鉄	-8.83806
▁私	-8.83876
▁交	-8.83912
頼	-8.84031
シ	-8.84131
▁部分	-8.84191
よび	-8.84225
房	-8.84253
▁種	-8.84348
意	-8.84358
▁局	-8.84389
▁妻	-8.84489
羽	-8.84507
▁火	-8.84527
議	-8.84546
説	-8.84646
営	-8.84675
▁指定	-8.84722
▁家臣	-8.84977
宗	-8.8498
▁皇	-8.85086
▁持つ	-8.85351
親	-8.85471
▁付	-8.85497
▁→	-8.85567
ジ	-8.85848
▁青	-8.86117
然	-8.86355
進	-8.86566
能	-8.8661
▁伏見	-8.86665
▁改	-8.86674
▁調	-8.86681
▁28	-8.86868
▁岩	-8.86928
▁代表	-8.86939
▁古墳	-8.87024
ナ	-8.87131
▁博	-8.87267
▁食	-8.87335
▁年間	-8.87465
▁非	-8.87542
▁摂	-8.8766
▁原	-8.87748
応	-8.87872
▁記録	-8.88058
理	-8.88062
▁以前	-8.88287
東	-8.88364
▁製	-8.88571
▁仲	-8.88576
▁いく	-8.88824
智	-8.88981
▁不明	-8.89031
▁貴族	-8.89092
▁はじめ	-8.89421
▁絵	-8.89804
▁映画	-8.90026
▁蔵	-8.9015
▁廃止	-8.90348
▁仁	-8.90454
ム	-8.90487
キ	-8.90524
▁女性	-8.90631
▁即位	-8.90666
▁そこ	-8.90669
ぞれ	-8.90671
▁公家	-8.90862
化	-8.90954
称	-8.9096
▁少な	-8.91599
対	-8.91754
▁延	-8.91785
▁継承	-8.91949
▁宿	-8.9222
▁中央	-8.92483
倉	-8.92493
▁一族	-8.92602
取	-8.9291
▁具	-8.92974
葉	-8.93066
線	-8.93165
▁記述	-8.93208
まり	-8.93238
通	-8.93432
▁起こ	-8.93561
▁悪	-8.93597
質	-8.93696
▁霊	-8.93707
▁使わ	-8.93715
兵衛	-8.93747
▁早	-8.93902
▁店	-8.93909
▁ここ	-8.93968
▁姿	-8.94112
▁中期	-8.94154
▁浄土	-8.94166
▁黒	-8.946
風	-8.9482
産	-8.94943
▁廃	-8.95064
▁如	-8.95177
▁池	-8.95203
▁26	-8.95262
科	-8.9553
ド	-8.95749
▁問題	-8.95764
▁参照	-8.95771
▁類	-8.95817
▁社会	-8.9603
▁27	-8.96041
ア	-8.96044
▁渡	-8.9606
▁何	-8.96076
▁紙	-8.9627
▁少	-8.96302
男	-8.96426
▁じ	-8.96528
▁修	-8.967
▁単	-8.96714
▁結果	-8.96719
▁達	-8.96917
▁就任	-8.96945
▁衆	-8.97171
頭	-8.97423
▁位置	-8.97424
集	-8.97432
良	-8.97607
石	-8.97614
性	-8.97967
▁音	-8.9825
しく	-8.98292
仏	-8.98321
ヶ	-8.98412
▁深	-8.98421
好	-8.98532
▁阿	-8.98547
▁関東	-8.98562
▁丸	-8.98606
戦	-8.98658
▁武田	-8.98806
▁美	-8.98959
▁描	-8.99433
▁認め	-8.99552
▁う	-8.99614
▁景	-8.99673
▁収	-8.99904
マ	-8.9997
御	-8.99984
える	-9.00046
▁馬	-9.00086
▁君	-9.00216
▁字	-9.0034
新	-9.00502
助	-9.00552
達	-9.00643
▁幼	-9.00753
ノ	-9.00765
隆	-9.01097
▁士	-9.01107
▁解	-9.01127
▁着	-9.0124
▁香	-9.01286
外	-9.01295
で	-9.01487
杉	-9.01498
▁公卿	-9.01554
▁台	-9.01664
▁加え	-9.0175
▁竹	-9.01772
▁富	-9.01847
▁子孫	-9.01935
夷	-9.01966
▁更	-9.02143
▁許	-9.0225
▁活動	-9.02271
▁病	-9.02402
▁取り	-9.02419
社	-9.0252
側	-9.02523
▁出家	-9.02675
綱	-9.02712
▁夜	-9.02885
▁ハ	-9.02901
▁遺	-9.03061
▁教育	-9.03113
▁満	-9.03159
▁電	-9.03642
根	-9.04054
▁有力	-9.04067
▁遠	-9.04156
▁橋	-9.04172
は	-9.04245
▁系統	-9.04398
ね	-9.04414
▁100	-9.04547
▁舞鶴	-9.04548
▁曲	-9.04604
▁退	-9.04638
▁言う	-9.04671
兵	-9.04755
▁話	-9.04854
▁失	-9.04882
▁周	-9.05123
▁通り	-9.05236
発	-9.05291
▁奉行	-9.05609
▁開始	-9.05776
▁比	-9.0584
▁対立	-9.06065
ロ	-9.06065
▁長男	-9.06119
堂	-9.06157
▁思わ	-9.06257
▁一人	-9.0638
▁末期	-9.06404
▁移	-9.06705
督	-9.0675
▁にて	-9.06775
▁機	-9.07232
▁29	-9.07321
▁階	-9.07377
海	-9.07406
▁当主	-9.07527
▁武家	-9.07554
▁初代	-9.07603
▁荘園	-9.07702
▁国家	-9.0771
▁書紀	-9.07845
藩	-9.07929
友	-9.07947
▁信仰	-9.08012
松	-9.08076
▁宇治	-9.0809
▁徳	-9.08186
司	-9.08229
▁横	-9.08382
論	-9.08429
之	-9.08443
路	-9.08448
▁仕え	-9.08563
▁戸	-9.0864
▁宣	-9.08773
▁南北	-9.0885
器	-9.08934
▁呼ぶ	-9.08975
▁任じ	-9.0911
▁由来	-9.09292
e	-9.09518
や	-9.09556
▁野	-9.09647
▁観音	-9.09734
役	-9.09826
▁急	-9.09883
▁理由	-9.09919
▁ひと	-9.09925
▁べき	-9.10207
▁梅	-9.1025
▁あたる	-9.10319
▁有名	-9.10514
▁志	-9.10566
タ	-9.10625
有	-9.10827
▁色	-9.10897
▁建築	-9.10954
▁康	-9.11332
▁文書	-9.11367
ミ	-9.11455
▁毛	-9.11499
▁理	-9.1158
南	-9.11691
▁指す	-9.11708
▁本願	-9.11929
a	-9.11978
▁美術	-9.12134
▁JR	-9.1219
オ	-9.12204
▁草	-9.12431
▁そう	-9.12553
▁ス	-9.12637
▁m	-9.12669
▁気	-9.12772
▁孫	-9.13102
略	-9.13118
▁菩薩	-9.13179
▁参加	-9.1325
▁作ら	-9.13296
我	-9.13409
▁孝	-9.13552
▁対す	-9.13828
衆	-9.14141
▁九州	-9.14246
泉	-9.1427
▁愛	-9.14386
客	-9.14695
▁三条	-9.1471
▁始め	-9.14711
▁御所	-9.14779
志	-9.14846
▁討	-9.14856
姓	-9.14857
▁臨	-9.14875
▁雑	-9.14969
▁平氏	-9.15043
▁未	-9.15048
落	-9.15102
コ	-9.15107
▁主に	-9.15114
尾	-9.15116
▁活躍	-9.15121
▁皇后	-9.15127
▁よく	-9.15244
団	-9.15246
▁定め	-9.15265
▁倭	-9.15266
▁不詳	-9.15536
ッ	-9.15545
林	-9.15673
金	-9.15911
▁務め	-9.15992
▁群	-9.16127
▁松平	-9.16142
とんど	-9.16207
▁印	-9.16283
▁歌舞伎	-9.16412
▁秋	-9.16425
▁迎え	-9.16429
▁帝国	-9.16493
▁旅	-9.16695
次	-9.16722
▁空	-9.16722
相	-9.16989
▁鎮	-9.17314
▁合戦	-9.17331
▁大坂	-9.17361
▁銀	-9.17495
▁内容	-9.17746
▁関白	-9.17768
▁平家	-9.17804
チ	-9.17868
▁斎	-9.17958
▁都市	-9.18014
▁シ	-9.18056
▁姓	-9.18067
▁増	-9.18141
ツ	-9.18257
▁嫡	-9.18348
▁殺	-9.18589
撃	-9.18618
▁名称	-9.1867
▁言	-9.18759
▁善	-9.18796
師	-9.19072
▁科	-9.19117
▁入り	-9.19157
▁如来	-9.19321
▁神道	-9.19391
▁業	-9.19644
▁求め	-9.19724
▁鏡	-9.19973
▁築	-9.2008
雄	-9.20172
▁言葉	-9.20195
続	-9.20233
▁塩	-9.20469
▁浅	-9.20483
羅	-9.20499
▁近代	-9.20507
点	-9.20556
戸	-9.20587
▁ご	-9.209
▁郷	-9.20973
期	-9.20986
ずれ	-9.20987
▁ね	-9.21016
▁注	-9.21071
江	-9.21137
▁開業	-9.213
ウ	-9.21434
▁技術	-9.21616
▁河内	-9.21791
接	-9.21816
▁個	-9.21818
▁禅	-9.21821
太郎	-9.21847
▁毎	-9.22201
▁皇族	-9.22505
▁現代	-9.22532
▁完成	-9.22585
▁周辺	-9.22706
▁え	-9.22753
▁死後	-9.22822
▁地下	-9.22839
▁八幡	-9.22954
▁目的	-9.22954
▁マ	-9.23039
▁状	-9.23044
▁命じ	-9.23136
▁甲	-9.23289
▁通じ	-9.23397
米	-9.23407
きな	-9.23444
▁交通	-9.23525
職	-9.236
レ	-9.2371
界	-9.23751
▁余	-9.23766
▁設立	-9.23874
料	-9.23946
▁事業	-9.24128
▁武将	-9.24259
波	-9.24385
▁冷	-9.2451
▁助	-9.24538
▁入る	-9.2465
▁顕	-9.24672
▁嘉	-9.24736
老	-9.2483
▁古代	-9.24847
▁客	-9.24859
▁楽	-9.24893
▁運	-9.24953
▁義経	-9.25082
▁高い	-9.25162
▁養	-9.25235
▁参議	-9.25308
ど	-9.25317
着	-9.25344
▁場所	-9.25471
知	-9.25516
▁玉	-9.25532
火	-9.25535
▁井	-9.25724
瀬	-9.25728
▁入れ	-9.25767
▁順	-9.2579
げ	-9.25838
影	-9.25885
賀	-9.25964
▁建立	-9.25965
装	-9.26098
天	-9.26102
籍	-9.26216
▁講	-9.26316
奥	-9.26328
▁発展	-9.26341
▁ぬ	-9.26519
▁跡	-9.26899
▁時間	-9.26964
▁片	-9.27032
▁丹波	-9.27101
▁経済	-9.2713
例	-9.27243
磨	-9.27246
▁運転	-9.2733
工	-9.27346
ざ	-9.27395
▁…	-9.27413
筆	-9.27422
▁追	-9.27424
▁機関	-9.27641
▁奥	-9.27695
▁来	-9.27758
▁率い	-9.2789
▁節	-9.27965
▁園	-9.28092
▁幕	-9.28194
ニ	-9.28298
▁会社	-9.283
▁資料	-9.28333
▁墓	-9.28417
▁天平	-9.28608
ネ	-9.2861
▁神宮	-9.28624
典	-9.28773
▁地位	-9.28787
拠	-9.28855
▁林	-9.28909
▁現存	-9.29033
▁資	-9.29119
▁形式	-9.29163
▁どう	-9.29219
当	-9.29364
系	-9.29415
▁建設	-9.29581
▁補	-9.29706
浦	-9.29791
▁山城	-9.30092
▁刀	-9.30134
▁次男	-9.30158
端	-9.30166
▁流れ	-9.30341
承	-9.30427
情	-9.30439
▁タ	-9.30503
▁派遣	-9.30748
▁転	-9.30775
プ	-9.30856
▁玄	-9.31096
▁農	-9.31194
▁運動	-9.31314
▁乗	-9.31336
▁姫	-9.31357
▁監督	-9.31463
(	-9.3149
属	-9.31525
i	-9.31577
員	-9.31669
▁打	-9.31681
▁本線	-9.3178
満	-9.31808
▁路線	-9.31864
▁発生	-9.3188
▁通称	-9.32027
▁尼	-9.32147
▁逆	-9.32183
▁統	-9.32211
跡	-9.32287
▁官位	-9.32302
▁精	-9.32352
覚	-9.32397
▁ち	-9.32413
清	-9.32508
▁譲	-9.32538
▁豪	-9.32594
▁居	-9.32627
ケ	-9.32685
▁河	-9.32797
型	-9.32903
▁生活	-9.33154
▁商	-9.33253
▁柳	-9.33263
▁方面	-9.33292
▁国宝	-9.33315
▁陵	-9.3335
出し	-9.33472
▁付け	-9.33491
▁並	-9.3362
直	-9.33663
▁演	-9.33725
▁防	-9.33942
▁暦	-9.34023
▁規模	-9.34119
▁勅	-9.3412
▁中世	-9.34299
▁感	-9.34436
▁サ	-9.34439
▁泰	-9.34603
▁書か	-9.34668
札	-9.34704
館	-9.34832
▁日記	-9.3504
▁思想	-9.35108
▁評価	-9.35108
まう	-9.35205
▁生まれる	-9.35211
▁破	-9.35312
術	-9.35369
▁礼	-9.3537
▁妙	-9.35433
▁桂	-9.35547
▁む	-9.35569
▁帝	-9.35639
選	-9.35658
岐	-9.35675
▁土地	-9.35706
▁卿	-9.35836
▁短	-9.35992
ゆる	-9.36135
▁荘	-9.36158
▁舞	-9.36185
▁鬼	-9.36287
▁菊	-9.36414
▁薩摩	-9.36437
▁弟子	-9.3658
▁二条	-9.36671
▁根	-9.3669
▁黄	-9.36819
▁放	-9.36894
▁持ち	-9.36897
▁体制	-9.36979
▁限	-9.37083
▁龍	-9.37238
▁計画	-9.37279
囲	-9.37312
▁引き	-9.37413
▁特徴	-9.37446
▁段	-9.37455
退	-9.37456
▁正室	-9.37516
▁兄弟	-9.37621
▁ど	-9.37635
次郎	-9.37696
越	-9.37722
▁列	-9.37765
▁基本	-9.37795
グ	-9.37811
▁人々	-9.37831
▁敵	-9.37909
▁建て	-9.37942
▁調査	-9.38041
姫	-9.38058
▁家人	-9.38141
▁幸	-9.38173
▁_	-9.38298
税	-9.38332
▁矢	-9.38365
車	-9.38418
▁含	-9.38456
▁釈	-9.38475
▁叙	-9.38546
▁英	-9.38582
▁程度	-9.38638
める	-9.38684
党	-9.38693
▁本尊	-9.38796
▁板	-9.3885
▁異なる	-9.38892
▁施設	-9.38894
▁天保	-9.38984
▁大夫	-9.38989
▁密	-9.39364
▁熊	-9.39369
▁優	-9.39691
教	-9.40124
像	-9.40126
▁相当	-9.40134
▁次第	-9.40186
▁大津	-9.4025
花	-9.40276
▁大寺	-9.40296
夫	-9.40594
▁紫	-9.40632
▁挙げ	-9.4068
スト	-9.40705
画	-9.40709
殿	-9.40882
語	-9.40947
▁美濃	-9.41057
▁綱	-9.41079
▁正月	-9.41154
▁枚	-9.41161
▁団	-9.41181
▁極	-9.41231
上げ	-9.41377
▁負	-9.41406
▁東山	-9.4141
▁党	-9.41433
▁用いる	-9.41542
▁塔	-9.41616
材	-9.41622
自	-9.41662
▁戦後	-9.41788
▁湖	-9.418
▁現れ	-9.41854
▁延暦	-9.41963
付	-9.42034
▁じょう	-9.42036
▁焼	-9.42052
▁続け	-9.42089
▁内閣	-9.42139
守	-9.42179
▁発行	-9.42368
述	-9.42377
船	-9.42418
▁状態	-9.42477
麻呂	-9.42499
▁弓	-9.42555
▁供	-9.42697
▁大将	-9.42712
▁史料	-9.42932
▁産	-9.42965
▁利	-9.43012
▁読	-9.43264
宅	-9.43518
▁蓮	-9.43542
▁引	-9.43579
▁軍事	-9.43583
▁筆	-9.43589
▁名前	-9.4366
全	-9.43767
▁前期	-9.43803
▁阪	-9.43805
▁伝承	-9.43839
▁低	-9.43916
▁主張	-9.4392
▁対象	-9.44178
美	-9.442
▁隆	-9.44212
▁寿	-9.44378
▁設け	-9.44451
種	-9.44458
▁表記	-9.44589
▁表現	-9.44628
護	-9.44792
▁多数	-9.44883
▁寮	-9.44991
極	-9.45268
小路	-9.45278
求	-9.453
▁つけ	-9.45352
▁堀	-9.45538
隊	-9.45592
▁完	-9.45612
▁湯	-9.45643
▁型	-9.45688
▁格	-9.45696
▁文学	-9.45736
＝	-9.45902
▁いえ	-9.45913
ズ	-9.45948
▁しょう	-9.45953
▁基づ	-9.46008
▁政策	-9.46021
▁征	-9.46027
▁配	-9.46032
▁任命	-9.46288
▁武蔵	-9.46514
▁普通	-9.46641
▁切	-9.46945
級	-9.46968
▁巡	-9.46982
▁里	-9.47045
▁割	-9.47157
▁崇	-9.47194
▁飛鳥	-9.47204
輪	-9.47208
収	-9.47237
▁向か	-9.47356
▁羽	-9.47533
乱	-9.47541
▁編纂	-9.47571
▁尾	-9.47607
▁国司	-9.4761
▁遊	-9.47765
よ	-9.47784
▁俊	-9.47795
死	-9.4781
右衛門	-9.47859
▁故	-9.47973
▁清盛	-9.48047
介	-9.48133
盤	-9.48134
雲	-9.48175
照	-9.48179
食	-9.4818
▁保存	-9.48242
▁関西	-9.48504
▁決	-9.48571
テ	-9.48664
▁味	-9.48665
▁身分	-9.48674
▁決定	-9.48835
佐	-9.48932
▁立て	-9.49014
角	-9.49044
▁指	-9.49071
▁構成	-9.49079
解	-9.49101
▁ニ	-9.49178
▁ヶ	-9.49345
込	-9.49398
▁任	-9.49433
▁尾張	-9.49558
▁歩	-9.49571
▁誕生	-9.4965
春	-9.49785
▁将	-9.49854
態	-9.49927
▁幕末	-9.50134
ール	-9.50145
▁宗教	-9.5029
▁コ	-9.50317
▁古く	-9.50398
関	-9.50561
▁量	-9.5063
域	-9.50666
▁銀行	-9.50673
o	-9.5085
▁道路	-9.50886
留	-9.50909
▁管理	-9.51002
▁文字	-9.51009
▁必	-9.51065
▁既	-9.5111
▁大将軍	-9.51227
▁選	-9.51266
▁功	-9.51274
▁登	-9.51284
▁仙	-9.51319
▁蘇	-9.51423
使	-9.51432
▁元号	-9.51453
▁夏	-9.51455
三郎	-9.51493
▁慶応	-9.51533
▁状況	-9.51677
彦	-9.51779
洋	-9.51962
ット	-9.51994
▁招	-9.52015
▁自由	-9.52072
▁攻め	-9.52118
▁賞	-9.5218
▁貴	-9.52201
▁及	-9.52259
▁阿弥陀	-9.52261
▁好	-9.52418
▁朱	-9.52485
▁開発	-9.52505
▁独立	-9.5262
▁方法	-9.52656
▁弁	-9.52709
ビ	-9.52804
頃	-9.52835
備	-9.52923
庭	-9.52973
▁儀式	-9.53059
▁呼	-9.53082
▁メートル	-9.53116
▁勘	-9.53134
忠	-9.53176
印	-9.53227
▁洋	-9.5327
坂	-9.53298
▁牛	-9.534
▁包	-9.5342
ギ	-9.53443
▁積	-9.53456
曲	-9.5351
▁属	-9.53591
喜	-9.53689
派	-9.53715
機	-9.53718
▁抄	-9.53765
▁変化	-9.5377
▁江	-9.53801
▁改め	-9.53831
具	-9.53863
基	-9.53886
▁陰陽	-9.53945
▁行事	-9.5411
倒	-9.5412
▁落	-9.54127
▁整備	-9.54241
功	-9.54325
▁模	-9.54348
▁器	-9.54385
▁ただ	-9.54414
▁考	-9.54539
▁建物	-9.54596
▁校	-9.54667
▁断	-9.54686
▁過	-9.54702
鳥	-9.54729
儀	-9.54743
▁ホーム	-9.5475
▁贈	-9.54763
▁傾	-9.54765
弟	-9.5481
▁布	-9.54895
送	-9.54988
景	-9.55117
▁200	-9.55144
▁雅	-9.55176
▁介	-9.55223
▁司	-9.55225
視	-9.55246
的	-9.55286
済	-9.55474
▁裏	-9.55489
庁	-9.55506
導	-9.55539
先	-9.5555
▁尊氏	-9.55563
▁オ	-9.55645
サ	-9.55664
歌	-9.55671
▁副	-9.55723
▁観光	-9.55804
▁宇	-9.55879
▁福知	-9.55984
▁射	-9.55987
▁高野	-9.56206
▁滋賀	-9.5626
柄	-9.5629
▁坊	-9.56382
▁条約	-9.56386
▁弾	-9.56396
▁組織	-9.56469
▁攻撃	-9.56471
▁付近	-9.56475
▁述べ	-9.56566
▁自然	-9.56626
▁判	-9.56647
▁さん	-9.56688
▁強い	-9.56714
▁皇女	-9.5691
醍醐	-9.56915
▁荒	-9.56922
▁木造	-9.5693
▁消	-9.56948
▁見る	-9.5695
▁つつ	-9.56987
▁改革	-9.57081
▁舞台	-9.57104
▁売	-9.5719
▁キ	-9.57205
▁坂	-9.5722
侶	-9.57285
ガ	-9.57294
▁呼称	-9.57402
▁禁	-9.57423
刀	-9.57432
らか	-9.57557
▁歌人	-9.57685
郎	-9.57715
▁祀	-9.57722
▁栄	-9.57793
▁証	-9.57848
興	-9.57908
▁至る	-9.57935
▁確立	-9.58025
▁太子	-9.58028
▁主義	-9.58049
▁房	-9.58058
▁ほう	-9.58147
▁新聞	-9.58273
圧	-9.58342
謀	-9.58424
▁大社	-9.58486
▁願	-9.58645
価	-9.58733
▁冠	-9.58737
秀	-9.58776
▁イ	-9.5879
▁くる	-9.58854
▁季	-9.58857
▁醍醐	-9.58904
▁運行	-9.58907
席	-9.58941
玉	-9.59
▁陣	-9.59152
▁近畿	-9.59158
▁日蓮	-9.59173
▁パ	-9.59206
断	-9.59302
在	-9.59394
▁記念	-9.59516
▁津	-9.59578
もと	-9.59678
▁経由	-9.59793
▁冬	-9.59842
▁魚	-9.59884
▁販売	-9.59895
▁著	-9.59916
▁ク	-9.59925
都	-9.60038
▁ごと	-9.60116
▁寺社	-9.60152
貞	-9.60161
▁街道	-9.60236
▁弥	-9.60277
陽	-9.60289
▁覚	-9.60307
総	-9.60377
▁皇太子	-9.60425
急	-9.60467
▁編成	-9.6057
慶	-9.60682
れる	-9.60713
遇	-9.60851
▁上野	-9.60855
リー	-9.60913
草	-9.61
▁存	-9.61035
▁飛	-9.61165
迦	-9.61279
ック	-9.61387
▁受ける	-9.61508
衣	-9.6154
▁生産	-9.61589
▁版	-9.61733
▁縁	-9.61751
▁服	-9.61757
三	-9.61891
足	-9.61987
▁料	-9.62075
売	-9.62145
▁吉田	-9.62181
▁近世	-9.62216
▁近い	-9.62347
▁呼び	-9.6238
▁聞	-9.62396
▁出し	-9.6241
▁編	-9.62482
▁制定	-9.62507
▁銭	-9.62549
▁芸	-9.62583
▁天下	-9.62601
▁復	-9.62617
茶	-9.62751
▁今日	-9.62772
▁浮	-9.62783
▁改正	-9.62794
▁層	-9.62796
▁温泉	-9.62797
▁初めて	-9.6296
示	-9.63024
置	-9.63024
けれ	-9.63159
▁折	-9.63168
品	-9.63171
▁活	-9.63212
▁いい	-9.63219
ご	-9.63352
▁三十	-9.63419
願	-9.63446
▁言え	-9.63501
▁葛	-9.63502
▁彦	-9.6355
局	-9.63805
▁勧	-9.63875
▁ト	-9.63877
▁アメリカ	-9.63886
▁行き	-9.63898
▁形成	-9.63944
貨	-9.63983
▁km	-9.63997
▁森	-9.64052
▁友	-9.64229
切	-9.64265
図	-9.64302
▁すな	-9.64323
▁晴	-9.64424
▁待	-9.64479
紙	-9.64556
▁界	-9.64685
如	-9.64695
▁漢	-9.64697
▁視	-9.64804
▁行政	-9.64875
▁規定	-9.649
▁意見	-9.65048
▁浪	-9.65104
かり	-9.65137
▁皇位	-9.65159
▁しか	-9.65211
市	-9.65247
殺	-9.65332
▁屋敷	-9.65335
▁桃山	-9.65366
岸	-9.65409
▁細	-9.65413
▁記載	-9.65468
▁創建	-9.65553
▁含む	-9.6559
▁メ	-9.65667
▁地区	-9.65695
▁電車	-9.65791
密	-9.65818
▁音楽	-9.6582
▁吉野	-9.65842
▁辞	-9.65912
▁そ	-9.65915
t	-9.65964
▁工	-9.66054
衡	-9.66112
約	-9.66149
▁出雲	-9.66189
▁集め	-9.66232
▁真宗	-9.66298
▁中将	-9.66343
旨	-9.66446
▁一揆	-9.66452
▁桜	-9.6648
▁やが	-9.66547
▁結婚	-9.66576
去	-9.66576
▁送	-9.66603
京極	-9.66681
▁公園	-9.66723
兄	-9.66734
べ	-9.66744
園	-9.66823
音	-9.66939
香	-9.67011
▁候	-9.67059
案	-9.67101
験	-9.67343
▁港	-9.67354
話	-9.67435
識	-9.67441
▁祖父	-9.67483
▁雲	-9.67573
▁区間	-9.67578
▁妹	-9.67617
▁兼任	-9.67758
巻	-9.6779
▁すべ	-9.67837
▁起源	-9.67934
モ	-9.67948
撰	-9.68018
▁上洛	-9.68073
▁博士	-9.68091
▁角	-9.68164
▁越前	-9.68179
▁ミ	-9.68186
▁尚	-9.68322
▁略	-9.68342
▁合わせ	-9.68383
▁谷	-9.68413
▁延喜	-9.6852
▁厚	-9.68625
▁兵庫	-9.6863
▁批判	-9.68735
▁薄	-9.68781
▁飯	-9.68811
▁臣	-9.68855
ダ	-9.68859
お	-9.68934
提	-9.68934
▁嵯峨	-9.69025
▁散	-9.69033
▁一種	-9.69112
段	-9.69139
徒	-9.69179
▁丹後	-9.69213
▁庵	-9.69291
▁護	-9.6939
▁中宮	-9.69393
▁夫	-9.69436
▁バ	-9.69467
▁庁	-9.69475
▁比較	-9.69547
▁行な	-9.6955
▁菅	-9.69717
▁蔵人	-9.69736
伏	-9.69775
氏	-9.69801
▁創	-9.6992
▁二十	-9.69927
▁施	-9.69955
同	-9.69955
▁保護	-9.70046
▁西園	-9.7009
そ	-9.7019
▁切り	-9.70211
▁構造	-9.70484
▁かん	-9.70501
▁柱	-9.70623
▁難	-9.70647
太	-9.70727
少	-9.70742
▁厳	-9.70875
念	-9.70912
▁庄	-9.71017
▁救	-9.71089
▁残し	-9.71091
▁国内	-9.71108
▁改称	-9.71222
▁大内	-9.71265
▁奪	-9.71447
▁土佐	-9.71463
嗣	-9.71469
ブ	-9.71543
▁禁止	-9.71554
▁流派	-9.716
今	-9.71613
▁薬	-9.71614
▁詩	-9.71657
ヤ	-9.71666
▁神戸	-9.71678
多	-9.71704
告	-9.71773
▁絶	-9.71781
回	-9.7181
付け	-9.71825
継	-9.71855
勤	-9.71857
▁免	-9.71873
▁営業	-9.72145
▁あら	-9.72178
▁金剛	-9.72271
▁宗家	-9.72343
▁昇叙	-9.72503
▁幹線	-9.72508
ぜ	-9.72519
▁華	-9.7253
▁後世	-9.72581
終	-9.72581
▁進め	-9.72594
▁棟	-9.72661
▁相続	-9.72679
メ	-9.72694
▁墨	-9.72707
▁素	-9.72714
伐	-9.72735
▁息子	-9.72783
▁剣	-9.72792
康	-9.72822
止	-9.72877
▁典	-9.72979
▁撮	-9.73098
摩	-9.731
▁経営	-9.73213
▁背景	-9.73232
▁前後	-9.73262
養	-9.73277
▁仕	-9.73368
▁別当	-9.73386
▁伝説	-9.7341
▁項	-9.73442
差	-9.73447
▁変更	-9.73468
▁軽	-9.73546
▁わけ	-9.73675
▁念仏	-9.73717
▁採用	-9.73741
▁稲	-9.73813
丸	-9.73888
▁種類	-9.73967
▁執	-9.73996
▁検	-9.74035
▁思	-9.74062
児	-9.74068
給	-9.7407
霊	-9.741
▁橘	-9.74384
確	-9.74384
抗	-9.74421
▁帰国	-9.74457
▁期間	-9.74473
▁血	-9.74684
▁つく	-9.7481
▁喜	-9.74902
▁尺	-9.74923
▁再建	-9.74931
▁もっ	-9.74962
▁近鉄	-9.75064
▁発見	-9.75168
▁担当	-9.75187
▁境内	-9.75202
▁石川	-9.75237
▁採	-9.75294
束	-9.753
▁播	-9.75304
便	-9.75331
▁範	-9.75396
尊	-9.75441
▁賜	-9.75468
▁固	-9.75473
▁安置	-9.75476
▁後継	-9.75492
▁銅	-9.75538
▁導入	-9.75549
▁輸	-9.75569
▁四条	-9.75585
▁読み	-9.75626
▁熊野	-9.75631
詞	-9.7565
▁詳細	-9.75672
▁扱	-9.758
あ	-9.75829
▁帯	-9.75881
▁確認	-9.75921
▁特急	-9.75971
誌	-9.76168
▁示す	-9.76198
▁奉	-9.76199
▁含め	-9.76229
▁半島	-9.76302
▁生没	-9.76319
望	-9.76328
▁取	-9.76451
浜	-9.76495
得	-9.7651
▁cm	-9.76542
▁駿	-9.76546
▁岡	-9.76614
▁旗本	-9.76686
▁因	-9.76743
因	-9.7682
▁光秀	-9.76827
育	-9.7688
▁暗殺	-9.76921
▁憲法	-9.7707
▁熱	-9.77115
▁依	-9.77154
貢	-9.77169
▁罪	-9.77187
▁作成	-9.77214
▁教え	-9.77215
類	-9.77242
▁わた	-9.77353
バ	-9.77369
▁言い	-9.77458
▁挙兵	-9.77547
調	-9.77557
紀	-9.77636
フ	-9.77646
▁一門	-9.77653
▁2006	-9.77673
ザ	-9.77673
▁食べる	-9.77704
▁リ	-9.77716
▁指摘	-9.778
▁違い	-9.77883
▁貫	-9.77905
▁智	-9.77923
▁琵琶	-9.77926
変	-9.77943
之助	-9.7795
▁分類	-9.77964
愛	-9.77996
▁訳	-9.78157
▁製造	-9.78221
ピ	-9.78292
づ	-9.78293
▁差	-9.78327
威	-9.78332
▁滅亡	-9.78561
出す	-9.78578
▁投	-9.78611
伴	-9.7876
▁区別	-9.78923
▁秘	-9.79044
▁食べ	-9.79057
▁詠	-9.79066
層	-9.79068
▁2007	-9.79072
▁貿易	-9.79072
▁芸術	-9.79083
乗	-9.79095
▁エ	-9.79113
申	-9.7912
君	-9.79172
▁又	-9.79288
ート	-9.79322
▁あたり	-9.79344
▁輪	-9.79427
従	-9.7954
▁至	-9.79572
▁百済	-9.79609
▁管領	-9.79731
▁巨	-9.79748
▁見せ	-9.79777
▁起	-9.79809
▁担	-9.79812
▁仮	-9.79936
▁占	-9.79987
▁あた	-9.80002
憲	-9.80037
設	-9.8005
▁捕	-9.80056
▁近く	-9.80212
将	-9.80301
▁所在	-9.80303
▁分け	-9.80309
左衛門	-9.80346
▁庭園	-9.80368
▁ちな	-9.80556
▁伊藤	-9.80564
▁唯	-9.80626
▁修行	-9.80729
▁みな	-9.80925
▁称する	-9.81023
▁宮内	-9.81137
▁本堂	-9.81248
観	-9.81311
垣	-9.81348
幣	-9.81405
居	-9.81423
▁離れ	-9.81491
▁財政	-9.81504
▁三河	-9.81573
習	-9.81577
▁俗	-9.8158
▁国道	-9.81609
▁成功	-9.81702
費	-9.81714
▁春日	-9.81732
夜	-9.81742
▁至っ	-9.81778
▁役割	-9.81806
▁雪	-9.81824
▁打ち	-9.8186
▁単位	-9.81985
▁背	-9.82006
▁指揮	-9.82063
丘	-9.82063
▁伝わる	-9.82085
納	-9.82093
▁納	-9.82309
▁開催	-9.82461
塔	-9.82507
▁台湾	-9.82594
▁協会	-9.82606
近	-9.82625
▁すぐ	-9.82672
孫	-9.82681
談	-9.82765
▁拡大	-9.82859
▁騎	-9.82908
覧	-9.82917
▁老	-9.82967
▁昇進	-9.83004
寿	-9.83075
▁普及	-9.83125
池	-9.83197
▁再興	-9.83259
▁唱え	-9.83298
▁代々	-9.83349
▁伝わ	-9.83373
▁淀	-9.83497
▁子供	-9.83534
▁甘	-9.83537
▁祝	-9.83602
▁ざ	-9.8362
d	-9.8366
殊	-9.8366
▁寸	-9.83742
▁似	-9.83944
▁やま	-9.83966
▁賀茂	-9.84079
▁快速	-9.842
A	-9.84241
▁徒歩	-9.84335
▁議員	-9.84339
亀	-9.84478
▁立像	-9.84522
製	-9.84694
▁優れ	-9.84725
▁実施	-9.84758
計	-9.84805
▁急行	-9.84839
▁双	-9.84855
▁全体	-9.84877
▁ヒ	-9.8497
▁鹿	-9.84993
▁大久保	-9.85011
▁声	-9.85061
▁解釈	-9.85156
▁ゆ	-9.85212
▁帖	-9.85344
▁あま	-9.8536
▁甲斐	-9.85421
幸	-9.85513
▁発表	-9.85573
澤	-9.85693
▁葉	-9.85709
▁予	-9.85786
▁茂	-9.85868
▁院政	-9.8587
▁ウ	-9.8587
ける	-9.85987
▁遣	-9.86021
代わり	-9.86072
▁崩御	-9.86105
▁信濃	-9.86108
辺	-9.86169
▁警	-9.86184
▁フ	-9.86213
▁問	-9.86223
▁敬	-9.8636
▁帳	-9.86377
▁東海道	-9.86532
▁太平	-9.86627
▁犬	-9.86696
働	-9.8679
▁300	-9.86794
離	-9.86936
▁焼き	-9.86984
▁統治	-9.8712
入れ	-9.87253
▁伊達	-9.87256
▁施行	-9.87265
▁道具	-9.87287
礼	-9.87288
穂	-9.87314
雀	-9.87349
▁安政	-9.87388
▁ぎ	-9.87414
▁立ち	-9.87442
▁邸	-9.87516
▁形態	-9.8753
布	-9.87545
・	-9.87585
▁国守	-9.87688
換	-9.87753
▁北海道	-9.87768
▁新田	-9.87782
壁	-9.87859
▁文政	-9.87868
斎	-9.87916
銭	-9.87936
つけ	-9.87987
▁肥	-9.88025
▁丁	-9.88051
u	-9.88085
状	-9.88111
傷	-9.88177
▁摂政	-9.88186
▁動き	-9.88274
梁	-9.88328
▁密教	-9.88342
▁後半	-9.88373
与	-9.88397
▁官職	-9.88423
▁出来	-9.88451
▁赴	-9.88473
▁作り	-9.88482
▁計	-9.88519
▁遺跡	-9.8863
▁標	-9.8869
▁使う	-9.88714
ょ	-9.88752
▁吉良	-9.88799
孝	-9.88805
板	-9.88816
▁停車	-9.88899
▁様式	-9.88968
察	-9.89021
▁ぶ	-9.89075
▁工事	-9.89081
▁宣下	-9.89083
▁指導	-9.89186
▁途中	-9.89319
▁境	-9.89329
▁なし	-9.89338
▁墳	-9.8939
▁戻	-9.89508
陣	-9.89521
易	-9.89582
▁敷	-9.89598
広	-9.89638
ワ	-9.89662
▁書き	-9.89676
▁城主	-9.89712
▁二人	-9.8973
▁関連	-9.8977
▁動	-9.89956
▁適	-9.90002
題	-9.90241
▁鴨	-9.90303
▁妃	-9.90335
▁統一	-9.90342
▁伯	-9.90378
▁純	-9.90469
丹	-9.90508
▁脱	-9.90593
▁備	-9.90627
▁任官	-9.90633
▁神話	-9.90702
芸	-9.90713
▁合併	-9.90747
▁木津	-9.90775
▁左京	-9.90844
▁500	-9.90891
▁敗れ	-9.90951
▁越後	-9.91056
▁紋	-9.91094
▁衣	-9.91095
▁烏丸	-9.9118
▁生じ	-9.91187
誉	-9.91324
▁隠居	-9.91329
資	-9.91371
▁株	-9.9149
▁小説	-9.91504
▁訪れ	-9.91622
▁会津	-9.91627
阿弥	-9.91642
▁憲	-9.91657
証	-9.91687
▁庶	-9.91811
古屋	-9.9185
幡	-9.91868
▁例え	-9.9187
▁勲	-9.91895
▁記事	-9.91961
▁造営	-9.91963
挙	-9.92027
▁示し	-9.9204
▁きょう	-9.92051
岳	-9.92051
想	-9.92055
二	-9.92095
▁敦	-9.92109
▁まず	-9.92118
▁初め	-9.92129
▁麻呂	-9.92145
▁対応	-9.92251
▁分かれ	-9.92275
▁交渉	-9.92348
▁歴任	-9.9235
合い	-9.92369
▁突	-9.92442
▁教授	-9.92498
▁拒	-9.92502
▁義仲	-9.9252
▁評	-9.92568
▁容	-9.92584
予	-9.92629
▁かた	-9.9279
▁絹	-9.92826
▁連合	-9.92876
▁文久	-9.92886
帯	-9.93005
▁与	-9.93043
▁学生	-9.93048
▁アジア	-9.93077
僚	-9.93077
▁よし	-9.93138
▁※	-9.93253
▁出版	-9.93253
延	-9.93329
▁行動	-9.93377
ティ	-9.93387
▁留	-9.93396
ふ	-9.93445
結	-9.93656
▁作者	-9.93661
却	-9.93817
弘	-9.94049
▁醤油	-9.94114
▁昇	-9.94146
僧	-9.94275
▁文章	-9.943
▁扇	-9.94303
▁千葉	-9.94322
▁章	-9.94353
▁鋳	-9.94402
▁封	-9.94415
▁雄	-9.9443
▁庶民	-9.94437
▁繁	-9.94439
▁煮	-9.94439
▁わ	-9.94454
▁ダ	-9.94485
▁向け	-9.94564
▁追放	-9.94569
▁少将	-9.94577
叡	-9.94665
▁侍従	-9.94717
▁牧	-9.9473
交	-9.94759
▁異な	-9.94767
▁性格	-9.94816
▁名乗	-9.94829
衙	-9.94862
▁逃れ	-9.94869
▁供養	-9.94872
▁小野	-9.94875
則	-9.94981
▁塚	-9.94992
▁蝦夷	-9.95012
▁銘	-9.95119
里	-9.953
▁功績	-9.95316
▁鹿児	-9.9532
▁行為	-9.95335
▁油	-9.95381
▁ナ	-9.95476
栄	-9.95585
p	-9.95615
額	-9.9563
▁戒	-9.95645
▁六角	-9.95663
▁観世	-9.95679
▁鶴	-9.95706
封	-9.95755
▁しゅ	-9.95815
▁堺	-9.959
▁押	-9.95911
▁家老	-9.95963
▁本山	-9.96011
▁しん	-9.96039
▁会議	-9.96045
塚	-9.96073
▁任ぜ	-9.9608
▁寄	-9.96119
▁医	-9.96126
▁地蔵	-9.96133
校	-9.96135
なる	-9.96187
季	-9.96195
令	-9.96221
駒	-9.96221
速	-9.96233
▁当たる	-9.96415
ター	-9.96489
▁ヲ	-9.96536
▁姉	-9.96564
かし	-9.96587
▁幅	-9.96621
否	-9.96677
露	-9.96685
▁年代	-9.96831
エ	-9.96968
走	-9.96983
▁返	-9.96999
▁命令	-9.97008
▁ころ	-9.97041
▁け	-9.97163
末	-9.9731
▁寛文	-9.97346
▁狭	-9.97381
后	-9.9743
▁箱	-9.97487
十郎	-9.97527
▁夢	-9.97552
▁簡	-9.97586
▁かみ	-9.97588
慮	-9.976
▁しばし	-9.97621
▁危	-9.97627
▁過ぎ	-9.97628
▁監	-9.97711
▁走	-9.9775
▁め	-9.97836
▁人気	-9.97844
▁平城	-9.97859
▁擁	-9.97946
▁懐	-9.9804
▁左右	-9.98066
▁岩倉	-9.98103
▁讃	-9.98104
北	-9.98179
▁右京	-9.98311
▁員	-9.98333
坊	-9.98343
球	-9.98359
▁畠	-9.984
▁攻	-9.98405
▁義満	-9.98493
▁団体	-9.9859
▁叡	-9.98733
▁技	-9.9887
▁地名	-9.98936
▁給	-9.98963
▁濃	-9.98995
▁車両	-9.99
▁往	-9.99068
賢	-9.99113
▁休	-9.99126
s	-9.99135
▁恋	-9.99179
▁鞍	-9.99183
▁争い	-9.992
▁ちょう	-9.99208
番	-9.99233
舎	-9.9924
かけ	-9.99254
底	-9.99308
▁追討	-9.99315
▁戦死	-9.99375
▁000	-9.99467
▁庭	-9.9958
竹	-9.99591
▁流行	-9.99593
▁拠点	-9.99626
▁常陸	-9.9963
▁斯	-9.99717
▁大師	-9.99768
▁概要	-9.99799
▁加賀	-9.99821
▁洛	-9.99861
修	-9.99921
▁所有	-9.99923
▁泉	-9.99951
▁見える	-9.99962
l	-10.0001
▁使者	-10.0006
県	-10.001
八	-10.0012
▁出土	-10.0021
▁造り	-10.0025
▁惟	-10.0028
那	-10.0039
▁軒	-10.0043
▁原因	-10.0044
▁奏	-10.0056
▁生涯	-10.0058
▁望	-10.0059
▁なさ	-10.0065
▁デ	-10.0067
▁被	-10.0077
詣	-10.0089
マン	-10.0098
▁センター	-10.0105
▁畿内	-10.0105
禅	-10.0119
▁圧	-10.013
▁応じ	-10.0134
▁まだ	-10.0137
▁亀	-10.0138
▁開設	-10.0141
▁名乗る	-10.0152
▁○	-10.0156
判	-10.0162
▁就	-10.0165
祖	-10.0167
▁賢	-10.0167
連	-10.0174
▁始まる	-10.0175
▁水戸	-10.0178
▁顔	-10.0183
▁移転	-10.0186
▁提出	-10.0188
ング	-10.0196
▁2005	-10.0201
▁地頭	-10.0203
享	-10.0211
▁路	-10.0214
▁処	-10.0216
▁)-	-10.0217
▁げ	-10.022
源	-10.0225
▁天王	-10.0232
▁小さ	-10.0245
▁劇	-10.0247
▁岡山	-10.0247
▁学問	-10.0253
▁晩年	-10.0253
▁インド	-10.0256
▁苦	-10.026
込み	-10.0265
▁登録	-10.0267
▁可	-10.027
▁山田	-10.0275
▁終わ	-10.0279
致	-10.0294
▁加わ	-10.0295
▁不動	-10.0296
▁惣	-10.0297
っとも	-10.03
妻	-10.0303
▁斉	-10.0303
存	-10.0308
E	-10.0315
▁商人	-10.0315
▁峠	-10.0319
▁東北	-10.0322
準	-10.0345
▁焼失	-10.0348
▁大蔵	-10.0351
▁農民	-10.0352
-	-10.036
澄	-10.0364
O	-10.0364
▁代わ	-10.0366
▁鷹	-10.0367
▁録	-10.0369
▁雨	-10.037
▁札	-10.0376
▁刊行	-10.038
▁男子	-10.0389
五郎	-10.0395
旦	-10.0397
▁浜	-10.0408
▁報	-10.0413
すで	-10.0414
▁詔	-10.042
▁べ	-10.043
▁慈	-10.0432
▁街	-10.0433
▁市川	-10.0437
▁脇	-10.0437
▁祭神	-10.0442
▁公開	-10.0449
▁写本	-10.045
▁邦	-10.0457
T	-10.0464
▁撰	-10.0466
▁役者	-10.0477
▁師範	-10.0481
▁C	-10.0488
▁即	-10.049
セ	-10.0492
▁ブ	-10.0493
▁数え	-10.051
▁わか	-10.0511
▁欠	-10.0513
▁句	-10.0525
c	-10.0526
ひ	-10.0539
▁是	-10.0542
▁除	-10.0543
▁茶道	-10.0544
▁薨去	-10.0546
▁情報	-10.0546
▁文献	-10.0546
▁電鉄	-10.0546
▁信玄	-10.0547
▁結成	-10.0548
途	-10.056
▁蒲	-10.0562
▁伊賀	-10.0567
▁樹	-10.057
▁課	-10.0571
▁衰退	-10.0579
酒	-10.0589
▁別名	-10.0593
絶	-10.0597
▁せい	-10.0598
▁和泉	-10.0602
襲	-10.0605
積	-10.0608
雷	-10.0613
▁葬	-10.0616
▁内裏	-10.0616
▁肉	-10.062
▁ごろ	-10.0625
▁菓子	-10.0629
▁案	-10.063
庵	-10.0633
▁直後	-10.0634
映	-10.0639
▁質	-10.0645
引	-10.0645
塾	-10.0646
▁否定	-10.0646
祭	-10.0652
▁祇園	-10.0663
▁思い	-10.0669
▁元服	-10.067
▁静	-10.0678
▁薩	-10.0679
▁提	-10.0681
貫	-10.0683
▁落ち	-10.0687
邸	-10.0693
▁圏	-10.0695
▁モ	-10.0699
▁系図	-10.07
▁墓所	-10.0701
▁著し	-10.0703
森	-10.0704
▁古い	-10.0711
▁吾妻	-10.0714
▁級	-10.0715
▁侍	-10.0716
待	-10.0719
▁変わ	-10.0721
▁同盟	-10.0722
▁2000	-10.0731
▁貞観	-10.0733
▁吹	-10.0736
▁すれ	-10.0746
▁狂言	-10.0749
比	-10.0758
▁女子	-10.0759
ップ	-10.0762
N	-10.0765
▁浦	-10.0777
息	-10.0784
▁作る	-10.0785
▁制作	-10.0799
倍	-10.0801
▁2008	-10.0816
▁師事	-10.082
▁大神	-10.082
匠	-10.0832
▁停	-10.0837
ハ	-10.0843
▁尽	-10.0856
▁指し	-10.0859
▁蒸	-10.0872
▁錦	-10.0884
▁外交	-10.0889
▁奇	-10.09
隈	-10.0902
▁分離	-10.0907
立て	-10.0918
I	-10.0919
▁無く	-10.0921
▁件	-10.0922
▁ド	-10.0928
真	-10.0928
▁才	-10.093
▁南部	-10.0932
▁始まり	-10.0932
▁イギリス	-10.0937
洲	-10.0937
▁価値	-10.0937
▁条件	-10.0938
▁比べ	-10.0939
▁様子	-10.0946
▁着用	-10.0947
▁ボ	-10.0953
担	-10.0957
▁協	-10.0958
▁契	-10.0962
▁あげ	-10.0964
▁果たし	-10.0965
▁東国	-10.0967
▁流通	-10.0968
▁紹介	-10.0972
r	-10.0976
聞	-10.0978
▁祀る	-10.0986
譜	-10.0987
復	-10.0991
▁だい	-10.0991
▁筑	-10.0993
▁終	-10.0999
▁設定	-10.1007
▁復活	-10.1007
▁あれ	-10.1015
▁伝来	-10.1019
▁次い	-10.102
▁恵	-10.102
▁刑	-10.1024
▁粉	-10.1033
▁復興	-10.1043
▁干	-10.1056
▁許可	-10.1059
破	-10.1064
衛	-10.107
▁所蔵	-10.1082
がっ	-10.1089
▁伝える	-10.1089
▁機能	-10.1098
電	-10.1102
▁おお	-10.1103
▁策	-10.1109
▁裁判	-10.1112
百	-10.1113
▁箏	-10.1118
▁展開	-10.113
▁編入	-10.1133
▁天守	-10.1133
ゃ	-10.1135
唐	-10.1137
刻	-10.1144
善	-10.1156
▁激し	-10.1165
▁歴代	-10.1166
▁拝	-10.1192
▁起き	-10.1193
▁ホ	-10.1198
▁天神	-10.12
▁方向	-10.1202
恵	-10.1205
▁老中	-10.1206
▁かなり	-10.1212
▁刻	-10.1222
韓	-10.1235
から	-10.1236
▁わず	-10.124
▁卒業	-10.1255
▁高倉	-10.1267
互	-10.1271
曜	-10.1272
▁陽	-10.1273
漢	-10.1274
▁隠	-10.1275
▁空海	-10.1275
しろ	-10.1276
四郎	-10.1277
▁長者	-10.1281
ディ	-10.1291
ゲ	-10.1308
▁めぐ	-10.1311
▁協力	-10.1313
▁ツ	-10.1327
宣	-10.1332
▁掛け	-10.1333
▁衛	-10.1334
▁忍	-10.1342
▁フランス	-10.1345
g	-10.1362
▁浄	-10.1363
除	-10.1373
▁ます	-10.1377
鼓	-10.1378
▁ロシア	-10.138
幕	-10.1385
飯	-10.1385
薬	-10.1387
▁冊	-10.1389
己	-10.1398
▁掛	-10.1398
▁競	-10.1416
奈	-10.1416
▁住宅	-10.142
▁端	-10.1423
▁宋	-10.1441
▁貨幣	-10.1453
▁皮	-10.1454
▁世襲	-10.1456
▁使い	-10.1465
列	-10.1471
▁銃	-10.1473
侍	-10.1476
そも	-10.1488
▁照	-10.1496
▁露	-10.1507
▁弱	-10.1508
▁抜	-10.1509
▁キリス	-10.151
▁交流	-10.1516
▁恒	-10.1517
鏡	-10.1525
▁得る	-10.1528
▁奥州	-10.1532
替え	-10.1536
▁極め	-10.1543
▁報告	-10.1545
▁創設	-10.1546
▁清水	-10.1556
▁徴	-10.156
▁テレビ	-10.1563
▁曼荼羅	-10.1563
▁目指	-10.1566
▁よい	-10.158
まざま	-10.1582
▁亡くな	-10.1582
▁若狭	-10.1582
なっ	-10.1595
釈	-10.1596
▁騒動	-10.16
▁狩	-10.16
▁建造	-10.1611
転	-10.1612
▁算	-10.1612
▁敗	-10.1616
▁責	-10.1628
▁亡	-10.1628
▁大宮	-10.1629
▁国鉄	-10.1633
▁三重	-10.1634
測	-10.1636
▁陥	-10.1638
▁辞任	-10.164
▁運営	-10.1641
▁降	-10.1646
張	-10.1648
円	-10.165
▁つき	-10.1651
▁坐像	-10.1657
▁推測	-10.1657
▁落語	-10.1658
返し	-10.1658
▁方針	-10.1658
▁嵐山	-10.166
切り	-10.1669
▁重ね	-10.1676
訴	-10.1681
▁額	-10.1691
握	-10.1692
▁韓国	-10.1694
▁三位	-10.1695
▁科学	-10.1702
肉	-10.1704
▁餅	-10.1709
▁説明	-10.171
▁伊豆	-10.1713
▁堅	-10.1719
D	-10.1731
▁稲荷	-10.1731
▁復帰	-10.1731
▁屋根	-10.1737
昌	-10.1739
▁セ	-10.174
▁コン	-10.1742
▁陰	-10.1769
▁垂	-10.177
▁演じ	-10.1775
▁越	-10.1779
▁長岡	-10.1782
▁岐	-10.1788
▁側近	-10.179
帝	-10.1793
▁受	-10.1799
骨	-10.1802
▁事情	-10.1803
災	-10.1805
▁妖怪	-10.1806
▁併	-10.1807
豊	-10.1812
▁勇	-10.1814
まる	-10.1816
▁配置	-10.1827
▁処分	-10.1829
▁五十	-10.1829
▁星	-10.183
▁張	-10.1844
▁ぞ	-10.1862
▁レ	-10.1864
▁植	-10.1868
▁富士	-10.187
俊	-10.1875
管	-10.1875
▁蕎麦	-10.1882
▁鑑	-10.1887
▁儒	-10.1889
節	-10.1891
縁	-10.1892
▁混乱	-10.192
▁菩	-10.1921
▁絵画	-10.1923
▁位階	-10.1927
奏	-10.1932
▁諸説	-10.1933
▁写	-10.1934
▁始	-10.1943
沼	-10.1944
辰	-10.1944
▁長官	-10.1945
▁誓	-10.1952
滅	-10.1958
報	-10.1958
■	-10.1978
▁税	-10.1988
住	-10.1989
禰	-10.1997
▁降伏	-10.1998
▁減	-10.1998
▁笠	-10.2006
▁海外	-10.2007
婿	-10.2016
厳	-10.2022
▁タイ	-10.2023
階	-10.2024
▁もち	-10.2029
策	-10.2032
▁大石	-10.2033
▁原則	-10.2039
▁良い	-10.2041
▁嫁	-10.2042
染	-10.2044
▁警察	-10.2056
▁放送	-10.2057
▁小笠	-10.2058
▁家系	-10.2059
▁兼ね	-10.2062
▁人口	-10.2063
請	-10.2065
▁昌	-10.2066
▁大戦	-10.207
▁主人	-10.209
▁於	-10.2093
▁激	-10.2094
▁ロ	-10.2103
▁竜	-10.2108
▁追い	-10.2109
服	-10.2111
▁生き	-10.2112
崩	-10.2114
病	-10.2117
父	-10.2126
載	-10.2127
▁上方	-10.2128
▁郎	-10.2129
▁ガ	-10.2131
軽	-10.214
麦	-10.2153
▁祭祀	-10.2153
▁逸話	-10.2153
▁衛門	-10.2157
ラン	-10.2161
粉	-10.2163
▁こそ	-10.2175
▁華族	-10.2175
▁網	-10.218
▁醸	-10.2185
ント	-10.2188
婚	-10.2189
▁向	-10.2191
▁皇太后	-10.2192
▁侵攻	-10.2192
特	-10.2198
レー	-10.2207
替	-10.2208
▁綾	-10.221
▁将門	-10.222
▁抱	-10.2223
▁増加	-10.2232
干	-10.2235
▁申	-10.2237
▁増え	-10.2251
▁箇所	-10.2251
▁演奏	-10.2252
▁ベ	-10.2261
富	-10.2262
▁押し	-10.2263
▁諱	-10.2263
▁北部	-10.2265
▁深い	-10.227
毒	-10.2271
やか	-10.2273
▁用語	-10.2276
参	-10.2278
▁管	-10.229
▁謀反	-10.2291
▁人形	-10.2298
▁授け	-10.231
▁公方	-10.2311
▁甥	-10.2316
起	-10.2318
▁転じ	-10.2318
▁年度	-10.233
▁援	-10.2333
▁根拠	-10.2333
▁形状	-10.2335
▁法律	-10.2337
▁宗派	-10.2343
▁胡	-10.2343
宿	-10.2345
▁胤	-10.2352
▁意識	-10.2353
▁田中	-10.2354
▁取っ	-10.2354
▁戦闘	-10.2354
▁東寺	-10.2358
▁確	-10.236
▁称号	-10.2362
空	-10.2365
▁静岡	-10.2373
▁太鼓	-10.2373
▁占め	-10.2381
▁李	-10.2382
▁楽器	-10.2394
継ぎ	-10.2412
▁其	-10.2418
▁高速	-10.2423
きり	-10.2436
S	-10.2438
▁刺	-10.244
▁著名	-10.2441
▁おか	-10.2448
▁うどん	-10.2451
▁文庫	-10.2455
▁黒田	-10.2456
▁どの	-10.2457
▁づけ	-10.2459
C	-10.246
▁杉	-10.2469
▁明王	-10.2476
▁出羽	-10.2477
▁請	-10.2479
▁坂本	-10.248
▁法名	-10.2481
▁芳	-10.2486
▁昼	-10.2487
ション	-10.2489
そう	-10.2494
▁費	-10.2505
▁鳴	-10.2508
▁しも	-10.2513
▁乙	-10.2516
幅	-10.2519
▁亀山	-10.2523
▁漁	-10.2528
▁逃げ	-10.2532
▁席	-10.2532
▁切腹	-10.2532
パ	-10.2534
入り	-10.2536
▁倉	-10.2543
均	-10.2552
阜	-10.2552
▁詳し	-10.2553
▁転任	-10.2557
▁衝	-10.2562
べく	-10.2566
▁所属	-10.2567
▁洗	-10.257
▁削	-10.2571
括	-10.2573
▁ドラマ	-10.2573
▁ポ	-10.2573
順	-10.2578
▁磐	-10.2587
託	-10.2593
筒	-10.2593
▁除く	-10.2605
▁正平	-10.261
▁和歌山	-10.261
▁利休	-10.2614
▁延長	-10.2616
ベ	-10.2624
弓	-10.2624
▁還	-10.2633
▁祭り	-10.2638
▁執権	-10.2639
俗	-10.2643
▁催	-10.2644
▁認	-10.2647
声	-10.2647
とう	-10.265
▁恐れ	-10.2655
▁探	-10.2655
▁決め	-10.2655
▁義昭	-10.2658
▁持た	-10.2661
▁感じ	-10.2662
m	-10.2663
渡	-10.2665
▁滝	-10.2669
▁仏像	-10.2681
▁渋	-10.2685
整	-10.269
▁一切	-10.2693
▁段階	-10.2697
▁失敗	-10.2718
▁扱い	-10.2722
▁女御	-10.2726
▁五条	-10.2726
継ぐ	-10.2729
脈	-10.2738
寄	-10.2742
▁我	-10.2745
舞	-10.275
▁須	-10.2751
問	-10.2752
似	-10.2756
笑	-10.2758
▁まとめ	-10.2758
▁辺	-10.2759
▁則	-10.2759
編	-10.2762
▁酒造	-10.2773
早	-10.2775
▁儀	-10.2775
泊	-10.2779
千	-10.2781
唱	-10.2794
▁基礎	-10.28
▁政務	-10.2801
▁征伐	-10.2801
▁工業	-10.2803
▁准	-10.281
▁経典	-10.2812
歩	-10.2817
▁桐	-10.2819
▁出る	-10.2821
象	-10.2822
▁波	-10.2833
砂	-10.2847
規	-10.2848
▁そば	-10.2849
▁攘	-10.2855
▁長い	-10.2855
▁寄進	-10.2865
章	-10.2865
▁避け	-10.2867
▁備え	-10.2867
▁実現	-10.2867
▁まつ	-10.2868
▁テ	-10.2871
▁考える	-10.2874
バー	-10.2874
闘	-10.288
▁表す	-10.2883
媛	-10.2884
▁縄	-10.2897
▁石山	-10.2903
▁叔父	-10.2905
▁閏	-10.2908
▁留学	-10.291
▁祐	-10.2913
▁みや	-10.2914
ヨ	-10.2926
▁効果	-10.2926
六	-10.2927
▁産業	-10.293
▁学び	-10.2936
無	-10.2936
窓	-10.2947
▁縁起	-10.2948
▁要素	-10.2949
遠	-10.2952
▁反乱	-10.2953
▁沙	-10.2959
▁作業	-10.2959
▁氏族	-10.2966
ペ	-10.2968
▁愛宕	-10.2969
▁発掘	-10.2971
ゆ	-10.2974
▁ばかり	-10.2979
▁始ま	-10.2988
▁振	-10.2988
▁北陸	-10.2992
▁史跡	-10.2994
散	-10.2998
▁やす	-10.3009
▁三成	-10.3012
▁支援	-10.3014
商	-10.3016
放	-10.3019
▁古典	-10.3023
街	-10.3023
迎	-10.3027
減	-10.3031
取り	-10.3032
▁皇帝	-10.3034
▁審	-10.3037
▁補任	-10.3038
▁予定	-10.3039
▁嘉永	-10.3042
▁本文	-10.3043
▁嫌	-10.3046
弦	-10.3054
畑	-10.3054
索	-10.3054
▁概念	-10.3054
小	-10.3062
ぬ	-10.3067
▁温	-10.307
ずる	-10.307
▁薬師	-10.3075
▁ヨーロッパ	-10.3075
虫	-10.3075
▁委員	-10.3075
らく	-10.308
▁東宮	-10.3081
▁ゴ	-10.3086
毛	-10.3087
▁金堂	-10.309
▁勤め	-10.3105
▁重視	-10.3111
仙	-10.3111
▁重臣	-10.3114
▁国造	-10.3118
▁系譜	-10.3121
▁A	-10.3133
▁まさ	-10.3137
▁たとえ	-10.3141
▁対抗	-10.3144
▁権限	-10.3145
▁益	-10.3147
絵	-10.3156
のう	-10.3163
▁乗車	-10.3164
▁小倉	-10.3165
▁昔	-10.3166
▁國	-10.3168
帥	-10.3183
▁福井	-10.3184
▁淳	-10.3186
▁チ	-10.319
▁やすい	-10.3192
▁乗り	-10.3198
▁納め	-10.3198
▁させ	-10.3209
▁下り	-10.3218
イス	-10.3225
浴	-10.3227
▁ふじわら	-10.3227
▁難波	-10.3229
▁篠	-10.3236
▁関わ	-10.3236
潮	-10.3249
▁通し	-10.3249
▁輔	-10.325
評	-10.325
▁取り入れ	-10.3251
▁芸能	-10.3252
▁住職	-10.3253
▁ざる	-10.3257
▁仮名	-10.3258
▁いち	-10.3266
▁2004	-10.3271
▁技法	-10.3275
▁卵	-10.3275
▁排	-10.3276
▁下向	-10.3281
棄	-10.3293
▁忌	-10.3294
敬	-10.3296
▁送り	-10.3301
▁もつ	-10.3303
▁中山	-10.3307
リア	-10.3308
欧	-10.3315
▁下車	-10.3315
雑	-10.3317
▁秀忠	-10.3319
句	-10.3319
序	-10.3323
ソ	-10.3336
▁知る	-10.3338
龍	-10.334
▁租	-10.3341
▁山崎	-10.3342
▁北朝	-10.3342
▁定着	-10.3344
▁秋田	-10.3355
▁朝臣	-10.336
許	-10.3362
▁小田	-10.3375
▁プロ	-10.3381
▁田辺	-10.3384
▁書道	-10.3386
▁学ぶ	-10.3389
▁楠	-10.3389
▁あと	-10.3394
▁率	-10.3398
魂	-10.3403
▁基準	-10.3406
▁後円	-10.3406
練	-10.3416
率	-10.3422
▁属す	-10.3423
▁券	-10.3424
揚	-10.3424
寧	-10.3425
▁経緯	-10.3426
▁糸	-10.3427
加	-10.3428
区	-10.343
▁暴	-10.343
▁寿司	-10.3432
▁床	-10.3441
▁おこな	-10.3442
就	-10.3451
▁訓	-10.3454
捕	-10.3456
読	-10.3457
▁女王	-10.3464
n	-10.3469
陀	-10.347
h	-10.3471
▁数多	-10.3475
大寺	-10.3476
盟	-10.348
▁ケ	-10.3485
▁象徴	-10.3492
▁山陰	-10.3498
▁シテ	-10.35
▁丹	-10.3503
フィ	-10.3509
▁了	-10.351
▁随	-10.3511
▁寒	-10.3512
疑	-10.3513
▁接	-10.3515
▁せん	-10.3521
▁統合	-10.3523
▁融	-10.353
▁もう	-10.3533
▁到着	-10.3538
▁由	-10.3544
運	-10.3545
たび	-10.3545
▁知っ	-10.3549
葬	-10.3553
紋	-10.3556
▁愛知	-10.3563
▁寝	-10.3566
史	-10.3566
▁羅	-10.3568
▁総督	-10.3568
こう	-10.3571
▁したが	-10.3577
▁襲	-10.3582
魔	-10.3582
▁民俗	-10.3585
▁乾	-10.3588
穀	-10.3605
▁工芸	-10.3606
枝	-10.3607
▁表示	-10.3608
▁駐	-10.3612
▁筋	-10.3616
▁T	-10.3625
腕	-10.3627
▁籠	-10.3633
境	-10.3644
▁要請	-10.3652
▁附	-10.3667
▁山内	-10.3671
▁夕	-10.3673
▁範囲	-10.3675
▁隣	-10.3675
虎	-10.3676
訳	-10.3677
▁共同	-10.3678
▁袖	-10.368
▁珠	-10.3693
▁困難	-10.3696
▁大路	-10.3704
▁悟	-10.371
▁進出	-10.3711
▁文治	-10.3715
潟	-10.3719
▁佐々木	-10.3719
▁展示	-10.3719
▁碑	-10.3725
▁役職	-10.3726
▁長野	-10.3732
▁踏	-10.3735
狗	-10.3742
隅	-10.3742
▁親鸞	-10.3742
▁死亡	-10.3742
律	-10.3743
▁医学	-10.3746
素	-10.3767
融	-10.3772
▁酸	-10.3774
▁漆	-10.3776
▁付き	-10.3777
容	-10.3785
怒	-10.3787
▁慣	-10.3788
▁争	-10.3789
▁議会	-10.379
▁前半	-10.379
ちら	-10.379
効	-10.38
▁砂	-10.3805
▁うえ	-10.3815
▁鉱	-10.3819
▁威	-10.3829
▁離	-10.383
▁断絶	-10.3835
▁嫡流	-10.3841
亭	-10.3846
▁すぎ	-10.3847
y	-10.3857
励	-10.3857
▁装束	-10.3857
がり	-10.386
▁隆盛	-10.3863
堀	-10.3865
海人	-10.3865
▁共通	-10.3868
筋	-10.3869
詰め	-10.3871
H	-10.388
▁説話	-10.3891
▁茶屋	-10.3896
▁環境	-10.3904
▁改名	-10.3904
▁献上	-10.3909
▁移動	-10.3909
▁書院	-10.3911
▁側室	-10.3915
▁見解	-10.3918
▁直通	-10.392
▁置く	-10.3923
壺	-10.3927
▁鉄砲	-10.3928
▁壁	-10.3934
益	-10.3941
▁念	-10.3942
K	-10.3944
航	-10.3948
デ	-10.3948
▁今出	-10.3949
▁紅	-10.3956
▁便	-10.3966
録	-10.3971
▁支え	-10.3974
▁上人	-10.3978
詰	-10.3983
▁平治	-10.3986
▁与える	-10.3989
店	-10.3991
▁知事	-10.3991
果	-10.3996
▁食品	-10.4001
▁農業	-10.4002
▁調理	-10.4004
没	-10.4006
わり	-10.4008
▁政変	-10.4008
▁嗣	-10.4013
▁行幸	-10.4014
▁ドイツ	-10.4021
▁味噌	-10.4021
▁かかわ	-10.4022
▁受領	-10.4024
▁髪	-10.4024
▁道真	-10.4029
▁入れる	-10.4029
▁確保	-10.4047
▁縦	-10.4053
▁幽	-10.4059
▁充	-10.4062
援	-10.4063
▁関与	-10.4073
▁抵	-10.4075
▁変え	-10.4078
せる	-10.4083
▁宇多	-10.4098
▁選ば	-10.4101
▁淡	-10.4113
純	-10.4114
▁譜代	-10.4116
謡	-10.4137
▁出来る	-10.4141
▁修理	-10.4146
廃	-10.416
k	-10.4164
▁処刑	-10.4164
▁消滅	-10.4165
▁務める	-10.417
▁代官	-10.417
▁穴	-10.4172
▁沖	-10.4173
ンゴ	-10.4176
▁当た	-10.4183
▁軌	-10.4184
▁恩	-10.4186
綿	-10.4188
合わせ	-10.419
▁ソ	-10.4198
▁まし	-10.4198
▁出仕	-10.4215
▁筆頭	-10.4215
▁展	-10.4221
ード	-10.4231
▁但し	-10.4236
防	-10.4237
▁宇都	-10.4237
ボ	-10.4238
▁出陣	-10.4247
▁後述	-10.4247
▁僧正	-10.4255
▁虎	-10.4257
▁商品	-10.4262
▁寵	-10.4266
▁花山	-10.4268
▁頂	-10.4269
▁敏	-10.4275
▁滅ぼ	-10.4284
▁相模	-10.4284
▁停止	-10.4285
▁漢字	-10.4288
▁勧修寺	-10.4308
▁鎮守	-10.4311
▁淀川	-10.4319
▁女房	-10.4321
表	-10.4327
▁行く	-10.4329
▁労	-10.4332
屯	-10.4333
▁失脚	-10.4333
▁訴	-10.4335
▁結び	-10.4337
▁精神	-10.4341
▁偽	-10.4346
謙	-10.4357
▁｢	-10.436
▁献	-10.4361
▁太夫	-10.4362
▁合流	-10.4373
▁辛	-10.4373
▁練	-10.4377
伸	-10.4381
▁柏	-10.4387
陵	-10.4392
貴	-10.4393
▁くら	-10.4399
▁想	-10.4404
〔	-10.4406
▁構え	-10.4409
▁屏風	-10.4431
▁神祇	-10.4434
限	-10.4436
▁M	-10.4436
▁誇	-10.4438
遊	-10.4442
▁腰	-10.4455
軸	-10.4455
▁｣	-10.446
▁中華	-10.4464
▁坂上	-10.4469
罪	-10.4472
獄	-10.4474
避	-10.4476
▁伽藍	-10.448
吏	-10.448
▁出兵	-10.4481
▁論争	-10.4482
▁〕	-10.4483
▁注意	-10.4485
▁禅宗	-10.4485
▁迫	-10.4488
▁和田	-10.449
▁午	-10.4494
庫	-10.4495
向き	-10.4496
▁やや	-10.4499
▁程	-10.4502
／	-10.4505
▁旨	-10.4506
▁いん	-10.4507
▁分家	-10.4513
▁畳	-10.4514
▁見え	-10.4524
戒	-10.4524
突	-10.4524
▁健	-10.4527
▁亀岡	-10.4533
▁集落	-10.4545
▁談	-10.4545
感	-10.4548
砲	-10.4553
眼	-10.4554
L	-10.4555
▁養女	-10.456
▁しょ	-10.4567
▁坐	-10.4571
▁斬	-10.4571
奪	-10.4576
港	-10.4576
菜	-10.4578
B	-10.458
▁面積	-10.4582
▁著書	-10.4587
▁区分	-10.4594
▁長政	-10.4596
▁検非違使	-10.4604
深草	-10.4612
▁厳し	-10.4614
▁飾	-10.4622
窮	-10.463
▁祈願	-10.463
▁太郎	-10.463
▁居住	-10.4631
▁上下	-10.4632
▁柴	-10.4653
吾	-10.4655
透	-10.4655
▁徐	-10.4657
▁強化	-10.4664
焼き	-10.4664
込む	-10.4665
▁法令	-10.4667
▁西軍	-10.4671
▁大輔	-10.4673
鹿	-10.4678
壇	-10.4683
裁	-10.4684
▁有する	-10.4688
▁亭	-10.4692
▁州	-10.4696
▁麻	-10.4703
▁署	-10.4705
▁欧米	-10.4705
▁家光	-10.4706
▁障	-10.4707
▁横浜	-10.4707
▁著作	-10.4712
▁炭	-10.4719
▁腹	-10.4724
掘	-10.4727
▁滞在	-10.473
▁連絡	-10.4731
範	-10.4731
▁分割	-10.4732
タン	-10.4746
▁役所	-10.4747
▁逸	-10.4749
▁神事	-10.4751
銅	-10.4754
▁装飾	-10.4756
▁曾	-10.4757
備中	-10.4777
“	-10.4781
▁葬儀	-10.4782
算	-10.4789
▁果	-10.4792
▁桑	-10.4793
▁材料	-10.4807
▁沖縄	-10.4807
▁実子	-10.4807
▁武者	-10.4808
折	-10.4812
刊	-10.4831
2003	-10.4832
▁童子	-10.4839
▁薫	-10.4849
▁つか	-10.485
▁家紋	-10.4852
悲	-10.4853
▁繰り返	-10.4858
▁辞職	-10.486
▁けん	-10.4867
▁はず	-10.4872
▁四国	-10.4874
▁桃	-10.4877
▁右衛門	-10.4882
▁過程	-10.4884
▁制限	-10.4886
▁安芸	-10.4892
▁高麗	-10.4892
背	-10.4894
周	-10.4894
樹	-10.4897
▁渡り	-10.49
▁河原	-10.49
▁ひめ	-10.4908
▁管轄	-10.4909
▁整理	-10.491
▁試験	-10.491
▁ヤマト	-10.491
▁しゃ	-10.4914
▁解説	-10.4916
▁収め	-10.4917
▁幾	-10.4919
争	-10.492
敵	-10.4922
難	-10.4922
▁袴	-10.4924
ほ	-10.4925
▁越え	-10.4925
ーク	-10.4927
▁親し	-10.4947
敗	-10.4948
訓	-10.4953
▁いつ	-10.4959
▁づ	-10.496
▁氷	-10.496
鉢	-10.4961
▁あくま	-10.4961
▁つとめ	-10.4961
▁写真	-10.4962
▁政宗	-10.4965
▁K	-10.4968
▁障子	-10.4971
▁上演	-10.4972
M	-10.4981
R	-10.4986
▁撃	-10.4988
▁開拓	-10.4989
首	-10.5002
喜多	-10.5004
▁連れ	-10.5005
髪	-10.5008
▁仁和	-10.501
棚	-10.5013
▁崩壊	-10.5013
▁火災	-10.5015
▁改易	-10.5016
▁いき	-10.5029
▁翁	-10.5031
▁いか	-10.5032
▁側面	-10.5035
▁ワ	-10.5035
▁探題	-10.504
鬼	-10.5059
▁汁	-10.506
▁買	-10.506
繁	-10.5061
畠	-10.5061
▁検校	-10.5066
▁司令	-10.5067
弁	-10.5067
▁阿波	-10.507
豪	-10.5087
ゴ	-10.5091
▁浄瑠璃	-10.5092
▁使節	-10.5094
▁湾	-10.5101
▁戦前	-10.5105
▁食事	-10.511
クラ	-10.5111
▁長谷	-10.5112
▁物部	-10.5117
F	-10.5118
▁受賞	-10.5118
労	-10.5119
▁習	-10.512
▁法然	-10.5132
▁学者	-10.5132
▁かわ	-10.5138
郡	-10.514
刑	-10.5144
研	-10.5144
▁準備	-10.5144
▁捕らえ	-10.5145
▁架	-10.5145
▁りょう	-10.5148
▁病死	-10.5148
▁もたら	-10.5149
▁傍	-10.5151
イン	-10.5162
▁ぼ	-10.5164
忌	-10.5169
固	-10.5171
▁とおり	-10.5171
▁襲撃	-10.5172
▁"	-10.5176
▁規	-10.5182
▁遷	-10.5183
▁囲	-10.5183
▁奴	-10.5193
▁猿	-10.5199
▁判断	-10.5199
▁カレー	-10.52
▁知識	-10.5201
▁ラ	-10.5204
▁あい	-10.5204
▁陶	-10.5215
▁仕える	-10.5215
閣	-10.5218
▁絵巻	-10.5223
▁試み	-10.5229
ェ	-10.524
▁正三	-10.5243
下げ	-10.5249
▁劣	-10.525
▁ダイヤ	-10.5251
▁鳥居	-10.5254
一郎	-10.5256
▁び	-10.526
▁題	-10.5261
梨	-10.5267
▁ライ	-10.5274
▁名乗り	-10.5276
亜	-10.5277
訟	-10.5277
▁処理	-10.528
▁皆	-10.5281
▁連歌	-10.5282
▁創立	-10.5284
▁槍	-10.5285
郭	-10.5298
査	-10.5302
▁イメージ	-10.5304
▁輝	-10.5305
▁収録	-10.5306
▁英語	-10.5307
▁助け	-10.5322
▁市場	-10.5324
▁御前	-10.5324
やく	-10.533
灰	-10.5331
稿	-10.5331
▁佐賀	-10.5337
▁植物	-10.5337
峰	-10.5345
▁酵母	-10.5358
▁体系	-10.5364
思	-10.5365
悪	-10.5366
注	-10.5367
▁違	-10.5387
▁瑞	-10.5387
▁萬	-10.5389
柳	-10.5399
▁製法	-10.5401
▁結びつ	-10.5401
▁平定	-10.5402
▁場面	-10.5403
▁緑	-10.5403
an	-10.5406
▁壇	-10.5406
ずつ	-10.541
▁釜	-10.5411
ニュー	-10.5412
▁掲げ	-10.5412
▁遷都	-10.5413
▁減少	-10.5413
▁議	-10.542
▁門下	-10.5435
▁オランダ	-10.5439
▁漫画	-10.5439
▁邸宅	-10.5441
▁笛	-10.5442
シャ	-10.5444
▁受け入れ	-10.5447
▁序	-10.5451
兼	-10.5451
英	-10.5453
伯	-10.5454
▁此	-10.5455
▁義家	-10.546
▁カード	-10.5469
▁鍋	-10.5476
▁神楽	-10.5479
▁紀伊	-10.5485
▁宮城	-10.549
▁B	-10.5493
▁骨	-10.55
▁徹	-10.5504
▁部隊	-10.5506
ぞ	-10.5507
▁暗	-10.5508
▁超	-10.5509
▁政所	-10.551
▁概	-10.5511
▁汲	-10.5518
▁獲得	-10.5521
珠	-10.5525
▁出現	-10.5527
▁おく	-10.5528
▁不足	-10.5531
強	-10.5536
麗	-10.5539
▁亮	-10.5544
er	-10.5546
條	-10.5549
▁丁目	-10.5553
▁麹	-10.5567
しょう	-10.5569
込ま	-10.557
好み	-10.5572
▁術	-10.5575
▁逃亡	-10.5576
煙	-10.5576
▁北野	-10.5587
閑	-10.5604
允	-10.5604
▁儒教	-10.5605
▁配流	-10.5612
リン	-10.5612
十	-10.5613
▁ぶり	-10.5613
▁つなが	-10.5618
▁道場	-10.5623
焼	-10.5623
胤	-10.5629
▁興行	-10.5635
▁雅楽	-10.5638
▁瓦	-10.5651
▁限り	-10.5652
雪	-10.5654
▁あわせ	-10.566
ポ	-10.566
▁栗	-10.5662
▁総裁	-10.5662
▁S	-10.5665
▁丈	-10.5666
▁飾り	-10.5676
祥	-10.5682
▁俳優	-10.5687
蓋	-10.5687
▁しゅう	-10.5688
▁瀬	-10.5689
▁J	-10.5691
▁巻き	-10.5694
▁年齢	-10.5702
▁､	-10.5704
▁紀元	-10.5706
曽	-10.5713
尹	-10.5715
▁祈	-10.5717
▁煎	-10.5719
▁秦	-10.5723
▁鯨	-10.5728
秋	-10.5742
▁豆腐	-10.5743
簡	-10.5746
▁和服	-10.5747
▁ビ	-10.5748
いに	-10.5753
▁総理	-10.5756
▁高松	-10.5757
▁ヘ	-10.5758
▁書物	-10.5763
▁夫人	-10.5764
▁じゅ	-10.5769
▁磯	-10.5772
▁豆	-10.5776
▁進み	-10.5784
チャ	-10.5791
▁イン	-10.5793
波羅	-10.5804
▁河原町	-10.5804
▁認定	-10.5805
▁一番	-10.5808
▁舎	-10.5809
▁誤	-10.5809
▁上げ	-10.5812
▁少し	-10.582
▁新設	-10.582
b	-10.5828
▁井伊	-10.5828
▁眼	-10.5828
標	-10.584
▁締結	-10.5856
▁げん	-10.5857
▁那	-10.586
▁義務	-10.5863
▁嘆	-10.5869
▁督	-10.5876
▁浸	-10.5878
枢	-10.5884
▁鈴木	-10.5887
▁被害	-10.5887
▁棒	-10.5888
▁庇	-10.5888
▁本殿	-10.5892
▁引用	-10.5895
鉄	-10.5895
▁千代	-10.5901
▁習慣	-10.5913
▁法師	-10.5915
▁格式	-10.592
占	-10.5923
才	-10.5925
がる	-10.5935
▁芝	-10.5939
▁漢詩	-10.5942
▁徒	-10.5946
▁資格	-10.5948
▁裁	-10.5963
▁貸	-10.5974
雅	-10.5983
▁内蔵	-10.5992
▁長慶	-10.5995
罰	-10.5998
▁加増	-10.6
▁渡辺	-10.6002
▁灯	-10.6007
銀	-10.6009
▁蘭	-10.6009
▁宴	-10.6011
技	-10.6015
▁楽し	-10.602
▁賀	-10.6023
酵	-10.6028
婆	-10.6028
淵	-10.6028
▁疑問	-10.6028
▁頻	-10.6035
▁発足	-10.6036
▁並び	-10.6037
▁例外	-10.6037
▁去	-10.604
▁美し	-10.6042
▁辻	-10.6044
雨	-10.6045
迫	-10.6048
▁覆	-10.6053
燈	-10.6057
菱	-10.6057
▁提供	-10.6057
▁貨物	-10.6057
▁済	-10.606
▁閣	-10.6078
分け	-10.6078
殖	-10.6086
▁参考	-10.6087
▁引き継	-10.6087
▁分野	-10.6089
▁卒	-10.6089
▁後藤	-10.6092
開	-10.6094
▁飲	-10.6097
異	-10.6101
▁一覧	-10.6102
決	-10.6108
詳	-10.6109
G	-10.6115
▁博多	-10.6118
▁あん	-10.6134
激	-10.6139
▁昭	-10.614
ゼ	-10.6144
▁敗北	-10.6145
尉	-10.6145
▁盆	-10.6146
▁三郎	-10.6149
切れ	-10.615
▁也	-10.6151
▁築城	-10.6155
▁五郎	-10.6161
▁野村	-10.6165
レン	-10.6165
衰	-10.617
還	-10.6172
▁染	-10.6179
▁柔	-10.6182
齢	-10.6187
仲	-10.619
▁家族	-10.6192
▁かね	-10.6193
▁柄	-10.6194
▁ソー	-10.6195
湯	-10.6197
糸	-10.6201
▁最澄	-10.6202
庸	-10.6202
▁砂糖	-10.6203
▁サン	-10.6207
▁差し	-10.6212
▁取る	-10.6219
▁ぜ	-10.6226
▁･	-10.6231
▁剣術	-10.6234
▁流罪	-10.6237
▁義教	-10.6253
呂	-10.6259
▁おう	-10.626
▁努め	-10.6262
▁議論	-10.6263
柴	-10.6263
洞	-10.6264
▁豊後	-10.6267
蓮	-10.6285
匁	-10.6291
猛	-10.6291
縛	-10.6291
▁正親町	-10.6291
▁初頭	-10.6301
▁開通	-10.6307
九郎	-10.6314
▁猪	-10.6325
▁設計	-10.635
▁奉納	-10.6352
魚	-10.6353
▁対策	-10.6353
▁風習	-10.6356
揚げ	-10.636
▁訴え	-10.6367
▁サー	-10.6368
▁改元	-10.6368
スター	-10.6377
▁歌合	-10.6378
▁競技	-10.6381
▁弁当	-10.6383
顕	-10.6384
▁耳	-10.6389
▁弥生	-10.6389
▁居城	-10.639
▁苦し	-10.6392
▁職人	-10.6392
▁定家	-10.6395
▁日付	-10.6404
召	-10.6409
▁1990	-10.641
▁栽培	-10.641
該	-10.641
▁企業	-10.641
▁みこ	-10.6411
著	-10.6414
▁依頼	-10.6414
▁通過	-10.6414
▁琉	-10.6414
▁若い	-10.6415
▁侵	-10.6425
▁示	-10.6426
▁べし	-10.6427
▁本家	-10.6436
ロー	-10.6444
▁商業	-10.6446
▁王子	-10.6446
▁家元	-10.6449
▁病院	-10.6451
▁権利	-10.6453
▁吟	-10.6455
なり	-10.6467
▁誠	-10.6467
▁履	-10.6468
▁マキノ	-10.647
医	-10.6481
▁珍し	-10.6488
▁明石	-10.6493
二郎	-10.6495
▁成人	-10.6496
賊	-10.65
▁2002	-10.6501
▁大原	-10.6501
▁作法	-10.6501
▁愚	-10.6505
▁旗	-10.651
鶴	-10.6512
▁入内	-10.6515
賛	-10.6516
▁潜	-10.6519
飾	-10.6522
▁貧	-10.6529
▁秀次	-10.653
▁拾遺	-10.6531
▁掌握	-10.6531
敷	-10.6542
熱	-10.6544
▁さえ	-10.6544
▁怪	-10.6561
▁判官	-10.6567
始	-10.6573
三条	-10.658
環	-10.6582
らす	-10.6583
▁遂	-10.6591
邪	-10.6592
▁乾燥	-10.6592
唄	-10.6592
▁沈	-10.6592
▁きっかけ	-10.6592
▁翻訳	-10.6592
指	-10.6599
征	-10.6606
▁入学	-10.661
▁袋	-10.6616
倫	-10.6622
▁乗せ	-10.6622
組	-10.6635
▁六条	-10.6647
▁勃発	-10.6653
▁生地	-10.6656
▁発祥	-10.6656
▁丞	-10.6657
失	-10.6665
っと	-10.6667
公	-10.6669
▁1600	-10.6684
裕	-10.6684
麿	-10.6684
▁婦	-10.6685
▁載せ	-10.6686
▁法要	-10.6688
▁綱吉	-10.6689
回り	-10.669
裔	-10.6693
▁曹	-10.6694
▁大陸	-10.67
へ	-10.6702
符	-10.671
▁ホテル	-10.6715
粋	-10.6715
▁出発	-10.6716
現	-10.6716
▁竹田	-10.6718
▁長女	-10.6719
▁快	-10.6723
租	-10.674
▁きん	-10.6742
▁番号	-10.6758
▁賛	-10.676
▁固め	-10.6764
▁聞き	-10.6768
▁閉	-10.6769
苑	-10.6776
ヌ	-10.6776
▁遅	-10.6778
▁利益	-10.6778
▁解散	-10.6778
▁襲名	-10.6784
▁異説	-10.6786
▁長尾	-10.6788
▁少年	-10.6794
▁貝	-10.6797
返	-10.6799
▁おも	-10.6801
寛	-10.6801
補	-10.6801
▁止め	-10.6803
▁主体	-10.6805
▁塗	-10.6807
稚	-10.6808
弐	-10.6808
▁試	-10.6822
▁犯	-10.6823
▁幹	-10.6825
▁駅前	-10.6827
▁出自	-10.683
▁着物	-10.6831
ナー	-10.6832
▁歯	-10.6834
隔	-10.6839
▁1997	-10.6839
▁勧め	-10.6843
▁拍	-10.6843
受	-10.6843
▁遠江	-10.6844
▁作曲	-10.6847
▁損	-10.6851
▁授	-10.6853
▁地上	-10.6857
▁利家	-10.686
ーム	-10.6861
▁h	-10.6865
尻	-10.687
弱	-10.687
恩	-10.6871
▁伝授	-10.6872
▁番線	-10.688
▁能力	-10.6885
▁律	-10.6887
▁琴	-10.6892
▁置き	-10.6894
じょう	-10.6901
▁神奈川	-10.6902
▁乳母	-10.6903
▁大宰府	-10.6904
▁門人	-10.6905
▁出演	-10.6908
▁太陽	-10.6909
▁舟	-10.6912
▁始める	-10.6912
▁動物	-10.6913
▁重文	-10.6924
▁りゅう	-10.6933
▁ケース	-10.6933
▁トンネル	-10.6933
▁灌頂	-10.6933
▁専攻	-10.6934
妙	-10.6934
▁機構	-10.6934
▁ルート	-10.6935
温	-10.6937
演	-10.6938
袋	-10.694
▁太刀	-10.694
▁公事	-10.6941
▁仕事	-10.6942
▁移り	-10.6943
小松	-10.6946
▁会員	-10.695
▁移し	-10.6958
答	-10.6961
滋	-10.6965
▁選挙	-10.6967
▁当て	-10.6974
よそ	-10.6974
▁大半	-10.6978
▁兵力	-10.6979
▁堀川	-10.6985
▁アルコール	-10.6997
▁獅子	-10.6997
矢	-10.7
▁超え	-10.7003
▁申し	-10.7004
▁発売	-10.7005
▁書状	-10.7007
▁売り	-10.7013
▁山陽	-10.7027
蒙	-10.7029
▁但馬	-10.7029
▁触れ	-10.703
▁投げ	-10.7031
▁蘭学	-10.7032
▁しまい	-10.7037
▁禁じ	-10.7038
植	-10.7044
▁懸	-10.7045
▁橋本	-10.7054
ユ	-10.7057
▁来る	-10.7059
壊	-10.706
▁謙信	-10.7061
▁交換	-10.7064
▁受け継	-10.7068
▁桜井	-10.707
ar	-10.7076
▁分か	-10.7084
▁緩	-10.7085
伽	-10.7093
嘗	-10.7093
抜	-10.7096
▁秩	-10.7102
邦	-10.7104
縄	-10.7105
ーン	-10.7106
▁縫	-10.7112
▁倍	-10.7119
▁混ぜ	-10.7125
▁般若	-10.7125
悦	-10.7125
泥	-10.7125
聚	-10.7125
▁魂	-10.7125
▁折り	-10.7134
▁延宝	-10.7135
▁鈴	-10.7141
▁象	-10.7146
ラー	-10.7147
▁年寄	-10.7147
耕	-10.7157
慧	-10.7157
稙	-10.7157
▁茶碗	-10.7157
▁くれ	-10.716
▁珍	-10.7167
▁国府	-10.7171
▁嵯峨野	-10.7173
▁喪	-10.7181
▁乃	-10.7181
▁事例	-10.7185
壮	-10.7189
▁看	-10.7192
▁詮	-10.72
庄	-10.7205
▁コース	-10.7208
矩	-10.7222
隋	-10.7222
▁掲載	-10.7222
▁参拝	-10.7223
▁野菜	-10.7224
歴	-10.7224
かん	-10.7226
▁四十	-10.7228
▁穂	-10.7229
▁改良	-10.723
▁傘	-10.7232
▁日間	-10.7238
▁部屋	-10.7239
▁町人	-10.724
▁頼家	-10.7245
▁吉備	-10.7249
▁東海	-10.7253
烈	-10.7254
かす	-10.7257
▁買い	-10.7258
▁品種	-10.7262
▁評定	-10.7264
晴	-10.7273
▁廻	-10.7279
巧	-10.7287
旋	-10.7287
▁店舗	-10.7288
抜き	-10.729
▁違う	-10.7295
▁配下	-10.7296
碑	-10.731
黒	-10.7317
奔	-10.732
▁脱出	-10.7326
▁峰	-10.7326
▁速	-10.7328
▁機会	-10.7329
▁息	-10.7337
射	-10.7342
▁振り	-10.7343
▁元治	-10.7344
鑑	-10.7344
▁姉妹	-10.7353
▁叙爵	-10.7353
▁斎宮	-10.737
▁本社	-10.7381
彩	-10.7384
▁購入	-10.7386
▁記す	-10.7387
▁紐	-10.7392
▁ほん	-10.7393
ゅ	-10.7395
▁山中	-10.7395
▁復元	-10.7395
版	-10.7405
艦	-10.7414
▁枝	-10.7416
峯	-10.7417
渓	-10.7419
▁叙任	-10.7426
▁茶室	-10.7433
及	-10.7444
梅	-10.7444
賞	-10.7445
負	-10.745
糧	-10.7452
▁大宰	-10.746
▁上り	-10.7462
▁松井	-10.7465
▁作家	-10.747
▁人衆	-10.748
▁下級	-10.7483
届	-10.7484
▁余り	-10.7485
扉	-10.7485
▁化粧	-10.7486
▁稲葉	-10.7489
▁飛び	-10.7493
▁値	-10.7506
▁疎	-10.7506
▁揚げ	-10.7509
瓶	-10.7519
▁答え	-10.7522
▁中止	-10.7524
監	-10.7526
▁工場	-10.7526
▁致	-10.7527
▁洞	-10.7529
酒屋	-10.753
▁決ま	-10.7532
▁つれ	-10.7539
▁明神	-10.754
▁住む	-10.754
▁職務	-10.7545
▁櫓	-10.7545
▁残り	-10.7552
▁ぎょう	-10.7552
暮	-10.7552
縣	-10.7552
誅	-10.7552
閉	-10.7557
▁併せ	-10.7557
▁演目	-10.7562
▁信じ	-10.7576
▁わかる	-10.7579
財	-10.7586
▁儀礼	-10.7587
▁隣接	-10.7588
兄弟	-10.7589
▁くに	-10.7591
▁定員	-10.7597
▁名所	-10.7599
ダー	-10.7601
▁朝日	-10.7602
▁小山	-10.7606
▁しばら	-10.7614
ビス	-10.7617
▁詞	-10.7617
▁埼	-10.762
V	-10.762
▁翌日	-10.762
晋	-10.762
依	-10.762
▁〜	-10.7623
▁書写	-10.7624
▁じゅう	-10.7628
旬	-10.7631
▁こん	-10.7631
▁敷地	-10.7634
▁定義	-10.7647
毘	-10.7654
涼	-10.7654
襖	-10.7654
▁淡路	-10.7655
▁分裂	-10.7656
▁案内	-10.766
▁松竹	-10.766
腹	-10.7661
▁鳳	-10.7662
フェ	-10.7663
▁乗っ	-10.7677
▁沼	-10.7679
項	-10.7688
▁排除	-10.7688
▁かかる	-10.7689
▁じゃ	-10.7691
建	-10.7692
▁旅団	-10.7693
▁酢	-10.7694
▁鐘	-10.7699
▁区域	-10.7702
▁ごく	-10.7709
▁刃	-10.7714
構	-10.7715
▁シャ	-10.7717
▁所司	-10.7719
凡	-10.7722
▁脚	-10.7724
▁硬	-10.7732
たい	-10.7746
▁枕	-10.7746
▁つける	-10.7751
委	-10.7756
苗	-10.7756
蛇	-10.7756
▁怒り	-10.7757
▁目録	-10.7763
▁梶	-10.7766
禁	-10.7767
▁熟	-10.777
辻	-10.7771
▁麺	-10.7775
穴	-10.7778
▁すけ	-10.7788
塞	-10.7791
溶	-10.7791
菌	-10.7791
▁経歴	-10.7795
▁開祖	-10.7797
討	-10.78
（	-10.7801
▁寄せ	-10.7802
▁ぞう	-10.7803
▁小判	-10.7804
払	-10.7814
▁辰	-10.7816
▁一体	-10.7827
▁義輝	-10.783
▁玉葉	-10.7831
▁叙位	-10.7834
若	-10.7837
▁ひろ	-10.785
▁剥	-10.7852
▁討ち取	-10.786
▁猶子	-10.786
▁周防	-10.7861
▁武道	-10.7873
独	-10.7875
▁会館	-10.7877
▁男女	-10.788
▁日向	-10.7882
▁義時	-10.7884
▁スサノオ	-10.7894
▁モデル	-10.7894
滑	-10.7894
粟	-10.7894
▁奉公	-10.7895
▁正成	-10.7909
▁方式	-10.7911
▁普請	-10.7929
篭	-10.7929
▁峯	-10.7931
▁一行	-10.7932
▁けい	-10.7944
▁いけ	-10.7944
尚	-10.7947
▁アル	-10.7948
▁誘	-10.7957
笛	-10.7961
▁実家	-10.7964
▁みょう	-10.7964
斗	-10.7964
▁文武	-10.7965
▁扶	-10.7971
▁肩	-10.7974
▁捨て	-10.7978
▁こく	-10.7991
▁奮	-10.7991
▁狂	-10.7994
▁遺構	-10.8
▁符	-10.8004
▁わたり	-10.8004
▁俵	-10.8006
▁褌	-10.8006
▁諡	-10.8008
▁芹	-10.8013
当たり	-10.8015
▁欲	-10.803
▁葵	-10.8034
餡	-10.8034
▁互い	-10.8037
茂	-10.804
▁特色	-10.8041
▁孔	-10.8059
▁移行	-10.806
▁通信	-10.8064
▁太田	-10.8069
翼	-10.807
▁革	-10.8071
▁切っ	-10.8073
▁高山	-10.8075
ーズ	-10.8078
▁越中	-10.8078
▁栄え	-10.808
ヒメ	-10.808
裏	-10.809
ヒ	-10.8097
丁	-10.8099
▁諏訪	-10.8105
迷	-10.8105
▁輩出	-10.8105
▁囃子	-10.8105
▁微	-10.8106
▁和睦	-10.8106
▁東側	-10.8109
▁絵師	-10.8112
▁西側	-10.8114
▁発着	-10.8119
▁土器	-10.812
▁効	-10.8121
▁東洋	-10.8129
▁楼	-10.8132
鎮	-10.8133
妃	-10.8136
閥	-10.8138
▁教義	-10.8141
葺	-10.8141
U	-10.8141
勒	-10.8141
劇	-10.8142
▁布教	-10.8144
▁子爵	-10.8145
績	-10.8168
▁添	-10.8171
▁貢献	-10.8177
卑	-10.8177
廉	-10.8177
▁埋葬	-10.8177
▁危険	-10.8177
ファ	-10.8179
▁比売	-10.818
▁花園	-10.8183
はり	-10.8186
▁ロー	-10.8188
▁方形	-10.8189
▁一帯	-10.819
▁緒	-10.8197
▁奨	-10.8198
ない	-10.8199
▁炊	-10.8202
抜け	-10.8202
▁みる	-10.8203
厚	-10.8211
程	-10.8212
核	-10.8212
桶	-10.8212
▁芝居	-10.8213
▁遍	-10.8213
▁消息	-10.8214
▁移住	-10.8215
ズム	-10.8218
▁或	-10.8219
▁倒れ	-10.822
▁高槻	-10.822
▁司法	-10.8224
▁嶋	-10.8228
▁弔	-10.8236
活	-10.8243
共	-10.8247
▁天慶	-10.8248
獣	-10.8248
帳	-10.8249
▁加茂	-10.825
▁離宮	-10.8254
▁盆地	-10.8256
鮮	-10.828
▁終え	-10.8282
▁うま	-10.8284
×	-10.8284
兆	-10.8284
▁題材	-10.8286
須	-10.8288
▁宝亀	-10.8289
P	-10.8292
▁まち	-10.8292
どり	-10.8295
▁漬け	-10.8313
en	-10.8315
▁絶え	-10.8319
ぱ	-10.8321
▁捉え	-10.8321
▁運賃	-10.8321
ホ	-10.8324
▁留ま	-10.8324
▁語源	-10.8325
書き	-10.8336
▁駅舎	-10.8342
▁組合	-10.8342
▁宗盛	-10.8344
▁御殿	-10.835
紹	-10.8357
鼻	-10.8357
▁夫婦	-10.8357
▁瀬戸	-10.8359
▁取り上げ	-10.8362
了	-10.8365
▁払	-10.8366
▁原型	-10.8367
シア	-10.8385
▁膳	-10.8385
▁班	-10.8388
築	-10.839
▁彫刻	-10.8394
▁描写	-10.8395
剣	-10.8401
▁台頭	-10.8402
ルト	-10.8403
▁朽	-10.8404
直し	-10.8408
▁スル	-10.8423
惑	-10.843
檀	-10.843
▁動員	-10.8433
▁趣	-10.8433
▁箸	-10.8442
▁紀伊国	-10.8443
笠	-10.8444
▁忠臣	-10.8446
▁P	-10.8447
▁募	-10.8458
▁中務	-10.8464
v	-10.8467
▁巫女	-10.8467
▁終了	-10.8467
▁遂げ	-10.8468
▁名跡	-10.8469
▁皇居	-10.8471
▁環	-10.8479
▁寂	-10.8491
▁彰	-10.8492
▁借	-10.8502
髷	-10.8504
▁顧問	-10.8504
▁住居	-10.8508
▁大化	-10.8511
創	-10.8515
ッチ	-10.8519
▁政元	-10.8519
▁頼通	-10.8523
▁権守	-10.8525
▁天長	-10.8531
▁産地	-10.8531
▁彫	-10.8532
▁神名	-10.8532
▁大橋	-10.8539
▁おき	-10.854
掃	-10.8541
▁少輔	-10.8542
▁電化	-10.8549
▁すら	-10.8557
豆	-10.8563
▁荷	-10.8569
▁従軍	-10.8577
▁難し	-10.8577
▁到	-10.8577
▁肖像	-10.8578
拾	-10.8578
▁戻る	-10.858
▁安堵	-10.8581
▁修験	-10.8582
違い	-10.8583
▁権現	-10.8584
▁参戦	-10.8588
▁木戸	-10.8591
玄	-10.8591
▁皇統	-10.8593
▁府道	-10.8594
洞院	-10.8601
▁先代	-10.8602
▁呪	-10.8602
▁教会	-10.8606
▁ゆく	-10.8612
▁高島	-10.8612
f	-10.8615
▁童	-10.8615
▁壁画	-10.8617
▁連盟	-10.8618
▁糖	-10.8622
▁支給	-10.8625
押	-10.8632
降	-10.8635
勇	-10.8637
▁どこ	-10.8645
▁続き	-10.8651
滞	-10.8653
▁グループ	-10.8653
枠	-10.8653
▁恩賞	-10.8653
▁規制	-10.8656
▁院号	-10.8677
▁坪	-10.8678
▁死者	-10.8681
吸	-10.869
▁ICOCA	-10.869
▁緊	-10.8692
▁こちら	-10.8693
▁取引	-10.8694
▁ゆえ	-10.8701
聖	-10.8713
▁魏	-10.872
▁廟	-10.8727
▁1987	-10.8728
穏	-10.8728
▁京田辺	-10.8728
テン	-10.8732
▁脚本	-10.8733
▁狙	-10.8733
▁あて	-10.8734
▁山水	-10.8736
▁龍馬	-10.8738
▁えき	-10.8739
▁石室	-10.8739
▁選定	-10.8745
▁尽く	-10.8746
▁好ま	-10.8753
星	-10.8756
▁張り	-10.8759
▁胴	-10.8762
携	-10.8762
▁措置	-10.8766
斜	-10.8766
▁北山	-10.8767
▁勅使	-10.8769
▁繊	-10.8771
▁時宗	-10.878
▁果た	-10.8787
▁三千	-10.879
▁縮	-10.8795
ブル	-10.8799
▁執事	-10.8815
▁宣言	-10.8817
▁確か	-10.8822
▁旅行	-10.8829
浄	-10.8836
烏	-10.8842
▁太秦	-10.8842
▁男爵	-10.8844
▁猿楽	-10.8845
▁かける	-10.8845
▁プラ	-10.8849
▁入門	-10.885
▁鵜	-10.8855
▁そん	-10.8856
▁大日	-10.8867
織	-10.887
▁遅れ	-10.8871
▁有栖川	-10.8881
擬	-10.8881
骸	-10.8881
▁倒幕	-10.8881
▁立つ	-10.8885
▁岡崎	-10.8889
廻	-10.889
ウェ	-10.8891
▁広ま	-10.8891
▁恭	-10.8895
ども	-10.8906
陰	-10.8906
▁文様	-10.8911
昭	-10.8912
▁デザイン	-10.8919
蓄	-10.8919
釣	-10.8919
▁頼政	-10.8919
▁育て	-10.892
輔	-10.8925
▁萩	-10.8927
水尾	-10.8929
▁甚	-10.8939
▁地歌	-10.8943
甲	-10.8955
粒	-10.8958
▁開き	-10.8962
餅	-10.8964
▁実行	-10.8964
▁しかも	-10.8966
▁遺産	-10.8966
▁操	-10.8968
▁行列	-10.8978
塩	-10.8994
▁1907	-10.8996
▁1910	-10.8996
薦	-10.8996
▁哲学	-10.8997
浪	-10.8997
▁乗り入れ	-10.8997
▁下賜	-10.8999
▁塔頭	-10.9002
▁大河	-10.9004
▁低下	-10.9006
▁おそ	-10.9011
駄	-10.9026
スク	-10.9033
呈	-10.9035
杵	-10.9035
▁抱え	-10.9036
▁過ご	-10.9038
▁久秀	-10.9044
の子	-10.9045
吹	-10.9046
▁南都	-10.9051
▁溝	-10.9052
▁移る	-10.9061
▁社長	-10.9064
弥	-10.907
踊	-10.9073
戯	-10.9074
▁ちゅう	-10.9074
巣	-10.9074
▁警備	-10.9076
▁成分	-10.9078
▁繋が	-10.9078
▁主演	-10.908
刃	-10.9083
膳	-10.9083
▁細か	-10.9105
▁八条	-10.9108
巌	-10.9114
汰	-10.9114
鳩	-10.9114
▁紅葉	-10.9116
▁僧都	-10.9123
舎人	-10.9126
▁蒸し	-10.9128
▁弓道	-10.9129
▁決し	-10.9136
▁中川	-10.9142
▁守り	-10.9142
針	-10.9148
▁馬子	-10.9148
▁システム	-10.9153
棺	-10.9153
聴	-10.9153
▁訪問	-10.9153
▁忘れ	-10.9153
NH	-10.9154
▁八十	-10.9158
維	-10.916
拝	-10.916
床	-10.9164
琴	-10.9165
▁職業	-10.9172
▁佐久	-10.9174
▁屈	-10.9176
▁テー	-10.9183
啓	-10.9192
▁告げ	-10.9193
▁創始	-10.9193
▁素材	-10.9195
▁方丈	-10.9197
▁篤	-10.9199
▁香り	-10.9214
▁虚	-10.9217
▁--	-10.9222
▁移築	-10.9233
▁一派	-10.9234
▁盗	-10.9235
▁医師	-10.9235
▁不可	-10.9235
農	-10.9243
片	-10.9244
▁兼務	-10.9261
串	-10.9272
墾	-10.9272
▁IC	-10.9272
▁主催	-10.9272
▁授与	-10.9273
▁弓矢	-10.9273
▁現象	-10.9277
▁出産	-10.9278
▁城郭	-10.9282
墨	-10.9284
ンス	-10.9285
尼	-10.9287
舟	-10.9296
止め	-10.9298
▁青年	-10.9299
▁賦	-10.9303
液	-10.9312
郊	-10.9312
▁構想	-10.9312
掛け	-10.9312
▁奉還	-10.9313
▁翻	-10.9313
▁知り	-10.9313
▁附属	-10.9314
▁製品	-10.9317
▁備後	-10.9319
受け	-10.9325
▁遺言	-10.9327
▁吉宗	-10.9328
▁ゆう	-10.9332
旗	-10.9333
▁一家	-10.9334
▁大会	-10.9337
▁まつり	-10.9339
モン	-10.934
▁エピソード	-10.9352
▁最中	-10.9352
械	-10.9352
痛	-10.9352
▁閑院	-10.9352
▁舞踊	-10.9353
▁慣習	-10.9353
▁ゆかり	-10.9354
▁神職	-10.9355
▁高国	-10.9359
▁茨	-10.9361
▁条例	-10.9366
▁官制	-10.937
▁仰	-10.9373
▁せよ	-10.9373
▁景時	-10.9375
灯	-10.9381
ジャ	-10.9389
ろん	-10.9391
▁光源氏	-10.9392
▁筑紫	-10.9393
▁キャ	-10.9393
▁解決	-10.9394
▁薬師寺	-10.9397
▁劇場	-10.9398
▁介入	-10.9402
▁武術	-10.9406
まえ	-10.9408
酸	-10.9416
▁乳	-10.9429
杖	-10.9433
▁組み合わせ	-10.9433
▁伯爵	-10.9433
▁プロダク	-10.9433
▁奉仕	-10.9433
▁働き	-10.9434
▁草子	-10.9455
蘇	-10.9457
件	-10.9458
▁升	-10.9461
x	-10.9474
凶	-10.9474
患	-10.9474
▁戻り	-10.9475
▁養父	-10.9476
▁保管	-10.9479
▁抑え	-10.948
▁白川	-10.9487
▁部門	-10.9489
▁別れ	-10.949
▁アン	-10.9491
省	-10.9499
in	-10.95
▁寛平	-10.9506
哲	-10.9514
▁インターチェンジ	-10.9514
貌	-10.9514
▁杜氏	-10.9514
▁芸妓	-10.9515
▁踊り	-10.9515
▁欽	-10.9518
▁尋	-10.9524
籠	-10.9545
▁小川	-10.9553
ヴ	-10.9555
侯	-10.9555
脂	-10.9555
▁1999	-10.9555
▁再開	-10.9555
皿	-10.9555
▁外戚	-10.9558
▁遊女	-10.9563
ショ	-10.9565
ha	-10.9569
▁軍人	-10.9586
▁遣わ	-10.9588
▁みつ	-10.9588
▁1900	-10.9597
▁重んじ	-10.9597
▁構内	-10.9597
▁晩	-10.9597
▁敗戦	-10.9599
▁試合	-10.96
▁稀	-10.9602
デン	-10.9616
寄せ	-10.9629
柿	-10.9638
スタ	-10.9643
ネマ	-10.9644
▁のりば	-10.9649
▁強め	-10.965
▁描く	-10.965
▁斬り	-10.9662
on	-10.9671
w	-10.9679
▁祭礼	-10.9685
▁八木	-10.9692
▁学習	-10.9692
▁佛	-10.9693
▁交わ	-10.9695
▁阻	-10.9701
▁落とし	-10.9702
▁経路	-10.9709
皮	-10.9718
▁離脱	-10.9721
▁橿	-10.9724
▁困	-10.9725
▁風俗	-10.9726
ウン	-10.973
漬け	-10.9733
▁みち	-10.9738
▁中間	-10.9743
▁掌	-10.9743
こと	-10.975
細	-10.9758
▁饅頭	-10.9763
償	-10.9763
曳	-10.9763
牟	-10.9763
耆	-10.9763
胸	-10.9763
▁検討	-10.9764
▁追加	-10.9765
▁あき	-10.9775
▁社殿	-10.9779
おう	-10.9785
▁隠れ	-10.9798
▁じん	-10.9804
▁披露	-10.9805
朋	-10.9805
累	-10.9805
▁祈祷	-10.9805
冠	-10.9805
んじゃ	-10.9806
▁携わ	-10.9807
▁渡る	-10.9815
▁呉	-10.9817
▁天暦	-10.9821
▁手法	-10.9828
▁オー	-10.9829
▁追い込	-10.9832
▁歴	-10.9833
飼	-10.9847
▁ラーメン	-10.9847
▁預け	-10.9847
熙	-10.9847
▁編集	-10.9852
ウス	-10.9861
▁見な	-10.9872
▁役目	-10.9879
槻	-10.988
宜	-10.9889
堤	-10.9889
▁1996	-10.9889
▁どお	-10.9893
▁地震	-10.9895
▁金銀	-10.9896
▁弁官	-10.9897
縮	-10.9899
▁往来	-10.9902
ランド	-10.9907
▁戦う	-10.9909
▁突き	-10.9912
▁空手	-10.9912
▁嵐	-10.9912
▁雇	-10.9914
▁陳	-10.992
写	-10.9926
▁五山	-10.9926
▁キリシタン	-10.9932
▁稽古	-10.9932
▁祓	-10.9934
▁貞享	-10.9937
▁引き続	-10.9937
七	-10.9937
▁手紙	-10.9947
▁信忠	-10.995
▁凝	-10.9951
▁衆生	-10.9957
もり	-10.9959
▁近隣	-10.9976
▁習合	-10.9979
▁降下	-10.998
▁弘化	-10.9987
▁天津	-10.999
▁後ろ	-11.0004
▁実態	-11.0004
▁人事	-11.0017
荘	-11.0017
廊	-11.0018
症	-11.0018
▁先立	-11.0018
▁破壊	-11.0019
どう	-11.002
▁天王寺	-11.0024
▁汚	-11.0026
▁奉じ	-11.0028
▁晴元	-11.003
滝	-11.0031
ヘ	-11.0039
▁命名	-11.0048
▁元慶	-11.0049
▁八代	-11.0055
哀	-11.0061
蕃	-11.0061
，	-11.0061
▁抗争	-11.0061
認	-11.007
反	-11.0072
▁住持	-11.008
▁北方	-11.0086
▁官司	-11.0095
▁添え	-11.0097
▁旭	-11.0099
▁終わり	-11.01
鉾	-11.0104
▁鵜飼	-11.0104
▁育成	-11.0105
▁往復	-11.0105
▁雁	-11.011
▁先祖	-11.0111
▁講堂	-11.0111
▁地獄	-11.0115
▁法主	-11.0118
▁振る	-11.0121
午	-11.0123
▁殺し	-11.0126
▁みず	-11.0127
▁歓	-11.0128
▁名付け	-11.0135
▁広が	-11.0144
腐	-11.0147
猫	-11.0148
▁連携	-11.015
▁宮家	-11.0152
▁我が	-11.0153
▁創業	-11.0154
▁戦場	-11.0155
課	-11.0168
ワー	-11.0169
袖	-11.0171
峨	-11.0191
▁焼酎	-11.0191
▁容易	-11.0193
▁並べ	-11.0195
▁駆	-11.0196
▁ゆき	-11.0197
▁確定	-11.0201
▁四方	-11.0206
余	-11.0212
▁安達	-11.0226
▁摂家	-11.0228
綴	-11.0235
考	-11.0255
▁安全	-11.0257
候	-11.0261
▁うる	-11.0263
▁うけ	-11.0264
▁希	-11.0264
▁パン	-11.0265
▁史実	-11.0266
処	-11.0268
輩	-11.0279
慎	-11.0279
▁陵墓	-11.028
▁ご飯	-11.0282
▁車庫	-11.0283
▁宝塚	-11.0284
▁厩	-11.0286
▁語り	-11.029
▁向上	-11.0294
▁除き	-11.03
詮	-11.0309
靖	-11.0323
▁センチ	-11.0323
▁帰還	-11.0326
▁衣装	-11.0327
▁残す	-11.0327
▁東大	-11.033
▁勝家	-11.0331
ッド	-11.0332
▁寺町	-11.0339
▁来日	-11.034
▁ひら	-11.0348
隠	-11.035
▁法度	-11.0355
▁ふく	-11.0365
▁かな	-11.0367
▁タクシー	-11.0368
狐	-11.0368
脳	-11.0368
▁同族	-11.0379
▁長屋	-11.0388
丈	-11.0397
辞	-11.0399
▁跡地	-11.0405
▁まい	-11.0408
塵	-11.0412
慕	-11.0412
胎	-11.0412
葦	-11.0412
▁構築	-11.0412
▁由良	-11.0415
▁布告	-11.0415
al	-11.0434
▁願い	-11.0448
なか	-11.0449
箇	-11.0457
▁コーヒー	-11.0457
喫	-11.0457
窯	-11.0457
▁需要	-11.0457
▁召し	-11.0459
▁殆	-11.0463
▁手段	-11.0472
▁追わ	-11.0474
▁一緒	-11.0475
▁係	-11.0475
輝	-11.049
柱	-11.0494
埋	-11.05
▁国史	-11.05
▁王国	-11.0501
丼	-11.0501
至	-11.0502
蹴	-11.0502
▁紛争	-11.0502
俣	-11.0502
叩	-11.0502
▁番組	-11.0505
▁生み出	-11.0509
▁アー	-11.051
▁荒木	-11.0515
審	-11.0539
▁小姓	-11.0544
湊	-11.0548
▁情勢	-11.0548
麻	-11.0548
▁趣味	-11.055
▁防衛	-11.055
▁埋め	-11.055
▁田村	-11.0552
▁にくい	-11.0585
震	-11.0587
▁典範	-11.0594
▁隠岐	-11.0595
▁神器	-11.0604
▁海岸	-11.0606
▁執行	-11.061
▁小浜	-11.0616
▁養成	-11.0617
▁送る	-11.0627
▁語ら	-11.0634
療	-11.0638
枯	-11.0639
▁團十郎	-11.0639
▁うかが	-11.0639
▁桐壺	-11.0639
▁健康	-11.064
▁分布	-11.0651
▁屋号	-11.0658
▁作戦	-11.0659
▁津田	-11.0664
or	-11.0668
▁招き	-11.0673
▁どん	-11.0676
抑	-11.0677
X	-11.0685
妾	-11.0685
濠	-11.0685
▁印刷	-11.0685
▁規則	-11.0685
▁梅若	-11.0686
▁佐渡	-11.0688
▁名物	-11.069
▁大炊	-11.0694
▁公布	-11.07
▁神々	-11.0724
ーフ	-11.0727
施	-11.0727
架	-11.0729
▁組み	-11.0729
▁沿岸	-11.0731
暁	-11.0731
▁筒井	-11.0731
▁処罰	-11.0731
▁とどま	-11.0733
削	-11.0736
▁輸出	-11.074
▁議長	-11.0744
▁三宮	-11.0749
彌	-11.0777
湿	-11.0777
▁艦隊	-11.0777
▁起こす	-11.0782
▁オオ	-11.0782
顔	-11.0784
▁強調	-11.0784
サー	-11.0785
ごと	-11.0789
▁教員	-11.0795
▁出生	-11.0817
▁世代	-11.0817
▁俳句	-11.0823
汁	-11.0827
▁合奏	-11.0828
▁食材	-11.0831
▁-）	-11.0832
▁整え	-11.0837
▁番頭	-11.0838
▁ぶん	-11.0839
▁勝頼	-11.0841
▁きみ	-11.0843
▁割り	-11.085
エン	-11.0861
▁カラ	-11.0869
渉	-11.0869
▁アクセス	-11.087
寅	-11.087
柵	-11.087
藻	-11.087
賤	-11.087
▁樺太	-11.087
▁希望	-11.0871
▁始祖	-11.0871
▁衣服	-11.0871
▁季節	-11.0872
立つ	-11.0882
▁居士	-11.0883
▁挙げる	-11.0885
囚	-11.0917
箔	-11.0917
頓	-11.0917
▁持ち帰	-11.0918
▁浅草	-11.0922
▁被官	-11.0922
▁如意	-11.093
▁遊び	-11.093
▁アイ	-11.0934
▁義弘	-11.0937
▁親族	-11.094
▁直政	-11.095
赦	-11.0964
▁締め	-11.0964
憂	-11.0964
潔	-11.0964
▁企画	-11.0964
▁能登	-11.0965
▁市内	-11.0967
▁名神	-11.0972
▁尊像	-11.0974
醸	-11.0982
幹	-11.0983
▁えん	-11.0987
▁子女	-11.0988
▁正宗	-11.0995
セン	-11.0996
▁昆布	-11.1012
偶	-11.1012
▁列強	-11.1013
▁三昧	-11.1014
▁非難	-11.1014
▁弁慶	-11.1015
▁阿倍	-11.1015
▁料金	-11.1017
▁観念	-11.1018
▁山頂	-11.1022
▁陣屋	-11.1024
▁中興	-11.1026
▁時忠	-11.1044
碁	-11.1059
巳	-11.1059
楊	-11.1059
芋	-11.1059
▁赦免	-11.1059
▁設備	-11.1059
▁講談	-11.1063
▁議定	-11.1069
▁むら	-11.1071
▁五百	-11.1075
タル	-11.1105
▁俳諧	-11.1107
蔭	-11.1107
▁吸収	-11.1107
▁夕霧	-11.1107
▁実父	-11.1123
▁くだ	-11.1124
▁財団	-11.1125
免	-11.1131
▁性質	-11.1134
▁理事	-11.1135
▁化学	-11.1144
悔	-11.1155
杯	-11.1155
櫛	-11.1155
▁多賀	-11.1155
▁直轄	-11.1156
▁エリア	-11.1157
▁経過	-11.1159
バネ	-11.1161
篠	-11.1183
梵	-11.1204
檜	-11.1204
隷	-11.1204
▁提案	-11.1206
▁接続	-11.1206
▁推挙	-11.1209
▁事故	-11.1209
▁武芸	-11.1213
▁ヶ所	-11.1215
頂	-11.1224
▁うた	-11.1227
左	-11.1231
単	-11.1232
麓	-11.1242
▁全線	-11.1244
▁仕立て	-11.1254
▁春秋	-11.1255
▁小袖	-11.1259
もの	-11.1262
▁美作	-11.1277
譲	-11.1284
▁史書	-11.1288
W	-11.1301
傑	-11.1301
１	-11.1301
▁昇殿	-11.1304
▁立てる	-11.1309
▁吹き	-11.1323
▁全長	-11.1335
▁団地	-11.1337
也	-11.1338
▁婚姻	-11.135
▁竣工	-11.135
克	-11.135
枡	-11.135
鎧	-11.135
▁振興	-11.1352
▁門前	-11.1354
▁落城	-11.1364
▁借り	-11.137
▁内侍	-11.1371
▁ビル	-11.1384
昔	-11.1389
ァ	-11.139
▁河川	-11.1391
▁政友	-11.1395
錬	-11.1399
▁イベント	-11.1399
芽	-11.1399
迹	-11.1399
鋒	-11.1399
乳	-11.1401
▁ワキ	-11.1402
▁西京	-11.1403
▁つくら	-11.1404
▁雑賀	-11.1406
▁適用	-11.141
▁信者	-11.1427
▁宮殿	-11.1428
駅	-11.1434
▁宮司	-11.1439
はや	-11.1447
況	-11.1448
漏	-11.1449
酷	-11.1449
閤	-11.1449
▁恵まれ	-11.1449
▁家集	-11.145
▁討死	-11.1454
▁著者	-11.1462
▁続ける	-11.1468
▁定める	-11.1476
牧	-11.1492
漬	-11.1494
▁勝手	-11.1496
響	-11.1498
漉	-11.1498
▁ブーム	-11.1499
▁宝塔	-11.1505
▁寛弘	-11.1506
▁会所	-11.1507
▁下旬	-11.1511
▁力士	-11.1525
仕	-11.1539
▁大使	-11.154
輿	-11.154
債	-11.1548
暖	-11.1548
篇	-11.1548
耶	-11.1548
胆	-11.1548
▁与謝	-11.1549
▁勲章	-11.155
▁勅許	-11.155
▁握り	-11.155
▁公認	-11.1554
▁旅館	-11.1555
▁発布	-11.1559
▁職員	-11.1562
▁隠し	-11.1565
▁比定	-11.1582
割	-11.1586
帰	-11.1592
咲	-11.1599
逐	-11.1599
▁商店	-11.1601
▁向かい	-11.1601
▁宇佐	-11.1602
▁出汁	-11.1606
▁舎利	-11.1608
▁地理	-11.161
▁画像	-11.161
▁制圧	-11.1611
ニア	-11.1613
どころ	-11.1622
▁橋立	-11.1625
掛	-11.1625
▁列島	-11.1627
▁降り	-11.1639
▁きゅう	-11.1649
逢	-11.1649
▁工程	-11.165
尺	-11.1651
▁全般	-11.1651
買	-11.1653
▁味付け	-11.1653
ガン	-11.1661
▁上陸	-11.1662
チャー	-11.1667
▁山梨	-11.1669
▁家茂	-11.1674
ョ	-11.1687
▁論じ	-11.1688
▁付ける	-11.1691
▁道隆	-11.1697
【	-11.17
呑	-11.17
拳	-11.17
樫	-11.17
爆	-11.17
▁埴輪	-11.17
▁吉祥	-11.1704
鴨	-11.1704
▁公演	-11.1707
▁住み	-11.171
須賀	-11.1711
▁関わる	-11.1717
▁かぶ	-11.172
▁会長	-11.172
▁為義	-11.1734
▁ハイ	-11.1736
▁後裔	-11.1736
▁明法	-11.174
過	-11.1747
憑	-11.1751
缶	-11.1751
邑	-11.1751
雛	-11.1751
▁勤務	-11.1752
▁比企	-11.1752
▁支払	-11.1756
▁引退	-11.1756
▁取ら	-11.176
掌	-11.1772
▁誤り	-11.1777
▁屋台	-11.1778
▁宝生	-11.1789
悩	-11.1802
黙	-11.1802
煕	-11.1802
粥	-11.1802
臼	-11.1802
諾	-11.1802
群	-11.1811
逸	-11.1814
駆	-11.1841
躍	-11.1853
獲	-11.1854
鶏	-11.1854
泡	-11.1854
裾	-11.1854
裂	-11.1902
鎌	-11.1906
叔	-11.1906
肝	-11.1906
+	-11.1958
圀	-11.1958
錯	-11.1958
宇	-11.1973
冬	-11.1984
牽	-11.201
刈	-11.201
緒	-11.2012
訂	-11.2061
卓	-11.2063
涙	-11.2063
盲	-11.2063
禎	-11.2063
授	-11.2082
亡	-11.2085
桜	-11.2087
並	-11.2088
洛	-11.2129
残	-11.2132
脇	-11.2143
嶋	-11.2146
慢	-11.2169
檗	-11.2169
臭	-11.2169
陸	-11.2204
凍	-11.2222
岩	-11.2253
勅	-11.2255
扇	-11.2262
匹	-11.2276
卜	-11.2276
畝	-11.2276
鷲	-11.2276
増	-11.2306
攻	-11.2311
弾	-11.2312
童	-11.2315
亨	-11.233
嶽	-11.233
棋	-11.233
覇	-11.233
騨	-11.233
可	-11.2361
鋭	-11.2384
闇	-11.2384
墓	-11.2425
祇	-11.2431
絡	-11.2437
販	-11.2439
勉	-11.2439
把	-11.2439
践	-11.2439
遣	-11.2481
盾	-11.2494
巾	-11.2494
憤	-11.2494
撫	-11.2494
粘	-11.2494
酔	-11.2494
姿	-11.2542
栗	-11.2544
拓	-11.2546
〈	-11.2549
曇	-11.2549
裳	-11.2549
蹟	-11.2549
隻	-11.2549
荷	-11.2562
嘉	-11.2599
万	-11.26
堵	-11.26
逆	-11.26
婦	-11.2603
微	-11.2604
ぷ	-11.2605
怖	-11.2605
血	-11.266
静	-11.266
騒	-11.2661
函	-11.2661
振	-11.2715
毅	-11.2717
註	-11.2717
飴	-11.2717
喰	-11.2717
珍	-11.2723
阪	-11.2745
険	-11.2773
塁	-11.2773
峡	-11.2773
横	-11.2776
奉	-11.2776
欲	-11.2781
偏	-11.283
涌	-11.283
鳴	-11.2839
〉	-11.2887
甫	-11.2887
蚕	-11.2887
＜	-11.2887
黄	-11.2896
炉	-11.2944
摺	-11.2945
娘	-11.2958
竜	-11.296
芳	-11.296
鎖	-11.3002
炎	-11.3002
顧	-11.3003
偈	-11.3003
嶺	-11.3003
泳	-11.3003
潤	-11.3003
潰	-11.3003
纏	-11.3003
茎	-11.3003
添	-11.3022
眠	-11.3061
笹	-11.3061
肌	-11.3061
虜	-11.3061
蝶	-11.3061
故	-11.3074
打	-11.3077
銘	-11.3078
敏	-11.3083
塗	-11.3093
触	-11.3116
逃	-11.3116
孤	-11.3119
ぢ	-11.3119
厄	-11.3119
診	-11.3119
遁	-11.3119
冷	-11.3143
径	-11.3174
捜	-11.3178
而	-11.3178
欠	-11.3199
噺	-11.3237
某	-11.3237
牙	-11.3237
璽	-11.3237
刺	-11.3259
衝	-11.3269
燕	-11.3297
疫	-11.3297
熟	-11.3333
恭	-11.3334
蜂	-11.3357
ゾ	-11.3357
ヂ	-11.3357
乞	-11.3357
違	-11.3361
祐	-11.3395
曹	-11.3396
爵	-11.3401
訪	-11.3414
謝	-11.3415
拡	-11.3417
消	-11.3452
國	-11.3459
硬	-11.346
夭	-11.3477
掾	-11.3477
樋	-11.3477
軟	-11.3477
箱	-11.3522
疏	-11.3538
Y	-11.3538
朴	-11.3538
樽	-11.3538
璋	-11.3538
簿	-11.3538
脚	-11.3587
恨	-11.36
諭	-11.36
）	-11.3637
漫	-11.3661
帆	-11.3662
恥	-11.3662
仮	-11.3717
革	-11.3718
ォ	-11.3723
癒	-11.3724
粕	-11.3724
剛	-11.3782
眉	-11.3786
講	-11.3845
冥	-11.3849
殻	-11.3849
爾	-11.3849
票	-11.3849
褒	-11.3912
俘	-11.3912
％	-11.3912
桐	-11.3916
休	-11.3956
塀	-11.3976
宸	-11.3976
懇	-11.3976
祠	-11.3976
勲	-11.3979
泰	-11.3981
厨	-11.404
且	-11.404
叢	-11.404
幻	-11.404
莫	-11.404
遵	-11.404
個	-11.4049
辛	-11.4062
吐	-11.4105
晶	-11.4105
糾	-11.4105
膝	-11.4105
鰻	-11.4105
為	-11.4107
楼	-11.412
究	-11.417
傳	-11.417
朗	-11.417
抽	-11.417
斥	-11.417
瓊	-11.417
賓	-11.417
瓦	-11.4188
捨	-11.4227
圓	-11.4235
斑	-11.4235
砦	-11.4235
舒	-11.4235
以	-11.4254
翁	-11.4257
緑	-11.4257
刷	-11.43
霧	-11.43
卯	-11.4301
哉	-11.4301
磁	-11.4301
霞	-11.4301
悟	-11.4326
刹	-11.4367
曰	-11.4367
爪	-11.4367
袍	-11.4367
酉	-11.4367
狭	-11.4393
損	-11.4409
窟	-11.4434
麟	-11.4434
歳	-11.4464
２	-11.4501
昇	-11.4536
桑	-11.4537
匿	-11.4568
舌	-11.4568
展	-11.4603
戻	-11.4606
宴	-11.4609
半	-11.462
慰	-11.4628
j	-11.4636
壽	-11.4636
學	-11.4636
雰	-11.4636
輸	-11.4679
掲	-11.4705
伎	-11.4705
襟	-11.4705
乏	-11.4744
博	-11.4751
棟	-11.4752
耳	-11.4753
戚	-11.477
妊	-11.4774
窪	-11.4774
紗	-11.4774
馨	-11.4774
妹	-11.4824
燃	-11.4839
俳	-11.4843
亥	-11.4843
兜	-11.4843
撥	-11.4843
朔	-11.4843
鍛	-11.4843
快	-11.4892
執	-11.4895
卵	-11.4899
暴	-11.4899
篤	-11.4901
剤	-11.4913
挽	-11.4913
裸	-11.4913
徽	-11.4984
燗	-11.4984
狼	-11.4984
垂	-11.5048
淳	-11.5048
随	-11.5048
曾	-11.5048
盗	-11.5049
耐	-11.5052
藍	-11.5054
廓	-11.5054
盧	-11.5054
謂	-11.5054
遥	-11.5054
魁	-11.5054
狩	-11.5122
忍	-11.5123
‐	-11.5126
娶	-11.5126
擢	-11.5126
栖	-11.5126
騰	-11.5126
署	-11.5197
丑	-11.5198
崖	-11.5198
幌	-11.5198
應	-11.5198
懲	-11.5198
鋼	-11.5198
憶	-11.527
擾	-11.527
牒	-11.527
芝	-11.5276
茅	-11.5343
壷	-11.5343
欄	-11.5343
股	-11.5343
ィ	-11.5377
溜	-11.5417
秤	-11.5417
肥	-11.5429
協	-11.5429
–	-11.5491
叫	-11.5491
弊	-11.5491
隙	-11.5491
魅	-11.5491
鯉	-11.5491
何	-11.5518
謁	-11.5565
吊	-11.5566
惨	-11.5566
鈔	-11.5566
検	-11.558
夏	-11.5585
賃	-11.564
團	-11.5641
凰	-11.5641
瀧	-11.5641
牢	-11.5641
聘	-11.5641
誦	-11.5641
鍬	-11.5641
鞆	-11.5641
韻	-11.5641
偽	-11.5666
墳	-11.5673
弼	-11.5713
桟	-11.5716
禍	-11.5716
揺	-11.5792
髭	-11.5793
寸	-11.5823
≒	-11.587
椿	-11.587
浩	-11.587
炒	-11.587
煩	-11.587
譚	-11.587
恒	-11.5907
壱	-11.5947
楯	-11.5947
箕	-11.5947
漆	-11.5986
蘭	-11.599
舗	-11.6024
稽	-11.6025
畜	-11.6025
繰	-11.6025
膠	-11.6025
油	-11.6068
低	-11.6071
讃	-11.6084
仇	-11.6104
巴	-11.6104
截	-11.6104
椎	-11.6104
灌	-11.6104
菟	-11.6104
臨	-11.6154
鍋	-11.6156
鐘	-11.6156
借	-11.6156
瞬	-11.6184
臓	-11.6184
嫡	-11.6238
停	-11.6239
峙	-11.6264
藁	-11.6264
斉	-11.6305
完	-11.6323
姉	-11.6324
鳳	-11.6325
叉	-11.6344
宙	-11.6344
竺	-11.6344
繍	-11.6344
芥	-11.6344
馴	-11.6344
採	-11.6409
糖	-11.641
峻	-11.6425
碧	-11.6425
臈	-11.6425
釘	-11.6425
煮	-11.6493
隣	-11.6493
紫	-11.6494
邇	-11.6505
喬	-11.6507
槌	-11.6507
臂	-11.6507
賄	-11.6507
贋	-11.6507
遮	-11.6507
鷺	-11.6507
姪	-11.659
婢	-11.659
杓	-11.659
沸	-11.659
甕	-11.659
寮	-11.6668
睦	-11.6671
椀	-11.6673
聡	-11.6673
脩	-11.6673
繋	-11.675
支	-11.6754
移	-11.6754
斐	-11.6756
摘	-11.6757
妨	-11.6757
喩	-11.6757
湛	-11.6757
濁	-11.6757
畏	-11.6757
痘	-11.6757
簾	-11.6757
辱	-11.6757
霜	-11.6757
･	-11.6759
宰	-11.681
ャ	-11.6831
週	-11.6842
z	-11.6842
戴	-11.6842
畔	-11.6842
券	-11.6848
岑	-11.6928
帽	-11.6928
廣	-11.6928
瓜	-11.6928
薪	-11.6928
鍵	-11.6928
五	-11.6936
奇	-11.6938
妬	-11.7014
杏	-11.7014
皐	-11.7014
鞘	-11.7014
、	-11.7027
奴	-11.7029
苔	-11.7098
實	-11.7101
寳	-11.7101
暇	-11.7101
洒	-11.7101
竈	-11.7101
尽	-11.712
募	-11.7122
彫	-11.7122
泣	-11.7188
矛	-11.7189
漸	-11.7189
砕	-11.7189
硯	-11.7189
祚	-11.7277
煉	-11.7277
寂	-11.7308
央	-11.7353
兎	-11.7366
憐	-11.7366
簪	-11.7366
闕	-11.7366
鼠	-11.7366
攘	-11.7401
縫	-11.7402
鈴	-11.7402
値	-11.7402
奨	-11.7402
企	-11.7455
ゝ	-11.7456
挫	-11.7456
晦	-11.7456
牛	-11.7496
麺	-11.7497
穢	-11.7547
痕	-11.7547
糠	-11.7547
絃	-11.7547
臥	-11.7547
藝	-11.7547
麩	-11.7547
責	-11.7592
犯	-11.7593
懸	-11.7593
〒	-11.7639
匡	-11.7639
岬	-11.7639
焚	-11.7639
當	-11.7639
障	-11.7687
旧	-11.7688
湖	-11.7689
嘆	-11.769
唆	-11.7732
堪	-11.7732
鯨	-11.7781
深	-11.7787
俵	-11.7808
猟	-11.7825
亘	-11.7825
拙	-11.7825
朱	-11.7886
堯	-11.7919
帛	-11.7919
悉	-11.7919
硫	-11.7919
紺	-11.7919
舅	-11.7919
諦	-11.7919
紅	-11.7987
饗	-11.8015
豚	-11.8015
咫	-11.8015
椋	-11.8015
饌	-11.8015
熊	-11.8087
傍	-11.8088
逝	-11.8111
倶	-11.8111
堰	-11.8111
紐	-11.819
壌	-11.8208
牲	-11.8208
犠	-11.8208
蛛	-11.8208
ｍ	-11.8208
脱	-11.8292
株	-11.8292
棒	-11.8293
趣	-11.8294
帷	-11.8306
廬	-11.8306
拭	-11.8306
灘	-11.8306
畷	-11.8306
疾	-11.8306
桃	-11.8397
瑞	-11.8397
匂	-11.8405
舶	-11.8405
裟	-11.8405
遽	-11.8405
鮎	-11.8405
敢	-11.8405
祀	-11.8497
適	-11.8502
遍	-11.8503
苦	-11.8503
幟	-11.8505
傅	-11.8606
叱	-11.8606
斡	-11.8606
蓬	-11.8606
虐	-11.8606
酛	-11.8606
閲	-11.8606
鯛	-11.8606
腰	-11.8609
釜	-11.8609
廟	-11.8609
洪	-11.8708
杜	-11.8708
劫	-11.8708
肯	-11.8708
肴	-11.8708
艶	-11.8708
衷	-11.8708
賠	-11.8708
健	-11.8716
緯	-11.8807
礎	-11.8809
伍	-11.8811
冶	-11.8811
悼	-11.8811
淑	-11.8811
稜	-11.8811
伊	-11.8821
秘	-11.8824
洗	-11.8824
磐	-11.8841
冑	-11.8915
桁	-11.8915
碩	-11.8915
３	-11.8915
卿	-11.8929
懐	-11.8931
猶	-11.902
棲	-11.902
拶	-11.9021
挨	-11.9021
眞	-11.9021
躯	-11.9021
鏃	-11.9021
ā	-11.9021
是	-11.9043
ヅ	-11.9127
訶	-11.9127
佳	-11.9127
俸	-11.9127
卷	-11.9127
擦	-11.9127
斧	-11.9127
溺	-11.9127
枕	-11.9159
宏	-11.9234
樟	-11.9234
濫	-11.9234
籬	-11.9234
綻	-11.9234
充	-11.9264
貝	-11.9272
般	-11.9318
悠	-11.9343
憎	-11.9343
昨	-11.9343
樂	-11.9343
沐	-11.9343
逓	-11.9343
怨	-11.9453
□	-11.9453
櫻	-11.9453
玩	-11.9453
癖	-11.9453
舜	-11.9453
艘	-11.9453
藉	-11.9453
由	-11.9487
供	-11.9493
炭	-11.9503
袴	-11.9503
坦	-11.9564
與	-11.9564
芯	-11.9564
萱	-11.9564
謗	-11.9564
葛	-11.962
冊	-11.962
吟	-11.9621
偵	-11.9677
嵌	-11.9677
糊	-11.9677
蔑	-11.9677
藪	-11.9677
醜	-11.9677
鉦	-11.9677
帖	-11.9739
溝	-11.974
嘱	-11.979
４	-11.979
薄	-11.9859
偉	-11.9905
槐	-11.9905
罵	-11.9905
翫	-11.9905
跨	-11.9905
雉	-11.9905
宋	-11.9973
湾	-11.9981
浅	-11.9981
桂	-11.9981
駐	-11.9982
非	-11.9994
蛮	-12.0017
ゐ	-12.0021
媒	-12.0021
椒	-12.0021
櫃	-12.0021
滴	-12.0021
蕪	-12.0021
鉱	-12.0097
嫁	-12.0101
犬	-12.0105
絹	-12.0105
粛	-12.0139
暑	-12.0139
翠	-12.0139
腸	-12.0139
醪	-12.0139
抄	-12.023
飛	-12.023
董	-12.0258
蓑	-12.0258
釉	-12.0258
優	-12.0351
酢	-12.0357
薙	-12.0379
怠	-12.0379
鄭	-12.0379
鉛	-12.0379
雌	-12.0379
J	-12.0483
慈	-12.0485
鴎	-12.05
奢	-12.05
杭	-12.05
柚	-12.05
毬	-12.05
猩	-12.05
珂	-12.05
紡	-12.05
繕	-12.05
胃	-12.05
蓉	-12.05
軒	-12.0614
荼	-12.0624
叟	-12.0624
孟	-12.0624
梓	-12.0624
溢	-12.0624
綺	-12.0624
賽	-12.0624
夕	-12.0744
遂	-12.0747
鬘	-12.0748
瓢	-12.0749
磯	-12.0872
促	-12.0874
侠	-12.0876
剰	-12.0876
堕	-12.0876
款	-12.0876
螺	-12.0876
稲	-12.0878
崇	-12.0879
巫	-12.1004
蜜	-12.1004
ゑ	-12.1004
凱	-12.1004
厭	-12.1004
奘	-12.1004
槽	-12.1004
漠	-12.1004
筈	-12.1004
緻	-12.1004
舘	-12.1004
蒲	-12.1008
徴	-12.101
詩	-12.1014
狂	-12.1015
琳	-12.1131
囃	-12.1133
樺	-12.1134
鞠	-12.1134
爲	-12.1134
筅	-12.1134
両	-12.1149
青	-12.115
寒	-12.1152
覆	-12.1152
塑	-12.1265
寡	-12.1265
梗	-12.1265
棹	-12.1265
歯	-12.1286
九	-12.1288
菊	-12.129
但	-12.1397
綬	-12.1399
&	-12.1399
亦	-12.1399
墜	-12.1399
渟	-12.1399
禮	-12.1399
萌	-12.1399
躬	-12.1399
飽	-12.1399
漁	-12.1422
含	-12.1431
包	-12.1431
乃	-12.1432
姦	-12.1534
拷	-12.1534
籤	-12.1534
跏	-12.1534
炊	-12.1546
概	-12.1569
兌	-12.1671
沓	-12.1671
譽	-12.1671
嫌	-12.1719
幽	-12.1719
麹	-12.1719
搬	-12.1809
冒	-12.1809
乎	-12.181
宵	-12.181
掟	-12.181
砥	-12.181
秒	-12.181
鈿	-12.181
髄	-12.181
鯖	-12.181
鵄	-12.181
胡	-12.1863
鸞	-12.1948
弄	-12.195
捻	-12.195
晃	-12.195
竿	-12.195
號	-12.195
跋	-12.195
靴	-12.195
妓	-12.2092
圭	-12.2093
崋	-12.2093
瘡	-12.2093
篥	-12.2093
｡	-12.2093
賜	-12.2153
剃	-12.2238
梯	-12.2238
緋	-12.2238
腋	-12.2238
尿	-12.2385
揖	-12.2385
笥	-12.2385
篳	-12.2385
葱	-12.2385
騎	-12.2477
網	-12.2477
徹	-12.2477
需	-12.2534
坑	-12.2534
揄	-12.2534
搾	-12.2534
袿	-12.2534
佛	-12.2636
菓	-12.2685
剖	-12.2686
寶	-12.2686
尭	-12.2686
揶	-12.2686
璃	-12.2686
盃	-12.2686
砧	-12.2686
穣	-12.2686
蛤	-12.2686
柔	-12.2789
抵	-12.2797
槍	-12.2797
盆	-12.2797
肩	-12.2797
朽	-12.2797
尋	-12.2797
彙	-12.284
疋	-12.284
訛	-12.284
醒	-12.284
陛	-12.284
右	-12.2957
乙	-12.2961
柏	-12.2961
抹	-12.2996
娼	-12.2996
已	-12.2996
慨	-12.2996
朕	-12.2996
猷	-12.2996
祗	-12.2996
祢	-12.2996
笏	-12.2996
鍔	-12.2996
卒	-12.3128
僊	-12.3155
奠	-12.3155
弧	-12.3155
徠	-12.3155
栽	-12.3155
楕	-12.3155
榜	-12.3155
碓	-12.3155
經	-12.3155
茲	-12.3155
菖	-12.3155
豎	-12.3155
賎	-12.3155
Q	-12.3155
煎	-12.3293
銃	-12.3297
侮	-12.3316
凉	-12.3316
堆	-12.3316
朧	-12.3316
渦	-12.3316
熈	-12.3316
玖	-12.3316
稔	-12.3316
詛	-12.3316
第	-12.3465
未	-12.3469
ヲ	-12.3469
凹	-12.348
址	-12.348
扁	-12.348
棗	-12.348
歎	-12.348
歿	-12.348
毫	-12.348
燭	-12.348
羲	-12.348
褐	-12.348
贄	-12.348
鈷	-12.348
鞭	-12.348
到	-12.3645
⇒	-12.3647
喚	-12.3647
欺	-12.3647
汗	-12.3647
蛉	-12.3647
蝋	-12.3647
衿	-12.3647
覺	-12.3647
鶯	-12.3647
７	-12.3647
濃	-12.3813
Z	-12.3816
喝	-12.3816
柑	-12.3816
珎	-12.3816
疇	-12.3816
篋	-12.3816
綜	-12.3816
葭	-12.3816
衍	-12.3816
襄	-12.3816
讐	-12.3816
錫	-12.3816
踏	-12.3819
鋳	-12.3823
氷	-12.3823
劣	-12.3823
轄	-12.3984
咋	-12.3989
會	-12.3989
漑	-12.3989
肪	-12.3989
蛸	-12.3989
袂	-12.3989
韶	-12.3989
＋	-12.3989
履	-12.4
誠	-12.4002
淡	-12.4005
餓	-12.4164
佩	-12.4164
嗚	-12.4164
恕	-12.4164
戌	-12.4164
禿	-12.4164
羊	-12.4164
臺	-12.4164
藏	-12.4164
鈍	-12.4164
雖	-12.4164
靡	-12.4164
鵺	-12.4164
勘	-12.4188
双	-12.419
軌	-12.419
班	-12.4191
埴	-12.4343
填	-12.4343
廠	-12.4343
憩	-12.4343
机	-12.4343
殷	-12.4343
濱	-12.4343
禧	-12.4343
箭	-12.4343
篁	-12.4343
鐵	-12.4343
髻	-12.4343
鯰	-12.4343
,	-12.4379
魏	-12.4379
←	-12.4524
佑	-12.4524
塊	-12.4524
姜	-12.4524
并	-12.4524
湘	-12.4524
濯	-12.4524
瑠	-12.4524
璧	-12.4524
葡	-12.4524
跳	-12.4524
迅	-12.4524
鱗	-12.4524
祝	-12.4566
超	-12.457
阿	-12.4571
荒	-12.4571
飲	-12.4571
喪	-12.4571
嵐	-12.4572
駕	-12.471
凸	-12.471
嚆	-12.471
翔	-12.471
臚	-12.471
苧	-12.471
蔚	-12.471
頬	-12.471
鮑	-12.471
彰	-12.4767
精	-12.4767
夢	-12.4767
坐	-12.4767
陶	-12.4767
采	-12.4898
蒔	-12.4898
鰹	-12.4898
姥	-12.4898
巷	-12.4898
楷	-12.4898
汎	-12.4898
睡	-12.4898
粮	-12.4898
羂	-12.4898
莱	-12.4898
衾	-12.4898
顗	-12.4898
饒	-12.4898
他	-12.4967
忘	-12.509
壹	-12.5091
屠	-12.5091
廂	-12.5091
穿	-12.5091
籾	-12.5091
胞	-12.5091
處	-12.5091
鏑	-12.5091
５	-12.5091
斯	-12.5171
屈	-12.5172
努	-12.5284
《	-12.5287
紬	-12.5287
膜	-12.5287
邊	-12.5287
抱	-12.5373
赤	-12.5379
橘	-12.5379
沙	-12.538
暗	-12.538
ゥ	-12.547
畿	-12.5484
屏	-12.5487
篆	-12.5487
僕	-12.5487
冨	-12.5487
喉	-12.5487
嬢	-12.5487
曙	-12.5487
癌	-12.5487
笄	-12.5487
耀	-12.5487
郁	-12.5487
醤	-12.5487
鉤	-12.5487
雙	-12.5487
゙	-12.5691
凄	-12.5691
几	-12.5691
奸	-12.5691
妍	-12.5691
娠	-12.5691
戔	-12.5691
爛	-12.5691
琢	-12.5691
瞭	-12.5691
礫	-12.5691
賣	-12.5691
鐐	-12.5691
鰭	-12.5691
鼎	-12.5691
纂	-12.5898
迭	-12.5899
暢	-12.5899
枳	-12.5899
楓	-12.5899
羯	-12.5899
蔀	-12.5899
蕩	-12.5899
頌	-12.5899
私	-12.6031
堅	-12.6032
楠	-12.6032
畳	-12.6032
劾	-12.6112
忙	-12.6112
瑜	-12.6112
衞	-12.6112
酌	-12.6112
鮨	-12.6112
鵬	-12.6112
描	-12.6259
寝	-12.6259
箸	-12.6259
碗	-12.6327
妄	-12.6329
屓	-12.6329
楚	-12.6329
痴	-12.6329
竟	-12.6329
膚	-12.6329
誡	-12.6329
賂	-12.6329
贔	-12.6329
轟	-12.6329
轢	-12.6329
釧	-12.6329
痩	-12.6329
斬	-12.6492
操	-12.6492
~	-12.6551
徭	-12.6551
晁	-12.6551
耗	-12.6551
苅	-12.6551
蛙	-12.6551
這	-12.6551
錐	-12.6551
登	-12.6725
」	-12.673
鷹	-12.673
晩	-12.673
<	-12.6779
套	-12.6779
寓	-12.6779
捺	-12.6779
搭	-12.6779
熹	-12.6779
礁	-12.6779
祁	-12.6779
糟	-12.6779
緬	-12.6779
菴	-12.6779
裃	-12.6779
闢	-12.6779
餘	-12.6779
惚	-12.6779
倭	-12.6974
恋	-12.6974
惟	-12.6974
愚	-12.6974
寇	-12.7002
祟	-12.7011
翰	-12.7011
孚	-12.7011
尤	-12.7011
崗	-12.7011
楢	-12.7011
滓	-12.7011
炮	-12.7011
焔	-12.7011
疱	-12.7011
箪	-12.7011
絣	-12.7011
茸	-12.7011
蔓	-12.7011
諺	-12.7011
鬱	-12.7011
齋	-12.7011
「	-12.7211
｢	-12.7224
困	-12.7224
涯	-12.7244
咒	-12.7249
唇	-12.7249
塙	-12.7249
娑	-12.7249
掠	-12.7249
旛	-12.7249
炙	-12.7249
蒼	-12.7249
訥	-12.7249
鑰	-12.7249
鬚	-12.7249
旅	-12.748
昧	-12.748
祓	-12.748
牌	-12.7487
惜	-12.7488
于	-12.7493
咄	-12.7493
嶼	-12.7493
彭	-12.7493
梧	-12.7493
渇	-12.7493
狸	-12.7493
磔	-12.7493
簀	-12.7493
肘	-12.7493
腫	-12.7493
蛋	-12.7493
諜	-12.7493
韮	-12.7493
更	-12.7742
怪	-12.7743
沈	-12.7743
做	-12.7743
汐	-12.7743
狄	-12.7743
虹	-12.7743
證	-12.7743
鑓	-12.7743
埼	-12.7743
賑	-12.7999
綸	-12.8
冲	-12.8
剋	-12.8
嘲	-12.8
嵩	-12.8
昂	-12.8
渾	-12.8
溪	-12.8
硝	-12.8
縞	-12.8
諍	-12.8
韋	-12.8
詠	-12.8013
撮	-12.8013
錦	-12.8013
侈	-12.8263
儺	-12.8263
德	-12.8263
愕	-12.8263
烹	-12.8263
糞	-12.8263
襴	-12.8263
餌	-12.8263
誤	-12.8291
緩	-12.8291
媚	-12.8533
俺	-12.8533
傭	-12.8533
匙	-12.8533
哨	-12.8533
愁	-12.8533
擲	-12.8533
蔦	-12.8533
鑽	-12.8533
頸	-12.8533
０	-12.8533
改	-12.8577
)	-12.8577
亮	-12.8577
q	-12.8811
冤	-12.8811
卍	-12.8811
婁	-12.8811
惠	-12.8811
拉	-12.8811
框	-12.8811
煌	-12.8811
爺	-12.8811
纒	-12.8811
蟇	-12.8811
蟻	-12.8811
跪	-12.8811
辨	-12.8811
鮭	-12.8811
短	-12.887
遅	-12.8871
諸	-12.8871
附	-12.8871
誘	-12.8871
櫓	-12.8871
析	-12.9093
—	-12.9097
弉	-12.9097
灸	-12.9097
爽	-12.9097
皺	-12.9097
舂	-12.9097
芒	-12.9097
衽	-12.9097
貪	-12.9097
躰	-12.9097
巡	-12.9173
試	-12.9174
誕	-12.9386
來	-12.9391
坡	-12.9391
忽	-12.9391
戎	-12.9391
珪	-12.9391
窩	-12.9391
薗	-12.9391
蜀	-12.9391
訣	-12.9391
谿	-12.9391
鍮	-12.9391
鮫	-12.9391
を	-12.9486
又	-12.9487
孔	-12.9487
升	-12.9487
坪	-12.9487
啄	-12.9694
嚢	-12.9694
埵	-12.9694
奎	-12.9694
庖	-12.9694
榮	-12.9694
淨	-12.9694
濤	-12.9694
盈	-12.9694
葩	-12.9694
誼	-12.9694
貶	-12.9694
遜	-12.9694
錠	-12.9694
鍼	-12.9694
鬢	-12.9694
疎	-12.9809
虚	-12.9809
假	-13.0006
漕	-13.0006
漿	-13.0006
犀	-13.0006
糺	-13.0006
聯	-13.0006
肆	-13.0006
鋸	-13.0006
錆	-13.0006
關	-13.0006
鞋	-13.0006
鰯	-13.0006
鸚	-13.0006
黎	-13.0006
雇	-13.0142
獅	-13.0328
垢	-13.0329
娍	-13.0329
怯	-13.0329
捌	-13.0329
榴	-13.0329
氣	-13.0329
烙	-13.0329
痺	-13.0329
睨	-13.0329
禽	-13.0329
穆	-13.0329
肢	-13.0329
醇	-13.0329
鮓	-13.0329
８	-13.0329
［	-13.0329
遷	-13.0475
傲	-13.0662
圃	-13.0662
幢	-13.0662
站	-13.0662
紳	-13.0662
膏	-13.0662
蒹	-13.0662
顎	-13.0662
鵞	-13.0662
駈	-13.0662
准	-13.0841
叙	-13.0844
契	-13.0844
投	-13.0844
渋	-13.0844
被	-13.0844
呰	-13.1007
[	-13.1007
〇	-13.1007
坤	-13.1007
屍	-13.1007
弗	-13.1007
悌	-13.1007
槨	-13.1007
游	-13.1007
燼	-13.1007
瑩	-13.1007
薮	-13.1007
輯	-13.1007
辟	-13.1007
餐	-13.1007
麝	-13.1007
沖	-13.1215
儒	-13.1215
詔	-13.1215
幼	-13.1215
。	-13.1215
姑	-13.1364
屑	-13.1364
槙	-13.1364
洩	-13.1364
淫	-13.1364
滸	-13.1364
濟	-13.1364
盞	-13.1364
砺	-13.1364
窃	-13.1364
筵	-13.1364
虞	-13.1364
訌	-13.1364
贖	-13.1364
蹄	-13.1364
邁	-13.1364
鍍	-13.1364
鐚	-13.1364
髏	-13.1364
献	-13.1589
幾	-13.1599
其	-13.1599
箏	-13.1599
ぁ	-13.1735
ぇ	-13.1735
仍	-13.1735
嚇	-13.1735
婉	-13.1735
將	-13.1735
戈	-13.1735
浚	-13.1735
淆	-13.1735
炬	-13.1735
盥	-13.1735
窒	-13.1735
箋	-13.1735
裡	-13.1735
襷	-13.1735
髑	-13.1735
黌	-13.1735
扱	-13.1997
摂	-13.1998
傘	-13.1999
呼	-13.1999
毀	-13.2119
ゞ	-13.2119
亟	-13.2119
凋	-13.2119
尓	-13.2119
尸	-13.2119
拗	-13.2119
樵	-13.2119
煬	-13.2119
猥	-13.2119
瘍	-13.2119
竄	-13.2119
筐	-13.2119
縹	-13.2119
脛	-13.2119
艇	-13.2119
蔽	-13.2119
魄	-13.2119
遺	-13.2414
乾	-13.2416
峠	-13.2416
筑	-13.2416
巨	-13.2416
●	-13.2519
仗	-13.2519
唾	-13.2519
戟	-13.2519
晟	-13.2519
渕	-13.2519
渠	-13.2519
潭	-13.2519
珥	-13.2519
絲	-13.2519
翳	-13.2519
胝	-13.2519
菘	-13.2519
踞	-13.2519
６	-13.2519
鮒	-13.2519
追	-13.2844
萩	-13.2851
"	-13.2851
｣	-13.2851
淀	-13.2851
枚	-13.2851
逞	-13.2936
α	-13.2936
對	-13.2936
崔	-13.2936
杼	-13.2936
栓	-13.2936
渚	-13.2936
矣	-13.2936
迪	-13.2936
釋	-13.2936
閇	-13.2936
閨	-13.2936
駁	-13.2936
厩	-13.3305
雁	-13.3305
貸	-13.3305
猿	-13.3305
萬	-13.3305
閏	-13.3305
毎	-13.3305
四	-13.3305
専	-13.3305
諌	-13.3368
佚	-13.3371
佶	-13.3371
掖	-13.3371
撓	-13.3371
旱	-13.3371
曝	-13.3371
杲	-13.3371
橙	-13.3371
櫨	-13.3371
汀	-13.3371
沽	-13.3371
瀉	-13.3371
絆	-13.3371
豫	-13.3371
趨	-13.3371
軾	-13.3371
鐙	-13.3371
鱈	-13.3371
鹵	-13.3371
齟	-13.3371
齬	-13.3371
模	-13.3778
俎	-13.3825
咩	-13.3825
堡	-13.3825
壕	-13.3825
巽	-13.3825
旻	-13.3825
昏	-13.3825
櫂	-13.3825
沌	-13.3825
淸	-13.3825
痢	-13.3825
筏	-13.3825
聟	-13.3825
裴	-13.3825
邨	-13.3825
闡	-13.3825
陋	-13.3825
慣	-13.4281
探	-13.4281
陥	-13.4281
肖	-13.4301
△	-13.4301
偃	-13.4301
刎	-13.4301
卦	-13.4301
咳	-13.4301
嬬	-13.4301
憾	-13.4301
檮	-13.4301
權	-13.4301
泌	-13.4301
涛	-13.4301
腎	-13.4301
舊	-13.4301
茗	-13.4301
蹲	-13.4301
辣	-13.4301
錮	-13.4301
鐸	-13.4801
焉	-13.4801
é	-13.4801
兒	-13.4801
呵	-13.4801
壙	-13.4801
悶	-13.4801
拮	-13.4801
敲	-13.4801
ī	-13.4801
薩	-13.4807
葵	-13.4808
貧	-13.5363
綾	-13.5363
於	-13.5363
浮	-13.5363
措	-13.5883
旭	-13.5951
胴	-13.5951
汲	-13.5951
圏	-13.5951
惣	-13.5951
堺	-13.5952
捉	-13.6465
祷	-13.6471
闍	-13.7095
賦	-13.7243
奮	-13.7243
剥	-13.7243
浸	-13.7243
昼	-13.7243
即	-13.7243
往	-13.7243
副	-13.7956
陳	-13.7957
推	-13.7958
』	-13.7958
希	-13.8726
呪	-13.8726
弔	-13.8726
薫	-13.8727
誓	-13.8727
警	-13.8727
不	-13.8727
羹	-13.9247
潜	-13.956
､	-13.956
蒸	-13.956
諱	-13.956
彬	-14.008
罷	-14.008
歓	-14.0469
此	-14.0469
李	-14.0469
倹	-14.0989
諧	-14.0989
侵	-14.1462
仰	-14.1464
庶	-14.1465
阻	-14.1469
甚	-14.1469
催	-14.2565
凝	-14.258
菅	-14.258
：	-14.2581
係	-14.3827
芹	-14.383
敦	-14.383
鵜	-14.5259
縦	-14.5259
秦	-14.6923
呉	-14.6925
茨	-14.6925
梶	-14.6926
秩	-14.6926
誇	-14.6926
甥	-14.6926
擁	-14.6926
→	-14.6926
粧	-14.7441
椅	-14.7445
蟄	-14.7445
贈	-14.8925
扶	-14.8926
諡	-14.8926
頻	-14.8926
彼	-14.8926
寵	-14.8926
排	-14.8926
招	-14.8926
傾	-14.8926
揆	-14.9425
併	-15.1425
汚	-15.1426
或	-15.1426
褌	-15.1426
○	-15.1427
鞍	-15.1427
危	-15.1427
※	-15.1427
既	-15.1427
.	-15.1427
渤	-15.1945
循	-15.1945
醍	-15.1945
救	-15.4759
丞	-15.476
殆	-15.4761
稀	-15.4761
繊	-15.4761
狙	-15.4761
拍	-15.4761
琉	-15.4761
猪	-15.4761
庇	-15.4761
皆	-15.4761
〕	-15.4761
…	-15.4762
各	-15.4762
燥	-15.5278
醐	-15.5279
饉	-15.5279
競	-15.9763
橿	-15.9766
欽	-15.9766
〜	-15.9766
看	-15.9766
祈	-15.9766
徐	-15.9766
拒	-15.9766
甘	-15.9766
_	-15.9767
酎	-16.0278
播	-16.9795
翻	-16.9797
緊	-16.9797
勧	-16.9797
菩	-16.9797
赴	-16.9797
唯	-16.9797
駿	-16.9797
必	-16.9797
－	-16.9798
/	-16.9798
～	-16.9798
淘	-16.9886
楞	-16.9887
恰	-16.9888
喀	-16.9889
儚	-16.989
麒	-16.9891
鞄	-16.9892
萎	-16.9893
柊	-16.9894
杢	-16.9895
无	-16.9896
斃	-16.9897
勺	-16.9898
讚	-16.9899
讖	-16.99
茜	-16.9901
臀	-16.9902
澪	-16.9903
恣	-16.9904
俟	-16.9905
鴫	-16.9906
鈕	-16.9907
蕭	-16.9908
艮	-16.9909
淇	-16.991
宦	-16.9911
荃	-16.9912
范	-16.9913
獨	-16.9914
擂	-16.9915
彷	-16.9916
弽	-16.9917
弖	-16.9918
冗	-16.9919
僭	-16.992
些	-16.9921
飫	-16.9922
諷	-16.9923
笈	-16.9924
淤	-16.9925
櫟	-16.9926
楳	-16.9927
栲	-16.9928
柾	-16.9929
攪	-16.993
聲	-16.9931
籐	-16.9932
瀟	-16.9933
潅	-16.9934
鰐	-16.9935
躇	-16.9936
桝	-16.9937
劔	-16.9938
剪	-16.9939
躊	-16.994
諒	-16.9941
舁	-16.9942
歪	-16.9943
懿	-16.9944
讀	-16.9945
荏	-16.9946
肇	-16.9947
礒	-16.9948
埠	-16.9949
鼈	-16.995
鋤	-16.9951
臆	-16.9952
泗	-16.9953
捏	-16.9954
仔	-16.9955
]	-16.9956
］	-16.9957
蛭	-16.9958
篝	-16.9959
殲	-16.996
栂	-16.9961
杮	-16.9962
掬	-16.9963
挺	-16.9964
怡	-16.9965
麁	-16.9966
鮪	-16.9967
脊	-16.9968
絢	-16.9969
畢	-16.997
煤	-16.9971
俄	-16.9972
殴	-16.9973
驕	-16.9974
譬	-16.9975
篷	-16.9976
刳	-16.9977
乖	-16.9978
萄	-16.9979
＊	-16.998
綽	-16.9981
鎬	-16.9982
鵯	-16.9983
瞑	-16.9984
玲	-16.9985
殯	-16.9986
楮	-16.9987
杣	-16.9988
弛	-16.9989
崑	-16.999
纓	-16.9991
掴	-16.9992
决	-16.9993
癸	-16.9994
瀕	-16.9995
浙	-16.9996
惺	-16.9997
誄	-16.9998
訊	-16.9999
氾	-17
旺	-17.0001
搦	-17.0002
拵	-17.0003
雍	-17.0004
閔	-17.0005
麾	-17.0006
蠣	-17.0007
筥	-17.0008
燻	-17.0009
榛	-17.001
陞	-17.0011
鍾	-17.0012
軋	-17.0013
逗	-17.0014
煽	-17.0015
阮	-17.0016
膾	-17.0017
桧	-17.0018
眷	-17.0019
惹	-17.002
嘘	-17.0021
羨	-17.0022
》	-17.0023
銚	-17.0024
憚	-17.0025
帚	-17.0026
頁	-17.0027
詫	-17.0028
撞	-17.0029
酬	-17.003
誹	-17.0031
襦	-17.0032
蒐	-17.0033
脆	-17.0034
咸	-17.0035
鑁	-17.0036
詐	-17.0037
懺	-17.0038
俀	-17.0039
㎡	-17.004
袁	-17.0041
蕨	-17.0042
桔	-17.0043
宥	-17.0044
趙	-17.0045
熨	-17.0046
蜻	-17.0047
槇	-17.0048
扮	-17.0049
迂	-17.005
蟹	-17.0051
丙	-17.0052
顛	-17.0053
耽	-17.0054
罹	-17.0055
綏	-17.0056
搗	-17.0057
嬉	-17.0058
徂	-17.0059
宍	-17.006
袢	-17.0061
奄	-17.0062
騙	-17.0063
掻	-17.0064
憧	-17.0065
魯	-17.0066
茄	-17.0067
欣	-17.0068
柘	-17.0069
簒	-17.007
稗	-17.0071
濡	-17.0072
梟	-17.0073
托	-17.0074
焙	-17.0075
覗	-17.0076
斤	-17.0077
噴	-17.0078
汝	-17.0079
逍	-17.008
盂	-17.0081
遙	-17.0082
總	-17.0083
卸	-17.0084
醗	-17.0085
辿	-17.0086
贅	-17.0087
濾	-17.0088
只	-17.0089
逼	-17.009
蝉	-17.0091
肺	-17.0092
撒	-17.0093
禊	-17.0094
銕	-17.0095
迄	-17.0096
蜷	-17.0097
蛍	-17.0098
尖	-17.0099
頒	-17.01
芙	-17.0101
汽	-17.0102
厘	-17.0103
偲	-17.0104
貰	-17.0105
勿	-17.0106
侘	-17.0107
蚊	-17.0108
佃	-17.0109
袱	-17.011
笙	-17.0111
噛	-17.0112
慌	-17.0113
苛	-17.0114
嫉	-17.0115
頑	-17.0116
什	-17.0117
零	-17.0118
袈	-17.0119
揉	-17.012
湧	-17.0121
謳	-17.0122
劉	-17.0123
諮	-17.0124
凌	-17.0125
℃	-17.0126
鴈	-17.0127
蜘	-17.0128
賭	-17.0129
惧	-17.013
叶	-17.0131
ぴ	-17.0132
諫	-17.0133
嗜	-17.0134
眺	-17.0135
祉	-17.0136
咎	-17.0137
儡	-17.0138
傀	-17.0139
焦	-17.014
曖	-17.0141
捧	-17.0142
廿	-17.0143
閻	-17.0144
謎	-17.0145
稼	-17.0146
鳶	-17.0147
漱	-17.0148
晒	-17.0149
ヵ	-17.015
竪	-17.0151
娯	-17.0152
ぺ	-17.0153
馳	-17.0154
狛	-17.0155
榊	-17.0156
疲	-17.0157
:	-17.0158
；	-17.0159
>	-17.016
茹	-17.0161
窺	-17.0162
暫	-17.0163
！	-17.0164
庚	-17.0165
隼	-17.0166
陪	-17.0167
貯	-17.0168
遼	-17.0169
!	-17.017
蘆	-17.0171
荻	-17.0172
絞	-17.0173
熾	-17.0174
漂	-17.0175
牡	-17.0176
讒	-17.0177
鴻	-17.0178
殉	-17.0179
遡	-17.018
喧	-17.0181
据	-17.0182
挑	-17.0183
僅	-17.0184
＞	-17.0185
拘	-17.0186
妥	-17.0187
】	-17.0188
芦	-17.0189
膨	-17.019
粗	-17.0191
按	-17.0192
脅	-17.0193
竣	-17.0194
穫	-17.0195
榎	-17.0196
儲	-17.0197
叛	-17.0198
涅	-17.0199
芭	-17.02
飢	-17.0201
．	-17.0202
─	-17.0203
逮	-17.0204
槃	-17.0205
控	-17.0206
饅	-17.0207
栃	-17.0208
揃	-17.0209
謹	-17.021
蕉	-17.0211
倣	-17.0212
姻	-17.0213
噂	-17.0214
挿	-17.0215
貼	-17.0216
諏	-17.0217
億	-17.0218
勾	-17.0219
宛	-17.022
昆	-17.0221
伺	-17.0222
披	-17.0223
購	-17.0224
択	-17.0225
驚	-17.0226
挟	-17.0227
誰	-17.0228
ぽ	-17.0229
勃	-17.023
遭	-17.0231
培	-17.0232
戊	-17.0233
距	-17.0234
噌	-17.0235
云	-17.0236
―	-17.0237
郵	-17.0238
宕	-17.0239
撲	-17.024
”	-17.0241
蕎	-17.0242
?	-17.0243
桓	-17.0244
？	-17.0245
紛	-17.0246
妖	-17.0247
曼	-17.0248
%	-17.0249
撤	-17.025
薨	-17.0251
預	-17.0252
蝦	-17.0253
恐	-17.0254
琵	-17.0255
較	-17.0256
批	-17.0257
壬	-17.0258
締	-17.0259
揮	-17.026
沿	-17.0261
嵯	-17.0262
複	-17.0263
混	-17.0264
ュ	-17.0265
普	-17.0266
翌	-17.0267
再	-17.0268
最	-17.0269
7	-17.027
6	-17.0271
4	-17.0272
5	-17.0273
9	-17.0274
8	-17.0275
3	-17.0276
0	-17.0277
2	-17.0278
貿	-17.0279
1	-17.0279
嘩	-17.0279
琶	-17.0279
