<unk>	0
<s>	0
</s>	0
▁the	-2.9842
,	-3.26339
▁of	-3.48981
.	-3.72588
▁and	-3.88746
▁in	-3.9452
s	-3.96487
▁(	-4.04333
▁to	-4.10555
▁a	-4.19331
-	-4.32889
▁was	-4.38545
)	-4.46108
▁	-4.87126
▁is	-4.8728
'	-4.91909
▁as	-4.92653
▁he	-5.09913
▁that	-5.27267
▁by	-5.31295
▁it	-5.32557
▁on	-5.32594
▁no	-5.33666
▁for	-5.37593
▁his	-5.46835
▁with	-5.53019
▁from	-5.59969
▁'	-5.60239
ing	-5.60533
ed	-5.68906
a	-5.70918
▁"	-5.72365
▁at	-5.77279
▁were	-5.78462
),	-5.82653
).	-5.8495
▁which	-5.88229
"	-5.90331
▁who	-5.91712
ji	-6.03253
the	-6.04358
▁an	-6.06323
▁this	-6.06671
▁are	-6.07472
▁period	-6.07683
▁be	-6.11794
▁or	-6.14485
▁emperor	-6.19008
▁temple	-6.21835
d	-6.22041
▁family	-6.23292
e	-6.23915
o	-6.24612
:	-6.25823
▁after	-6.28226
▁but	-6.32652
▁also	-6.34162
▁had	-6.34214
i	-6.35402
▁not	-6.37465
ko	-6.37548
in	-6.39238
▁clan	-6.40244
▁kyoto	-6.41734
▁imperial	-6.42075
▁province	-6.49032
shi	-6.51956
no	-6.52849
▁so	-6.53175
▁there	-6.53296
ly	-6.55468
▁one	-6.55978
▁when	-6.56042
▁city	-6.56328
▁called	-6.57001
▁japan	-6.57896
▁became	-6.61854
▁name	-6.65253
jo	-6.707
t	-6.70955
▁station	-6.72423
▁such	-6.73376
to	-6.74677
▁prefecture	-6.764
▁been	-6.77
▁however	-6.77184
▁japanese	-6.77337
▁used	-6.79219
do	-6.80111
▁they	-6.81224
sho	-6.8148
▁have	-6.82296
;	-6.84535
▁during	-6.85373
n	-6.85728
▁time	-6.88193
▁son	-6.93068
▁other	-6.93547
ki	-6.93597
▁ko	-6.9404
▁their	-6.94587
▁rank	-6.95346
▁first	-6.95531
ri	-6.95745
▁o	-6.97558
▁court	-6.98251
▁government	-6.98988
▁-	-7.00219
▁shrine	-7.00316
mi	-7.01259
th	-7.03007
▁has	-7.03139
▁into	-7.04
y	-7.0475
▁made	-7.05001
▁edo	-7.05745
go	-7.06328
se	-7.06331
er	-7.06556
▁line	-7.06691
▁people	-7.08404
▁school	-7.08565
▁because	-7.08707
▁prince	-7.091
cho	-7.1012
c	-7.11683
▁said	-7.12652
▁year	-7.13357
r	-7.13387
▁castle	-7.14306
ra	-7.14825
re	-7.16208
▁its	-7.17861
ku	-7.18111
u	-7.18427
ya	-7.18727
ka	-7.18733
▁some	-7.2038
▁under	-7.22352
shu	-7.22946
m	-7.23408
▁sho	-7.23844
al	-7.24419
an	-7.25332
▁later	-7.25443
▁war	-7.25506
da	-7.25661
▁between	-7.27278
▁fujiwara	-7.29124
▁head	-7.29464
ta	-7.29957
▁go	-7.30093
▁her	-7.30121
▁many	-7.30493
▁system	-7.30823
▁domain	-7.32593
or	-7.34526
ro	-7.35043
▁she	-7.35217
▁only	-7.36267
▁same	-7.36734
▁two	-7.38054
▁since	-7.41398
gi	-7.41897
g	-7.42308
▁about	-7.42674
kan	-7.43891
▁out	-7.43991
es	-7.45232
▁over	-7.45239
tsu	-7.45256
ho	-7.4564
▁died	-7.45653
bu	-7.45694
▁up	-7.45811
ma	-7.46079
so	-7.46142
en	-7.46694
yama	-7.467
te	-7.4756
kyo	-7.47806
▁years	-7.48575
▁second	-7.49317
▁all	-7.51448
p	-7.5161
ga	-7.53449
na	-7.53658
me	-7.53928
chi	-7.54373
yo	-7.55137
▁can	-7.55583
▁order	-7.56054
▁16	-7.5641
▁him	-7.56648
▁established	-7.56752
▁new	-7.5687
▁three	-7.56957
▁while	-7.571
.'	-7.57327
▁army	-7.57424
▁i	-7.57751
▁bakufu	-7.57786
fu	-7.57894
▁then	-7.57926
▁shogun	-7.58021
▁shin	-7.58497
▁15	-7.58732
▁old	-7.58747
▁father	-7.59241
▁well	-7.59267
st	-7.5945
▁part	-7.59537
▁re	-7.59669
▁where	-7.5974
shin	-7.60086
dai	-7.60289
f	-7.60489
ru	-7.61029
▁battle	-7.61852
ke	-7.6204
▁death	-7.62083
mon	-7.6213
▁position	-7.62155
▁do	-7.62252
▁them	-7.63837
▁known	-7.64868
▁area	-7.6553
▁written	-7.65657
▁shi	-7.65821
be	-7.65922
ba	-7.66548
▁sect	-7.66618
▁being	-7.67017
▁palace	-7.67224
▁daughter	-7.67319
▁around	-7.67533
▁than	-7.67611
▁those	-7.67763
▁buddhist	-7.67783
ation	-7.68033
▁taka	-7.68847
▁ho	-7.69033
k	-7.69899
▁left	-7.71174
▁appointed	-7.71189
▁kami	-7.72286
▁held	-7.72495
▁style	-7.72856
▁according	-7.73108
▁san	-7.73111
▁minamoto	-7.7325
ion	-7.73377
▁including	-7.74423
▁main	-7.74585
l	-7.746
▁although	-7.75466
▁kamakura	-7.75532
kai	-7.75638
▁these	-7.76182
▁national	-7.76254
▁ka	-7.76288
zu	-7.76296
gu	-7.76403
▁end	-7.76608
ne	-7.76804
su	-7.77048
▁17	-7.77101
sen	-7.77336
▁ki	-7.77564
▁11	-7.77623
▁age	-7.77762
wa	-7.78036
▁rice	-7.78738
▁military	-7.78963
▁side	-7.79048
▁e	-7.793
▁lord	-7.79498
▁through	-7.79797
ten	-7.80391
▁served	-7.80453
gawa	-7.80814
▁may	-7.81047
de	-7.81159
▁ten	-7.81392
japanese	-7.81396
▁following	-7.81777
▁due	-7.81891
▁came	-7.82197
▁tokugawa	-7.82246
▁post	-7.82263
▁even	-7.82885
▁before	-7.83213
sei	-7.8409
▁land	-7.84568
▁kan	-7.84731
▁each	-7.84806
▁priest	-7.84872
b	-7.85131
▁given	-7.85238
▁located	-7.85587
▁jo	-7.85826
▁day	-7.86526
▁more	-7.87095
zo	-7.8732
▁nara	-7.8744
/	-7.87532
ge	-7.87788
ment	-7.88115
▁like	-7.88561
▁hall	-7.89067
▁meiji	-7.89133
▁early	-7.89259
▁based	-7.89448
san	-7.89746
▁7	-7.89839
bo	-7.90002
▁third	-7.90108
bi	-7.90181
▁osaka	-7.90265
▁high	-7.90279
▁dai	-7.90314
▁official	-7.90481
▁12	-7.90554
▁took	-7.90847
▁fu	-7.91112
▁18	-7.91206
▁among	-7.91316
▁mi	-7.91362
▁place	-7.91585
▁various	-7.91709
▁down	-7.9218
▁[	-7.92375
le	-7.92745
▁de	-7.92987
▁heian	-7.93311
▁power	-7.93495
ju	-7.93684
▁did	-7.93698
jinja	-7.94296
▁region	-7.94333
▁10	-7.94789
den	-7.95251
ha	-7.95804
▁history	-7.96064
▁state	-7.96242
sha	-7.96376
▁1	-7.96623
▁brother	-7.96897
▁ward	-7.96956
on	-7.9715
▁office	-7.97266
▁considered	-7.97785
▁house	-7.98186
sai	-7.98876
ni	-7.99339
▁wife	-7.99386
▁local	-7.99825
▁take	-8.00178
▁back	-8.00384
▁chinese	-8.00476
▁era	-8.00523
▁ancient	-8.00858
▁theory	-8.00984
▁use	-8.01024
▁right	-8.0104
▁samurai	-8.01043
▁person	-8.0184
▁13	-8.01849
mo	-8.01896
ryo	-8.01949
▁therefore	-8.02084
▁great	-8.02401
▁mother	-8.03341
▁would	-8.03452
▁shu	-8.0348
▁against	-8.04012
junior	-8.04451
▁un	-8.04467
▁both	-8.04729
▁en	-8.04741
▁taira	-8.04811
it	-8.05944
jin	-8.06448
▁started	-8.07591
▁march	-8.07873
ll	-8.08039
▁title	-8.08164
▁if	-8.08326
▁yoshi	-8.08483
▁sen	-8.08883
▁kai	-8.0895
▁built	-8.08969
▁tokyo	-8.09101
▁himself	-8.09258
▁book	-8.09273
▁koku	-8.10153
▁yu	-8.10679
▁8	-8.10692
▁could	-8.10704
▁long	-8.10829
▁sa	-8.11326
,"	-8.11644
▁world	-8.11941
▁railway	-8.12094
▁number	-8.12095
gen	-8.12143
▁way	-8.12558
▁most	-8.12635
▁river	-8.12788
w	-8.13077
▁co	-8.13299
▁street	-8.13317
▁feudal	-8.13647
mura	-8.13724
▁hi	-8.14001
▁present	-8.14003
▁born	-8.14107
▁april	-8.14113
▁group	-8.14266
yu	-8.14445
▁14	-8.14924
▁fact	-8.15095
▁chief	-8.15282
tai	-8.15326
▁general	-8.15541
▁cho	-8.1561
▁sei	-8.16133
▁went	-8.16662
li	-8.16686
▁ku	-8.16728
▁governor	-8.16992
▁grade	-8.17572
yoshi	-8.1759
▁tea	-8.18001
▁ceremony	-8.18081
▁hand	-8.18083
ic	-8.18089
▁important	-8.18665
▁buddhism	-8.18696
▁man	-8.19012
▁addition	-8.194
▁ma	-8.19515
▁bus	-8.1954
▁ashikaga	-8.19851
mu	-8.20107
▁gen	-8.20264
▁university	-8.20402
▁lower	-8.20457
▁china	-8.20574
▁become	-8.20994
▁former	-8.21505
▁minister	-8.2162
▁incident	-8.21724
▁kin	-8.21773
▁adopted	-8.21844
▁above	-8.22047
▁cultural	-8.22266
▁january	-8.22611
▁empress	-8.22828
▁until	-8.23112
▁work	-8.23144
▁often	-8.2341
▁ta	-8.23414
za	-8.23456
▁times	-8.23504
▁different	-8.23752
▁ya	-8.24509
kawa	-8.24745
▁another	-8.25127
hi	-8.25132
▁gon	-8.2522
▁su	-8.25229
▁mt	-8.25326
ce	-8.25616
▁tada	-8.25651
▁sake	-8.25809
vi	-8.25874
▁large	-8.26468
zan	-8.26714
▁ryo	-8.26869
▁capital	-8.26913
dori	-8.2699
▁four	-8.27168
koku	-8.27572
▁9	-8.27833
mori	-8.27945
man	-8.28072
▁set	-8.28128
▁ji	-8.28176
▁ken	-8.28478
▁july	-8.28831
▁mori	-8.28964
gaku	-8.29171
moto	-8.29177
▁west	-8.29244
▁october	-8.29376
▁masa	-8.29397
at	-8.29804
▁century	-8.30644
▁shogunate	-8.30727
▁water	-8.30732
▁ju	-8.30754
▁section	-8.30937
▁changed	-8.30991
able	-8.31037
▁others	-8.31461
ers	-8.31555
▁without	-8.31729
ity	-8.31773
▁days	-8.31858
▁along	-8.31938
▁august	-8.3239
▁nobunaga	-8.32396
▁dynasty	-8.32674
▁art	-8.32725
kata	-8.32883
▁will	-8.33701
▁c	-8.33709
▁hideyoshi	-8.3386
▁ni	-8.34171
▁february	-8.34342
▁fifth	-8.34555
▁life	-8.34571
▁buddha	-8.34637
▁zen	-8.3471
▁daimyo	-8.34744
ng	-8.34882
▁2	-8.34887
▁6	-8.34958
."	-8.35041
taka	-8.3544
▁using	-8.35618
chu	-8.35726
▁make	-8.35748
▁form	-8.35827
▁statue	-8.35879
▁festival	-8.36321
▁northern	-8.36387
ichi	-8.36452
▁kuni	-8.36556
▁western	-8.36642
▁means	-8.3665
▁child	-8.36653
▁service	-8.36708
▁residence	-8.36767
▁u	-8.37334
▁december	-8.37393
▁began	-8.37422
ur	-8.37524
▁five	-8.37621
▁muromachi	-8.37678
▁september	-8.38219
gyo	-8.38343
▁uji	-8.38358
▁birth	-8.38622
▁should	-8.38623
▁law	-8.3889
▁unknown	-8.38943
ted	-8.39094
▁middle	-8.391
▁fourth	-8.39481
▁promoted	-8.39497
▁oda	-8.39611
naga	-8.39712
▁yasu	-8.39761
▁moto	-8.39818
▁yo	-8.39943
▁east	-8.39989
▁town	-8.4032
▁sada	-8.40349
machi	-8.40584
▁shinto	-8.4065
▁lived	-8.40698
▁southern	-8.40888
▁ha	-8.40944
ryu	-8.4117
▁wa	-8.41312
▁having	-8.41373
▁together	-8.41406
▁november	-8.41413
▁yamato	-8.41484
▁master	-8.41641
▁younger	-8.42054
po	-8.42055
▁families	-8.42369
ei	-8.42404
ry	-8.42538
▁train	-8.42875
▁late	-8.42881
▁con	-8.42923
▁trains	-8.42995
▁term	-8.43436
▁original	-8.4364
masa	-8.43713
▁f	-8.43776
▁historical	-8.43947
▁members	-8.44023
▁temples	-8.44127
▁public	-8.44312
▁branch	-8.44463
▁thought	-8.4447
▁kyo	-8.44556
▁june	-8.44564
▁han	-8.44635
he	-8.44855
literally	-8.45014
▁3	-8.45072
▁gate	-8.4517
un	-8.45211
▁center	-8.45752
▁own	-8.45777
▁member	-8.4605
▁away	-8.46169
▁retired	-8.46332
▁tsu	-8.46446
▁put	-8.4663
▁control	-8.46916
nin	-8.47084
▁god	-8.47432
▁result	-8.47444
ken	-8.47666
suke	-8.47775
▁village	-8.4788
▁shrines	-8.48335
▁route	-8.48347
▁led	-8.48631
▁political	-8.4894
▁building	-8.48985
▁company	-8.49025
▁still	-8.49133
▁believed	-8.49207
▁road	-8.49354
▁front	-8.49507
▁naga	-8.4988
▁received	-8.49986
▁calendar	-8.50046
lo	-8.50339
▁children	-8.50412
▁omi	-8.50472
▁se	-8.50746
shiki	-8.50885
▁originally	-8.51279
ie	-8.51396
▁princess	-8.51636
▁chi	-8.5203
▁half	-8.52378
gun	-8.52507
▁mitsu	-8.52683
▁country	-8.52704
▁shige	-8.53032
▁described	-8.53513
rin	-8.53723
▁you	-8.53911
▁today	-8.54015
▁fire	-8.54054
shima	-8.54114
▁mountain	-8.54183
▁affairs	-8.54417
▁common	-8.54497
▁any	-8.54815
▁small	-8.55107
▁ieyasu	-8.55732
zen	-8.55761
▁succeeded	-8.55834
kaku	-8.55931
▁dis	-8.56058
▁found	-8.56137
▁nishi	-8.56667
mei	-8.56763
age	-8.56782
▁popular	-8.56896
▁moved	-8.56919
▁charge	-8.57046
▁division	-8.57184
▁st	-8.57372
ive	-8.57404
▁within	-8.57441
tion	-8.57552
▁example	-8.5761
▁named	-8.58022
▁suke	-8.58038
▁hojo	-8.58223
▁north	-8.58307
▁hiro	-8.58393
h	-8.58447
2	-8.5871
▁modern	-8.58751
▁good	-8.58806
▁sent	-8.58997
kuni	-8.59078
▁collection	-8.59288
hira	-8.59448
▁tai	-8.59532
▁mo	-8.59552
hime	-8.5969
el	-8.59822
▁special	-8.59938
▁music	-8.60004
kei	-8.60102
▁county	-8.60226
ter	-8.60793
▁killed	-8.60987
senior	-8.61017
pp	-8.61461
ar	-8.61535
▁south	-8.61649
myo	-8.61847
▁5	-8.61854
▁waka	-8.619
ch	-8.61945
▁yoritomo	-8.62034
▁included	-8.6222
▁genji	-8.62406
co	-8.62813
▁performed	-8.62915
▁type	-8.63081
▁poems	-8.63265
▁passed	-8.63501
▁bu	-8.63756
▁origin	-8.63976
▁nobu	-8.64069
hito	-8.64485
▁placed	-8.64488
▁story	-8.64564
▁very	-8.64578
▁gave	-8.64832
▁case	-8.65733
▁next	-8.65848
▁word	-8.6588
▁miya	-8.65942
▁last	-8.65968
▁4	-8.66115
ck	-8.66173
▁ritsuryo	-8.66431
oka	-8.66685
ance	-8.66745
▁sutra	-8.66778
nomiya	-8.66921
):	-8.66998
▁returned	-8.67007
▁books	-8.67055
▁traditional	-8.67113
▁works	-8.67395
▁toyotomi	-8.67399
▁designated	-8.67411
▁produced	-8.67455
▁construction	-8.67545
▁sometimes	-8.68028
▁created	-8.68237
▁now	-8.6824
▁famous	-8.68324
min	-8.68492
▁sea	-8.69098
▁ga	-8.691
day	-8.69162
▁seen	-8.69237
3	-8.69274
▁areas	-8.69366
▁express	-8.69604
▁issued	-8.6976
▁hon	-8.69774
roku	-8.69963
ated	-8.69991
▁paper	-8.70022
▁yori	-8.70084
▁major	-8.7011
▁site	-8.70366
▁continued	-8.70478
ent	-8.70725
▁ex	-8.70771
▁once	-8.71016
ci	-8.71365
v	-8.71373
▁cha	-8.71428
▁referred	-8.7144
▁lost	-8.71451
▁names	-8.71554
▁property	-8.71608
▁party	-8.7161
▁food	-8.72091
il	-8.72139
nobu	-8.72214
▁just	-8.72217
ver	-8.72333
▁me	-8.72438
▁real	-8.72633
ous	-8.72841
son	-8.72882
▁mainly	-8.72914
▁naka	-8.72933
▁developed	-8.73078
▁sword	-8.73133
ate	-8.73222
▁etc	-8.73236
▁museum	-8.73379
▁view	-8.73393
▁entered	-8.73537
▁throne	-8.73606
▁1,	-8.73619
▁home	-8.73726
▁ise	-8.73839
▁noble	-8.73946
▁refers	-8.74015
▁again	-8.74053
▁young	-8.74304
▁kei	-8.74388
▁relationship	-8.74595
▁close	-8.74669
ban	-8.74735
▁states	-8.74869
men	-8.74872
▁culture	-8.7491
mitsu	-8.74942
▁commander	-8.74962
▁stone	-8.75019
bun	-8.75055
▁ro	-8.75085
ti	-8.7513
▁off	-8.75194
7	-8.7545
▁role	-8.75469
▁making	-8.75503
▁sai	-8.75664
▁poetry	-8.7583
▁forces	-8.75853
nori	-8.75871
▁territory	-8.76102
▁korea	-8.76422
▁reason	-8.7646
▁stop	-8.76518
▁na	-8.76781
gan	-8.76928
▁top	-8.77057
yuki	-8.77086
yasu	-8.77162
one	-8.77227
▁bo	-8.77264
▁guards	-8.77429
▁record	-8.77619
▁district	-8.77671
hara	-8.77829
▁gi	-8.78311
ness	-8.78328
▁attack	-8.78411
▁business	-8.78452
▁headed	-8.79745
]	-8.80236
▁private	-8.80261
mp	-8.80364
▁class	-8.80618
ting	-8.80801
▁several	-8.80943
▁ministry	-8.80965
▁every	-8.81329
▁character	-8.81503
hon	-8.81528
matsu	-8.81864
▁noh	-8.82094
▁hosokawa	-8.82256
▁pro	-8.82314
ized	-8.82582
▁aki	-8.82658
▁characters	-8.82749
▁assumed	-8.82868
kyoto	-8.82915
▁nobles	-8.83025
▁enshrined	-8.83139
di	-8.8329
guchi	-8.83323
ve	-8.83529
▁nan	-8.8357
▁takeda	-8.83605
▁kanto	-8.8377
▁fuji	-8.83815
▁bi	-8.83847
bon	-8.83931
▁troops	-8.8397
▁tomo	-8.83986
▁thus	-8.84127
▁retainer	-8.84179
▁ichi	-8.84247
▁higashi	-8.84541
▁shugo	-8.84753
ran	-8.85281
▁ri	-8.85383
hei	-8.85423
▁restoration	-8.8563
▁situation	-8.85681
nd	-8.85823
▁introduced	-8.85953
▁education	-8.86029
▁mikoto	-8.86044
▁force	-8.861
00	-8.8616
led	-8.86205
ze	-8.86274
▁tale	-8.86274
▁published	-8.86308
▁central	-8.86427
▁dance	-8.86479
nari	-8.86528
red	-8.86545
ary	-8.86692
lu	-8.86875
▁hide	-8.86986
toku	-8.87029
▁room	-8.87079
▁similar	-8.87209
mono	-8.87356
▁spring	-8.87458
▁household	-8.87629
▁mu	-8.87701
▁kita	-8.8785
▁sengoku	-8.87951
tic	-8.88153
▁played	-8.88171
han	-8.88238
▁men	-8.88328
michi	-8.8836
tsugu	-8.8837
▁tsune	-8.88576
▁soldiers	-8.88599
▁beginning	-8.88867
tsuna	-8.88875
▁volume	-8.8898
la	-8.89044
▁appeared	-8.89091
▁instead	-8.89126
▁status	-8.89126
present	-8.89198
▁yama	-8.89216
▁stage	-8.89362
▁article	-8.89366
▁date	-8.89477
▁matsu	-8.89523
▁retainers	-8.89605
▁nori	-8.89967
zai	-8.89994
5	-8.90023
▁strong	-8.903
fusa	-8.90347
dan	-8.90469
])	-8.90601
▁transferred	-8.90608
▁study	-8.90616
▁chu	-8.90653
▁regarded	-8.90773
rai	-8.90785
ally	-8.90837
▁ge	-8.90943
▁records	-8.91023
chief	-8.91168
▁garden	-8.91241
▁department	-8.91292
bashi	-8.91729
▁women	-8.92159
▁keihan	-8.92164
▁mon	-8.92174
▁ordered	-8.92449
aki	-8.92463
▁crown	-8.92705
▁vassal	-8.92752
jiro	-8.9293
▁research	-8.93157
x	-8.93205
▁meaning	-8.93379
▁founded	-8.93456
minister	-8.93619
com	-8.93701
kin	-8.93979
▁what	-8.94183
▁body	-8.94216
rs	-8.94387
maro	-8.94494
▁foreign	-8.94528
▁upper	-8.94536
▁di	-8.94674
▁cases	-8.94875
▁officials	-8.95064
▁taken	-8.95195
▁influence	-8.95243
fuku	-8.95459
▁wooden	-8.9553
▁allowed	-8.9563
▁te	-8.9568
▁kyushu	-8.95708
▁kiyo	-8.96293
kyu	-8.96396
▁20	-8.96498
ling	-8.96702
ful	-8.96901
▁image	-8.96909
▁tang	-8.97076
▁production	-8.97095
▁founder	-8.97129
katsu	-8.97144
dera	-8.97265
ca	-8.97295
▁michi	-8.9731
▁tax	-8.97413
▁association	-8.97448
▁brought	-8.97469
▁short	-8.97585
con	-8.97642
yaku	-8.97667
▁joined	-8.97668
us	-8.97775
saki	-8.97777
▁method	-8.97914
▁iwa	-8.98031
▁electric	-8.98178
▁religious	-8.98484
▁six	-8.98678
▁remains	-8.99115
▁meters	-8.99265
▁movement	-8.99438
▁den	-8.99474
tei	-8.99501
▁kabuki	-8.99762
tsune	-8.99857
▁countries	-8.99888
▁related	-9.00027
▁kata	-9.00136
▁act	-9.0021
ant	-9.00285
▁grand	-9.00434
▁opened	-9.00515
▁places	-9.0072
▁documents	-9.00753
▁generally	-9.00804
▁current	-9.00851
▁plan	-9.00972
▁mentioned	-9.0108
▁wrote	-9.01117
▁literature	-9.01235
shige	-9.01626
▁kind	-9.01861
▁completed	-9.01961
▁generation	-9.01977
▁operation	-9.02075
▁direct	-9.02118
▁monk	-9.0216
▁upon	-9.02239
▁kannon	-9.02544
▁ii	-9.02565
▁monogatari	-9.02762
pi	-9.02772
▁play	-9.02806
▁eight	-9.02881
▁inner	-9.03155
▁sha	-9.0321
▁bun	-9.03218
gon	-9.03265
▁myo	-9.03398
▁deity	-9.03398
ty	-9.03486
▁fought	-9.03565
genji	-9.03601
▁words	-9.03731
▁jin	-9.04013
▁mune	-9.04079
▁painting	-9.04162
▁materials	-9.04247
▁limited	-9.04253
▁defeated	-9.04282
▁sane	-9.044
hiro	-9.04476
▁spread	-9.04477
kami	-9.046
▁councilor	-9.04676
yori	-9.04885
▁yuki	-9.04938
▁support	-9.04967
rei	-9.0502
▁fall	-9.05051
▁satsuma	-9.05088
fi	-9.05113
▁see	-9.05209
▁unit	-9.05266
ning	-9.05317
▁constructed	-9.05356
▁decided	-9.05364
butsu	-9.05371
▁rule	-9.05416
style	-9.05426
▁we	-9.05536
▁though	-9.05643
▁schools	-9.05711
take	-9.05745
sada	-9.05749
tada	-9.05789
▁amount	-9.05908
▁series	-9.05961
ron	-9.06019
▁especially	-9.06079
▁establishment	-9.06092
pe	-9.06267
▁shape	-9.06391
▁code	-9.06522
▁point	-9.0668
et	-9.06819
as	-9.06909
▁hot	-9.06983
pa	-9.07003
▁mid	-9.07051
▁development	-9.07209
gami	-9.07252
▁ne	-9.07293
4	-9.07296
▁visit	-9.07304
▁nijo	-9.07328
▁pa	-9.07359
▁color	-9.074
▁ba	-9.07503
▁tried	-9.07701
▁pre	-9.08192
▁married	-9.08267
uji	-9.08385
▁ei	-9.08457
▁administration	-9.08458
▁process	-9.08508
ring	-9.08742
▁provinces	-9.08802
also	-9.08903
▁reign	-9.08948
ism	-9.08953
▁fushimi	-9.09048
▁vassals	-9.09154
▁b	-9.09199
▁read	-9.09349
▁dainagon	-9.0935
▁consist	-9.09399
▁kane	-9.09411
▁taking	-9.09443
▁jodo	-9.09488
nt	-9.09513
seki	-9.0966
gai	-9.09838
▁highest	-9.09897
side	-9.09974
gra	-9.10002
▁kamo	-9.10004
▁korean	-9.10044
▁ltd	-9.10058
▁night	-9.1032
japan	-9.10327
emon	-9.10398
▁older	-9.10576
▁regard	-9.1059
▁follows	-9.10684
toshi	-9.10777
▁does	-9.10852
taro	-9.10862
▁director	-9.1092
▁p	-9.10977
▁red	-9.11054
▁light	-9.11123
less	-9.11129
▁arts	-9.11271
▁sanjo	-9.11316
▁seven	-9.11384
ad	-9.11472
▁gyo	-9.11579
um	-9.11604
▁refer	-9.11699
▁letter	-9.11764
▁visited	-9.11774
▁near	-9.11818
rt	-9.11863
▁island	-9.11877
▁further	-9.11879
va	-9.11897
▁poem	-9.11919
▁white	-9.12122
▁prefectural	-9.12176
▁occurred	-9.12212
later	-9.12245
▁carried	-9.12297
old	-9.12389
▁higher	-9.12432
▁base	-9.12641
▁come	-9.12643
▁conducted	-9.12676
▁assigned	-9.12805
head	-9.12853
▁matsudaira	-9.12874
for	-9.12908
▁raised	-9.12923
raku	-9.12979
ai	-9.12983
▁say	-9.13026
▁few	-9.13065
▁latter	-9.13069
▁policy	-9.13069
▁ban	-9.13237
▁nao	-9.1326
▁gold	-9.13318
▁formed	-9.13353
▁gods	-9.1336
▁certain	-9.13468
▁bank	-9.13503
▁command	-9.1352
▁got	-9.13588
▁gun	-9.13594
imperial	-9.13637
maru	-9.13674
kiyo	-9.14071
che	-9.14246
▁worked	-9.14308
▁sun	-9.14445
▁already	-9.14474
▁fish	-9.14477
▁eastern	-9.14499
▁tumulus	-9.14629
sui	-9.14655
▁furthermore	-9.14677
▁granted	-9.14681
nan	-9.1473
ating	-9.14835
▁mino	-9.14841
▁bridge	-9.1488
▁toshi	-9.15011
▁structure	-9.15355
▁per	-9.15382
▁jun	-9.15424
▁get	-9.15523
ies	-9.15669
cha	-9.15736
▁ran	-9.15923
haru	-9.1605
▁properties	-9.16106
▁caused	-9.16146
ect	-9.16288
▁sister	-9.16451
▁car	-9.16472
▁t	-9.16512
▁writing	-9.16708
▁change	-9.1671
▁lords	-9.16821
▁much	-9.16875
);	-9.16945
toki	-9.16946
▁treasure	-9.17165
chika	-9.17331
▁include	-9.17334
tori	-9.17557
▁woman	-9.17567
land	-9.17583
▁performance	-9.17898
▁officer	-9.18121
mb	-9.18176
▁kawa	-9.18241
▁saying	-9.18291
▁po	-9.18291
▁generations	-9.18524
▁practice	-9.18688
sh	-9.18879
▁ti	-9.18938
shiro	-9.19035
▁authority	-9.19043
▁sixth	-9.19064
▁society	-9.19096
▁money	-9.19096
▁return	-9.19237
▁captain	-9.1954
▁compiled	-9.19556
▁ra	-9.19643
year	-9.19646
▁park	-9.19735
nosuke	-9.19778
▁board	-9.19925
tu	-9.1996
▁jr	-9.20011
miya	-9.20112
ist	-9.2027
▁abolished	-9.20279
▁how	-9.20373
▁hard	-9.20402
▁film	-9.2041
▁description	-9.20483
▁existed	-9.20603
▁yoshitsune	-9.20699
▁gradually	-9.20738
▁priests	-9.20857
▁hira	-9.21011
▁leading	-9.21423
▁pass	-9.21473
▁saga	-9.21572
mai	-9.21614
▁katsu	-9.21691
▁sp	-9.2183
▁serve	-9.21907
gata	-9.22018
▁divided	-9.22033
▁serving	-9.22033
▁attacked	-9.22048
ren	-9.22089
ian	-9.22097
▁added	-9.22342
▁operated	-9.22365
▁living	-9.22601
▁text	-9.22604
▁kept	-9.22619
▁big	-9.22935
▁female	-9.22994
mune	-9.23192
tan	-9.23404
▁usually	-9.23445
hide	-9.23496
les	-9.23757
est	-9.23827
▁nation	-9.2392
saka	-9.24
▁social	-9.24165
▁studied	-9.24313
nai	-9.24352
▁ground	-9.24392
▁provincial	-9.24412
▁li	-9.24443
naka	-9.24544
▁total	-9.2474
▁trade	-9.24761
▁powerful	-9.25032
▁organization	-9.25038
▁toki	-9.252
▁scene	-9.25275
im	-9.25418
▁kore	-9.25432
hiko	-9.25518
zuka	-9.25664
▁otomo	-9.25779
▁oki	-9.25852
▁rebellion	-9.25887
ence	-9.259
ura	-9.25952
▁directly	-9.25992
▁kawachi	-9.26021
▁selected	-9.26099
▁inside	-9.26303
▁uesugi	-9.26371
omi	-9.2648
▁legend	-9.26633
▁depend	-9.26645
▁hongan	-9.26673
▁otsu	-9.26709
▁purpose	-9.26917
▁foot	-9.26952
▁guard	-9.27147
cy	-9.2735
▁worship	-9.27482
z	-9.27541
▁resigned	-9.27613
▁nari	-9.27831
▁lineage	-9.27891
mae	-9.28353
▁descendants	-9.28397
▁la	-9.28442
▁past	-9.28447
▁course	-9.28489
▁regions	-9.28523
▁estate	-9.28568
▁moreover	-9.28579
▁eldest	-9.28645
▁month	-9.28664
▁bosatsu	-9.28734
▁g	-9.28749
▁moro	-9.28838
▁successor	-9.29312
▁involved	-9.29516
▁followed	-9.29666
▁give	-9.29683
▁council	-9.29798
goku	-9.29832
▁bureau	-9.2992
▁ryu	-9.29971
pu	-9.30124
▁senior	-9.30245
▁finally	-9.30278
▁tree	-9.3029
and	-9.30323
▁shoen	-9.3043
▁elder	-9.30447
▁heir	-9.30499
nen	-9.30546
ami	-9.30634
tomi	-9.30796
▁seems	-9.30944
tomo	-9.3098
▁low	-9.31036
▁custom	-9.31328
▁standing	-9.31429
▁statues	-9.31456
▁sauce	-9.3151
▁says	-9.31528
▁conflict	-9.31665
▁supported	-9.31682
▁below	-9.31685
id	-9.3169
▁buildings	-9.31894
▁toyo	-9.31982
▁location	-9.32041
▁drama	-9.32108
▁thousand	-9.32122
▁human	-9.32135
▁silver	-9.32283
▁almo	-9.32402
10	-9.3247
▁exist	-9.32515
▁themselves	-9.32686
▁fell	-9.32697
▁lines	-9.32712
▁pi	-9.32747
▁chunagon	-9.32767
uchi	-9.32894
▁training	-9.32944
▁zo	-9.32956
councilor	-9.32977
▁ito	-9.33041
▁succession	-9.33187
▁vi	-9.33195
hisa	-9.33222
▁outside	-9.33248
▁remained	-9.3332
▁event	-9.33327
▁haru	-9.33679
▁asked	-9.33709
▁assistant	-9.3379
▁my	-9.33801
▁itself	-9.33989
dono	-9.34138
▁diary	-9.3414
▁platform	-9.34144
▁belonged	-9.3418
kura	-9.34247
▁level	-9.34249
▁maizuru	-9.34259
▁sub	-9.3434
▁seventh	-9.34429
ned	-9.34501
kko	-9.34589
▁design	-9.34665
nyo	-9.34795
▁provided	-9.35164
▁cabinet	-9.35225
▁tendai	-9.35298
▁police	-9.35357
zoku	-9.35436
▁students	-9.35437
▁field	-9.35503
▁port	-9.3552
▁oldest	-9.35533
▁kansai	-9.35548
am	-9.35566
▁regent	-9.35577
ship	-9.35619
way	-9.35646
▁paintings	-9.35658
▁throughout	-9.3575
▁sui	-9.358
▁issue	-9.3584
ical	-9.36252
▁king	-9.3628
▁100	-9.36295
▁goshirakawa	-9.36393
▁tanba	-9.36498
▁cars	-9.36584
▁full	-9.36608
ide	-9.36643
▁roof	-9.3666
▁details	-9.36666
▁volumes	-9.36671
▁lot	-9.36774
")	-9.36992
▁idea	-9.37029
jima	-9.37125
king	-9.37439
▁mutsu	-9.37478
provisional	-9.37657
▁sense	-9.37868
▁forced	-9.37926
▁asuka	-9.37947
▁du	-9.38002
▁ke	-9.38011
▁cloistered	-9.38066
▁run	-9.38095
▁ichijo	-9.38128
car	-9.38192
▁horse	-9.38229
▁fight	-9.38408
▁face	-9.38419
▁handed	-9.38617
▁originated	-9.38635
▁konoe	-9.38885
▁nihon	-9.38964
▁30	-9.38977
line	-9.39164
▁shimo	-9.39292
▁except	-9.39304
1	-9.39391
tra	-9.39393
▁commonly	-9.39535
▁oto	-9.39554
tri	-9.39586
ration	-9.39735
▁length	-9.39779
ishi	-9.39837
▁document	-9.3994
zane	-9.40327
▁becoming	-9.40419
ja	-9.40457
▁cut	-9.40458
▁additionally	-9.40546
▁musashi	-9.40597
▁events	-9.40629
▁nakamura	-9.40651
▁whole	-9.40836
▁appears	-9.4086
▁posts	-9.40983
▁manor	-9.41035
▁brothers	-9.41049
▁show	-9.41139
shaped	-9.41164
per	-9.41175
▁shiga	-9.41198
▁sold	-9.41229
▁song	-9.41232
▁miko	-9.41341
ial	-9.41504
▁object	-9.4156
▁whether	-9.41737
9	-9.41811
ul	-9.41968
governor	-9.42035
zaemon	-9.42137
▁memorial	-9.42151
saku	-9.4233
▁persons	-9.42423
▁spirit	-9.42483
▁hana	-9.42526
▁lady	-9.42643
mochi	-9.42723
▁true	-9.42806
▁pieces	-9.42852
▁information	-9.42896
▁never	-9.43009
▁kiyomori	-9.43025
▁theater	-9.43077
▁amida	-9.43087
▁medieval	-9.43164
▁priesthood	-9.43177
▁tame	-9.43195
▁kokushi	-9.43253
rd	-9.43293
▁leader	-9.43304
▁open	-9.4347
0	-9.43623
▁reform	-9.43627
ori	-9.43639
shoku	-9.4365
▁owned	-9.4406
▁services	-9.44172
▁shingon	-9.44235
▁approximately	-9.4424
▁increased	-9.44302
called	-9.44309
▁clear	-9.44651
▁deities	-9.44911
▁municipal	-9.44971
▁male	-9.4508
▁coins	-9.45142
▁conferred	-9.45251
▁hold	-9.45267
▁grave	-9.45342
▁activities	-9.45527
▁koto	-9.4561
pro	-9.45612
▁sangi	-9.4565
▁tango	-9.45789
koji	-9.45835
act	-9.45871
▁nu	-9.45872
great	-9.45882
▁science	-9.45895
▁owari	-9.45896
jingu	-9.45981
▁kanpaku	-9.45988
▁ca	-9.46028
▁enemy	-9.4608
▁da	-9.46137
▁administrative	-9.46147
▁le	-9.46218
▁direction	-9.46246
▁pagoda	-9.46451
▁soon	-9.46465
ward	-9.4648
up	-9.46526
▁poet	-9.46526
nao	-9.46544
▁composed	-9.46653
▁inter	-9.46685
▁possible	-9.46729
▁va	-9.46819
▁might	-9.46824
▁junior	-9.4686
13	-9.46861
▁nyorai	-9.47
▁nichiren	-9.47015
▁here	-9.47041
▁accepted	-9.47053
▁fuku	-9.47084
▁ie	-9.4713
▁dan	-9.4725
▁kon	-9.47422
▁square	-9.47477
▁roku	-9.47506
▁widely	-9.47513
▁hundred	-9.47554
▁active	-9.47647
▁tomb	-9.47732
▁peace	-9.47746
▁gu	-9.47775
▁foundation	-9.47874
▁soga	-9.47895
▁seki	-9.479
▁season	-9.47933
▁br	-9.48018
▁inherited	-9.48136
▁positions	-9.48219
▁theories	-9.48245
▁silk	-9.48608
▁actually	-9.48645
▁vice	-9.4872
▁takauji	-9.48773
▁disciple	-9.48803
emperor	-9.48982
▁shiba	-9.4935
▁sacred	-9.49527
▁kyu	-9.49585
▁miyoshi	-9.49605
▁enter	-9.49609
▁required	-9.49656
▁author	-9.49708
▁live	-9.49924
0,000	-9.50018
▁arrow	-9.5027
▁bon	-9.50298
▁prevent	-9.5033
▁leaves	-9.50343
ol	-9.50348
of	-9.50353
▁rather	-9.50427
ut	-9.50706
▁groups	-9.50772
▁standard	-9.50815
▁oe	-9.50858
▁kage	-9.50954
▁mochi	-9.50955
▁fields	-9.50981
▁katsura	-9.51084
▁mei	-9.51113
▁principal	-9.51122
▁little	-9.51202
▁lunar	-9.51269
▁uta	-9.51285
three	-9.51313
que	-9.51475
▁kara	-9.5152
goro	-9.51544
▁travel	-9.51547
▁envoy	-9.51551
▁ari	-9.51622
▁stories	-9.51788
▁pure	-9.51801
▁difficult	-9.51886
▁highly	-9.51918
▁towns	-9.51936
▁natural	-9.51939
▁chika	-9.51951
▁studies	-9.51984
▁particular	-9.52037
▁yen	-9.52087
▁mausoleum	-9.52219
▁must	-9.52314
▁subject	-9.52351
▁choshu	-9.52461
zaki	-9.52517
▁start	-9.52633
▁tama	-9.52652
▁far	-9.52692
new	-9.52752
▁wood	-9.52826
▁products	-9.52863
▁toku	-9.52869
▁less	-9.52923
▁daigo	-9.53033
▁m	-9.53153
▁coming	-9.53174
▁tan	-9.53227
bb	-9.53432
law	-9.53433
▁nai	-9.53546
▁trees	-9.53566
▁going	-9.53651
▁kugyo	-9.53657
▁things	-9.53671
60	-9.53678
▁eighth	-9.53796
▁request	-9.53926
▁warriors	-9.53952
we	-9.53991
▁treated	-9.54031
▁legal	-9.54194
▁bamboo	-9.54349
14	-9.5439
▁dead	-9.54425
▁ishi	-9.54449
▁ticket	-9.54466
▁wear	-9.54531
▁wakashu	-9.5455
setsu	-9.54663
▁black	-9.54689
▁nin	-9.54728
▁opinion	-9.54892
▁immediately	-9.54907
sawa	-9.54908
j	-9.54976
19	-9.55155
▁twenty	-9.55424
▁learned	-9.55529
▁pray	-9.5557
▁technique	-9.55616
▁running	-9.55695
▁yamashiro	-9.55701
▁recorded	-9.55707
▁toward	-9.55931
▁deep	-9.55955
▁awarded	-9.55986
▁actual	-9.56157
▁matters	-9.56173
▁legitimate	-9.5619
▁actor	-9.56249
▁rei	-9.56373
▁wide	-9.56442
▁soba	-9.56472
▁lead	-9.56589
gin	-9.56707
▁uchi	-9.56745
▁reached	-9.56825
▁soy	-9.5684
▁keep	-9.56877
nihon	-9.56952
▁dishes	-9.5707
light	-9.5713
▁tradition	-9.57134
▁2,	-9.57142
oki	-9.57376
▁report	-9.57438
▁value	-9.57538
▁sakai	-9.57657
▁material	-9.57712
▁effect	-9.57718
▁size	-9.57742
tur	-9.57746
▁houses	-9.57945
gaki	-9.57957
▁sound	-9.5805
▁terms	-9.58173
18	-9.58177
wara	-9.58226
▁gan	-9.5825
zumi	-9.58341
▁19	-9.58348
▁hereditary	-9.58364
▁newly	-9.58387
provincial	-9.58432
▁fukuchiyama	-9.58467
▁bow	-9.58582
▁personal	-9.58592
▁anti	-9.58618
▁saigo	-9.58911
▁gained	-9.59384
▁ruling	-9.59421
si	-9.59437
▁meeting	-9.59598
▁domains	-9.59626
▁parts	-9.59653
▁green	-9.59658
▁showa	-9.59688
▁shun	-9.59697
▁broke	-9.59838
▁picture	-9.59914
ping	-9.5994
▁minutes	-9.59948
▁treaty	-9.59961
▁presented	-9.60024
▁rec	-9.6003
▁kujo	-9.60147
▁types	-9.60209
▁descendant	-9.60211
▁abe	-9.60229
bara	-9.60245
▁min	-9.60248
▁financial	-9.60262
ization	-9.60263
▁subsequently	-9.60318
50	-9.60397
▁destroyed	-9.60476
nihonshoki	-9.60563
▁why	-9.60904
▁able	-9.6098
▁surrounding	-9.61037
▁3,	-9.6116
▁swords	-9.61172
▁mirror	-9.61183
▁monks	-9.61313
▁management	-9.61346
01	-9.61451
satsu	-9.61469
▁shinshu	-9.61478
16	-9.61512
35	-9.61575
▁letters	-9.61753
▁("	-9.61768
▁formal	-9.61782
▁pe	-9.61787
▁interest	-9.61887
nu	-9.61909
▁entrance	-9.61982
akira	-9.61991
▁noodles	-9.62032
▁unique	-9.62199
▁game	-9.62234
▁civil	-9.62371
20	-9.62409
?	-9.62446
(	-9.62515
▁politics	-9.62525
cu	-9.6253
warring	-9.6254
▁ren	-9.62755
ner	-9.62798
▁tosa	-9.62827
▁single	-9.62854
▁international	-9.62858
▁yodo	-9.62912
▁best	-9.62942
▁tachibana	-9.62962
▁love	-9.6298
maki	-9.63012
ure	-9.63069
kaido	-9.63071
▁available	-9.63072
▁ranked	-9.63074
▁president	-9.63074
▁hyo	-9.63192
▁mai	-9.63255
000	-9.63276
▁individual	-9.63291
▁21,	-9.63358
▁recent	-9.6343
▁d	-9.63562
▁know	-9.63624
ow	-9.63633
▁za	-9.63633
▁oka	-9.63645
lic	-9.63717
hashi	-9.63722
▁higashiyama	-9.63748
▁territories	-9.63776
▁facilities	-9.63842
▁echizen	-9.63842
▁worn	-9.63842
all	-9.63842
▁function	-9.63952
ex	-9.6406
▁husband	-9.64063
▁shiki	-9.64117
▁ended	-9.64258
▁izumo	-9.64302
▁kazu	-9.64485
▁childhood	-9.64516
ster	-9.64563
▁clans	-9.64571
▁offices	-9.64592
date	-9.6461
▁ceremonies	-9.64618
▁daijo	-9.64708
▁via	-9.64731
▁distinguished	-9.64748
▁rapid	-9.64809
▁ono	-9.6481
▁jugoinoge	-9.64849
30	-9.64916
her	-9.64917
▁religion	-9.64952
saburo	-9.64978
▁shimazu	-9.64982
67	-9.6506
▁figure	-9.65068
nami	-9.65089
kane	-9.65131
▁officers	-9.65158
▁thereafter	-9.65216
▁headquarters	-9.65262
if	-9.65378
main	-9.65407
bei	-9.65607
▁includes	-9.65661
39	-9.6567
ia	-9.65742
▁ja	-9.65798
ven	-9.65901
▁agency	-9.65963
▁saka	-9.65975
▁secret	-9.66031
▁respectively	-9.66107
▁told	-9.66117
▁dish	-9.66157
▁representative	-9.66215
▁recognized	-9.6625
▁independent	-9.66272
▁kimono	-9.66283
period	-9.66441
▁regular	-9.66453
toyo	-9.66497
▁settsu	-9.66533
▁appearance	-9.66655
▁completely	-9.66743
▁chapter	-9.66748
▁kintetsu	-9.66771
▁too	-9.66805
▁ship	-9.66817
▁walk	-9.66842
▁fan	-9.66846
▁movie	-9.6687
ph	-9.66973
▁yoshida	-9.66991
▁posthumous	-9.67005
▁ritual	-9.67005
▁kana	-9.67061
▁always	-9.67097
der	-9.67104
tsuki	-9.67107
▁cloth	-9.67117
▁mitsuhide	-9.67127
▁escaped	-9.67208
grand	-9.67268
▁navy	-9.67325
chronicles	-9.67393
▁godaigo	-9.6744
▁taste	-9.67517
▁economic	-9.67554
▁either	-9.67555
local	-9.67604
▁manner	-9.67816
zukuri	-9.67818
▁calligraphy	-9.67827
nishi	-9.6787
▁turn	-9.67918
▁haku	-9.67931
oi	-9.67944
▁dispatched	-9.67947
vo	-9.67973
▁seal	-9.67993
▁jusanmi	-9.68014
▁ouchi	-9.68034
▁exchange	-9.68046
▁ura	-9.68162
▁protect	-9.68205
▁across	-9.68244
▁ume	-9.68279
▁meat	-9.68281
taku	-9.6831
▁attached	-9.68313
▁yamana	-9.68382
▁call	-9.68555
▁avoid	-9.68591
▁existence	-9.68605
court	-9.68635
kon	-9.68696
▁bring	-9.68713
ions	-9.68729
▁hokkaido	-9.68823
▁united	-9.68883
▁hair	-9.68913
▁tu	-9.68927
▁existing	-9.69004
▁bound	-9.69017
ue	-9.69106
▁mountains	-9.69176
▁transportation	-9.69202
▁stayed	-9.69258
▁track	-9.6926
▁project	-9.69288
ot	-9.69423
68	-9.69491
▁minami	-9.69523
▁succeed	-9.69534
▁(19	-9.69572
▁sue	-9.69594
▁principle	-9.69639
▁entire	-9.69639
▁renamed	-9.69756
▁yoshino	-9.69787
ir	-9.69796
▁transfer	-9.69839
op	-9.69946
▁(18	-9.70051
▁examples	-9.70068
▁taisho	-9.70073
▁hino	-9.70133
ture	-9.70151
▁lawful	-9.70155
▁ordinary	-9.70169
gumi	-9.70273
▁help	-9.70369
▁autumn	-9.70388
▁stations	-9.70409
minamoto	-9.70521
▁shinsengumi	-9.70549
▁biwa	-9.70574
▁busho	-9.70582
muro	-9.7079
▁tei	-9.71002
▁todai	-9.71015
ang	-9.71141
▁cap	-9.71179
ari	-9.71238
▁advanced	-9.71313
▁summer	-9.7138
▁saionji	-9.7141
▁scholar	-9.71434
▁currently	-9.71437
▁ama	-9.7171
▁institute	-9.71768
▁language	-9.71768
▁warrior	-9.71837
▁defeat	-9.71908
▁k	-9.7199
▁kill	-9.72
▁eventually	-9.72127
▁version	-9.72127
▁iron	-9.7213
lit	-9.7221
▁air	-9.72227
6	-9.72295
▁sweet	-9.72309
▁cross	-9.7236
▁wish	-9.724
ish	-9.72404
▁met	-9.72412
▁nagasaki	-9.72416
▁soup	-9.72438
▁behind	-9.72488
▁tower	-9.72518
▁shira	-9.72631
▁equal	-9.72636
81	-9.72675
▁earth	-9.72685
▁kaku	-9.72716
▁remain	-9.72717
eki	-9.72723
▁cannot	-9.7273
▁honor	-9.72865
▁kurodo	-9.72925
▁kagami	-9.72986
▁your	-9.72992
▁won	-9.73045
concerning	-9.73119
▁respect	-9.73191
pre	-9.73195
▁azuchi	-9.73219
75	-9.73233
▁–	-9.73247
48	-9.73301
▁yoshimitsu	-9.73315
▁round	-9.7333
chin	-9.73391
54	-9.73411
▁suicide	-9.7343
iwa	-9.73472
11	-9.73513
▁ming	-9.73577
ries	-9.73611
▁25	-9.73662
▁holding	-9.73702
90	-9.73748
▁participated	-9.73769
▁rest	-9.7397
99	-9.74032
▁peninsula	-9.74065
par	-9.74077
69	-9.74111
let	-9.74248
▁kumano	-9.74365
▁outer	-9.74432
▁opening	-9.74445
▁opposed	-9.74445
▁michinaga	-9.74482
▁ishikawa	-9.74589
▁cause	-9.74607
▁ranks	-9.74619
59	-9.74634
▁techniques	-9.74634
daijin	-9.7472
▁non	-9.74732
▁kuro	-9.74798
kyoku	-9.74798
▁kingdom	-9.74802
38	-9.74806
▁qing	-9.74809
49	-9.74829
▁wall	-9.74875
▁floor	-9.74925
▁lo	-9.74953
▁program	-9.75172
▁adviser	-9.75296
▁corporation	-9.7542
▁collected	-9.75443
▁engaged	-9.7546
▁increase	-9.75469
lin	-9.75523
▁library	-9.75544
tive	-9.75573
40	-9.75588
▁belonging	-9.75599
▁seem	-9.75699
ranking	-9.75703
▁1868	-9.75707
▁hachi	-9.7574
▁20,	-9.75808
▁hei	-9.75837
▁particularly	-9.75849
▁actors	-9.75984
▁clothes	-9.75985
42	-9.76013
▁yamashina	-9.76042
▁2006	-9.76056
▁nature	-9.76059
▁25,	-9.76059
▁constitution	-9.76145
43	-9.76243
▁starting	-9.76269
▁free	-9.7634
▁done	-9.76354
▁equivalent	-9.76537
ified	-9.76568
▁shotoku	-9.76599
8	-9.76822
▁need	-9.76894
61	-9.76916
▁box	-9.76956
▁organized	-9.7696
▁sato	-9.77057
ppo	-9.77101
▁kanze	-9.77104
▁shows	-9.7712
▁hiei	-9.77159
▁disciples	-9.77165
hai	-9.77185
▁shirakawa	-9.77199
▁belief	-9.77297
▁list	-9.77377
▁summary	-9.77424
▁buried	-9.77425
shun	-9.77491
12	-9.77559
jutsu	-9.77671
sato	-9.77681
▁izumi	-9.77776
is	-9.77803
nce	-9.77807
55	-9.77839
▁fi	-9.7785
zawa	-9.7786
▁kobe	-9.77877
▁flower	-9.77893
56	-9.77894
▁dispute	-9.77931
cent	-9.7798
▁5,	-9.78014
▁taishogun	-9.78089
▁blood	-9.78124
like	-9.78173
lar	-9.78186
▁2007	-9.78206
▁screen	-9.78313
▁imp	-9.78322
▁height	-9.78406
▁concept	-9.78441
master	-9.78511
ities	-9.78553
79	-9.7861
zuki	-9.78863
juro	-9.78905
51	-9.78916
▁teachings	-9.78944
oji	-9.79028
▁industry	-9.79082
▁nine	-9.79189
▁committed	-9.79227
▁kimi	-9.79315
cla	-9.79328
▁24	-9.79365
▁move	-9.79391
▁harima	-9.79472
▁coin	-9.79484
▁scale	-9.79573
▁udaijin	-9.79623
▁pattern	-9.79642
pped	-9.79716
▁shinano	-9.79735
▁source	-9.79756
▁managed	-9.79805
▁folk	-9.79986
▁oi	-9.80018
▁mikawa	-9.80033
▁salt	-9.80057
▁edict	-9.80116
▁market	-9.80125
which	-9.80129
▁mind	-9.80173
hama	-9.80192
45	-9.80203
▁turned	-9.80239
▁27,	-9.8026
▁hokke	-9.80299
▁21	-9.80322
▁companies	-9.80376
77	-9.80377
▁toba	-9.80421
▁fa	-9.80478
▁establish	-9.80505
tr	-9.80511
▁yield	-9.80637
▁grandson	-9.80675
▁piece	-9.80686
▁derived	-9.80722
36	-9.80786
▁morning	-9.80899
▁yet	-9.809
port	-9.80916
jaku	-9.80939
nojo	-9.81001
haku	-9.81038
▁duties	-9.81168
▁yoshinobu	-9.81187
70	-9.81198
▁maki	-9.81273
▁grandfather	-9.81296
▁forest	-9.81323
41	-9.81484
▁bowl	-9.81512
▁kinds	-9.81564
aries	-9.81573
▁raku	-9.81576
▁mura	-9.81591
▁seii	-9.81591
▁chujo	-9.816
▁deputy	-9.81613
▁okubo	-9.8163
▁learning	-9.81641
sue	-9.81649
▁kanji	-9.81659
▁23,	-9.81705
jun	-9.81752
out	-9.81753
▁previous	-9.8181
▁decision	-9.8182
▁funeral	-9.8182
▁price	-9.81838
▁reading	-9.8192
▁15,	-9.81937
shaku	-9.82016
▁longer	-9.8203
21	-9.82037
shichi	-9.82055
waka	-9.82121
▁shijo	-9.82242
▁kura	-9.82313
▁28,	-9.82329
▁necessary	-9.8235
▁drum	-9.82358
▁teacher	-9.82477
▁officially	-9.82525
dokoro	-9.82568
▁quality	-9.82597
lt	-9.82681
58	-9.82741
ben	-9.82749
86	-9.8283
form	-9.82848
▁tenmu	-9.82958
▁sides	-9.82992
▁ima	-9.83156
▁space	-9.83176
▁courts	-9.83198
▁treasures	-9.83203
fer	-9.83262
▁question	-9.83285
▁shinkansen	-9.83285
▁crest	-9.83292
time	-9.83292
▁expression	-9.83305
▁hyogo	-9.83392
▁sadaijin	-9.83452
▁festivals	-9.83476
kazu	-9.83543
four	-9.83594
89	-9.83608
kage	-9.83609
▁kyogoku	-9.83726
temple	-9.8373
17	-9.8391
▁dedicated	-9.83917
▁brewing	-9.84052
▁yoshimasa	-9.84083
▁barbarians	-9.84095
65	-9.84101
▁comes	-9.84186
▁connection	-9.84195
53	-9.84212
▁describes	-9.84214
▁friend	-9.84219
▁mass	-9.84258
▁4,	-9.84442
▁offered	-9.84484
▁tane	-9.84492
▁accompanied	-9.84499
end	-9.84652
▁produce	-9.84709
boku	-9.8474
▁faction	-9.84761
▁faculty	-9.84771
▁jito	-9.84819
▁influenced	-9.84849
▁novel	-9.84881
▁consort	-9.84908
▁betto	-9.8495
▁ota	-9.84968
▁cover	-9.84987
▁basis	-9.85052
▁account	-9.85181
▁background	-9.8519
▁future	-9.85224
▁oshi	-9.853
fa	-9.85378
▁accept	-9.8539
▁lu	-9.85399
▁showed	-9.85435
▁lake	-9.85543
▁mito	-9.856
▁illness	-9.85605
du	-9.85608
▁hachiman	-9.85671
▁let	-9.85684
▁plant	-9.85718
▁hori	-9.85793
▁don	-9.858
▁bell	-9.85849
▁moon	-9.85853
▁sushi	-9.86051
57	-9.86197
▁yoshinaka	-9.862
▁km	-9.86368
▁awa	-9.86404
▁echigo	-9.86419
▁arrived	-9.86493
▁join	-9.86529
▁occasion	-9.86588
▁kondo	-9.86589
34	-9.86619
ike	-9.86743
house	-9.8676
▁appointment	-9.86783
▁sc	-9.86812
▁beautiful	-9.86835
▁gaku	-9.86921
▁bad	-9.86946
▁marriage	-9.86974
▁mound	-9.87026
▁poets	-9.87031
▁institution	-9.87057
▁24,	-9.87234
▁hatamoto	-9.87275
ou	-9.87304
bushi	-9.87308
▁esoteric	-9.87318
47	-9.87334
78	-9.87448
kuro	-9.87547
▁articles	-9.87559
▁restored	-9.87621
istic	-9.87671
▁specific	-9.87672
▁yoshiaki	-9.87676
zei	-9.87734
ved	-9.87748
▁guardian	-9.87831
▁em	-9.87854
▁contains	-9.87869
▁maintain	-9.87898
▁29,	-9.87924
▁fighting	-9.87941
▁staff	-9.87953
▁bean	-9.8807
ritsu	-9.88088
84	-9.88143
west	-9.88144
▁protection	-9.8815
▁store	-9.882
▁meant	-9.88234
▁nagoya	-9.88235
▁pay	-9.88252
▁koga	-9.88299
▁heaven	-9.88335
ify	-9.88368
▁camp	-9.88384
ology	-9.88393
▁step	-9.88396
▁farmers	-9.88397
46	-9.88483
▁yoko	-9.88512
▁crop	-9.88525
tama	-9.88531
▁classified	-9.88533
kka	-9.88589
tari	-9.88656
▁izu	-9.88762
88	-9.88801
▁rain	-9.88839
▁tenno	-9.88846
general	-9.88888
▁uma	-9.88927
ked	-9.88927
▁doctor	-9.88942
▁50	-9.8902
52	-9.89104
kojiki	-9.89183
▁hai	-9.89209
ple	-9.89235
87	-9.89249
▁shikibu	-9.89258
tane	-9.89259
low	-9.89342
▁subdue	-9.89371
▁oku	-9.89465
▁enthronement	-9.89511
yaki	-9.89534
▁rin	-9.89598
▁secretary	-9.89625
▁7,	-9.89652
▁thirty	-9.89753
64	-9.89776
▁reasons	-9.89813
▁followers	-9.8982
▁sumi	-9.89935
▁inoue	-9.89949
kichi	-9.8996
▁working	-9.9003
▁gokenin	-9.90084
▁allow	-9.9011
▁22,	-9.902
▁uncle	-9.90235
▁aizu	-9.9025
▁kaga	-9.90296
▁string	-9.90307
▁favor	-9.9046
▁fine	-9.90515
▁medicine	-9.90515
▁surface	-9.90515
kita	-9.90621
▁iwakura	-9.90682
▁currency	-9.90723
▁maternal	-9.90804
71	-9.90806
▁compared	-9.90949
▁kofuku	-9.91059
▁difference	-9.91089
▁magistrate	-9.91181
▁appear	-9.91233
▁kasuga	-9.91241
▁ingredients	-9.9128
ize	-9.91347
uta	-9.91355
▁iyo	-9.91416
▁connected	-9.91417
gar	-9.91432
quite	-9.91499
80	-9.91626
▁intention	-9.91679
▁paid	-9.91698
▁frequently	-9.91711
▁sekigahara	-9.91824
▁defense	-9.91859
▁kira	-9.91865
▁wo	-9.91871
ton	-9.91876
▁buses	-9.92033
val	-9.9205
▁model	-9.92176
▁flowers	-9.92274
▁rules	-9.92385
▁ninth	-9.92393
08	-9.9251
▁hitachi	-9.92572
▁troop	-9.92575
▁13,	-9.92608
nushi	-9.92631
▁al	-9.92636
▁retained	-9.92667
▁exhibition	-9.92748
▁bugyo	-9.92808
▁stated	-9.92859
▁items	-9.93071
▁temporary	-9.93099
▁condition	-9.93104
▁punishment	-9.93152
▁planned	-9.93168
▁self	-9.93168
98	-9.93175
hana	-9.93195
▁sign	-9.93196
66	-9.93268
▁submitted	-9.933
▁lecture	-9.93381
shed	-9.93384
taisha	-9.93427
▁subway	-9.93457
oto	-9.9351
▁enryaku	-9.93616
oku	-9.93645
▁closed	-9.93648
91	-9.9366
▁influential	-9.93739
▁costume	-9.93741
72	-9.93775
▁hands	-9.93797
▁job	-9.93824
▁chamberlain	-9.93865
▁bar	-9.93888
▁applied	-9.93888
▁tera	-9.93958
▁painter	-9.94005
").	-9.94058
▁imagawa	-9.94083
▁captured	-9.9411
hu	-9.94125
▁nichi	-9.9416
▁reported	-9.94233
▁villa	-9.94254
ware	-9.94318
▁winter	-9.94345
hy	-9.94398
▁excellent	-9.94492
tsuke	-9.94587
▁wind	-9.94621
qui	-9.94652
▁lands	-9.9466
▁cherry	-9.94787
▁match	-9.94953
▁shops	-9.94994
▁problem	-9.95002
▁fe	-9.95068
63	-9.95239
▁karasuma	-9.95241
▁drawn	-9.95264
tani	-9.95305
07	-9.95338
03	-9.95342
▁surname	-9.95391
▁cooking	-9.95406
▁correspond	-9.95497
▁19,	-9.95546
ible	-9.9555
cing	-9.95557
▁ichikawa	-9.95623
▁30,	-9.9563
▁v	-9.95637
▁additional	-9.95664
▁yamagata	-9.95724
▁achievements	-9.95728
24	-9.95738
▁eaten	-9.95746
don	-9.95804
known	-9.95806
masu	-9.95818
▁sakyo	-9.959
▁classical	-9.95907
▁hu	-9.95996
▁monument	-9.95998
▁connect	-9.96002
▁chiba	-9.96048
▁controlled	-9.9613
▁measures	-9.96174
06	-9.96177
▁range	-9.96188
▁26,	-9.96284
▁portrait	-9.96303
iv	-9.96318
mm	-9.96346
▁invited	-9.96459
▁whom	-9.96473
▁receive	-9.96564
▁something	-9.96614
ite	-9.96662
▁merchants	-9.96824
▁shown	-9.96835
▁basic	-9.96904
▁10,	-9.96908
▁academic	-9.96916
▁sons	-9.96934
hen	-9.96953
who	-9.9697
▁europe	-9.96999
▁mizu	-9.97012
83	-9.97036
▁medical	-9.9707
▁guest	-9.97087
▁stick	-9.97216
▁sw	-9.9722
▁empire	-9.97224
▁variety	-9.97224
▁tatsu	-9.9725
▁chiku	-9.97304
▁8,	-9.97323
▁taiwan	-9.9739
▁shingen	-9.97398
▁promotion	-9.97533
national	-9.97537
official	-9.97539
from	-9.9754
▁spa	-9.97563
▁bai	-9.97596
▁super	-9.97635
▁perform	-9.9764
▁reach	-9.97662
▁pick	-9.97681
▁dowager	-9.97688
▁pond	-9.97794
▁eating	-9.97807
▁consequently	-9.97843
▁meanwhile	-9.97843
▁collect	-9.97869
▁22	-9.97905
▁saw	-9.97933
▁typical	-9.98154
▁chamber	-9.98154
▁egg	-9.98154
▁wi	-9.98194
▁diet	-9.98199
▁sumo	-9.98221
▁villages	-9.98269
▁daishi	-9.9838
▁painted	-9.98394
32	-9.98419
kado	-9.98462
▁audience	-9.98465
▁ruled	-9.98514
15	-9.98521
▁prior	-9.98647
collection	-9.98651
▁distance	-9.98716
▁break	-9.9872
▁sl	-9.98806
▁rock	-9.98854
▁card	-9.98879
93	-9.98879
62	-9.98884
▁listed	-9.98886
▁im	-9.98918
▁disease	-9.98935
▁shoshi	-9.98967
izing	-9.9898
▁hiroshima	-9.99015
▁mis	-9.9903
▁sung	-9.99036
▁koya	-9.99063
▁hata	-9.99157
▁dried	-9.99259
▁prepared	-9.9934
▁(1	-9.99492
▁provide	-9.99524
▁plays	-9.99553
▁rokkaku	-9.99564
▁supposed	-9.99579
▁installed	-9.99689
▁mostly	-9.997
94	-9.99707
▁practical	-9.99722
▁disturbance	-9.99725
▁annual	-9.99728
ger	-9.99802
▁accord	-9.99829
▁urban	-9.99881
▁million	-9.99905
eight	-9.99993
▁studio	-10.0004
▁covered	-10.0009
]).	-10.0015
▁gin	-10.0017
▁6,	-10.0023
▁kongo	-10.0027
▁stand	-10.0037
nara	-10.0038
▁complete	-10.004
▁exception	-10.004
six	-10.0041
▁emperors	-10.0045
▁provisional	-10.0048
jr	-10.0051
▁alliance	-10.0052
▁(15	-10.0063
▁survey	-10.0068
▁nenbutsu	-10.0068
04	-10.0074
▁regulations	-10.0078
▁boy	-10.0079
▁makino	-10.0085
▁separated	-10.0086
▁fukuoka	-10.0087
gei	-10.0098
▁target	-10.01
cal	-10.0103
▁matter	-10.0104
▁9,	-10.0107
tsuji	-10.0108
▁songs	-10.0113
▁siege	-10.0116
▁kagoshima	-10.0116
▁plot	-10.0116
▁2005	-10.0118
name	-10.0129
rated	-10.013
ped	-10.0132
▁restaurants	-10.0133
▁normal	-10.0134
▁double	-10.0148
▁rikyu	-10.0152
scale	-10.0153
▁iga	-10.0158
▁historic	-10.0161
▁nobility	-10.0163
▁okimi	-10.0163
▁pen	-10.0164
23	-10.0165
▁yamada	-10.0169
▁ceremonial	-10.0177
▁care	-10.018
31	-10.018
▁fun	-10.0182
▁ikeda	-10.0186
▁kiri	-10.0187
▁daibu	-10.019
▁wearing	-10.0191
▁rose	-10.0192
▁ill	-10.0193
▁shaku	-10.0195
▁doshisha	-10.0196
▁becomes	-10.0205
▁burial	-10.0212
▁declined	-10.0214
▁follow	-10.0225
▁thin	-10.0226
▁responsible	-10.0228
▁hatakeyama	-10.0228
high	-10.0233
by	-10.0244
▁english	-10.0245
44	-10.0245
▁titles	-10.0251
▁rai	-10.0255
hand	-10.0258
▁passengers	-10.0259
▁edition	-10.0261
▁giving	-10.0261
▁prime	-10.0263
dy	-10.0267
vice	-10.0277
▁boat	-10.0278
▁spot	-10.0279
getsu	-10.0284
▁conduct	-10.0293
▁11,	-10.0297
▁sentence	-10.0298
▁mine	-10.0304
▁elementary	-10.031
hachi	-10.0314
▁28	-10.0315
▁knowledge	-10.034
osaka	-10.0342
log	-10.0344
▁circumstances	-10.0345
zushi	-10.0346
▁removed	-10.0347
some	-10.035
▁repair	-10.0359
print	-10.0359
▁concurrently	-10.036
▁12,	-10.0363
▁student	-10.0365
▁exists	-10.0368
82	-10.0374
25	-10.0375
▁martial	-10.0376
▁associated	-10.0376
▁taught	-10.0376
▁kii	-10.0386
▁final	-10.0394
▁despi	-10.0409
28	-10.0412
▁runs	-10.0412
▁regional	-10.0415
▁someone	-10.0419
▁heike	-10.0421
▁talk	-10.0422
▁symbol	-10.0423
▁attempt	-10.0424
▁territorial	-10.0433
▁temporarily	-10.0442
▁simple	-10.0442
▁yakushi	-10.045
pen	-10.0461
ber	-10.0461
▁believe	-10.0471
ties	-10.0478
▁heard	-10.0484
▁kanrei	-10.0486
85	-10.0487
▁sugar	-10.0489
▁naidaijin	-10.0492
sumi	-10.0499
cc	-10.05
▁manuscript	-10.0502
▁hiki	-10.0503
▁scholars	-10.0505
▁advance	-10.0505
▁dazai	-10.0506
▁facility	-10.0508
▁enough	-10.051
▁hara	-10.0511
cked	-10.0511
▁23	-10.0512
juku	-10.0514
▁extended	-10.0516
kuma	-10.0526
long	-10.0529
97	-10.0529
kken	-10.0535
mizu	-10.0537
▁simply	-10.0541
▁permission	-10.0542
▁changes	-10.055
▁remaining	-10.0559
▁udon	-10.0559
%	-10.0563
▁2008	-10.0577
▁qu	-10.0581
33	-10.0583
▁trip	-10.0584
▁soul	-10.0586
▁shima	-10.0589
▁demand	-10.0592
▁leaving	-10.0592
▁architecture	-10.0592
▁shop	-10.0592
▁daijokan	-10.0601
bai	-10.0606
96	-10.0612
▁us	-10.0621
kasa	-10.0621
▁pu	-10.0621
▁mar	-10.0626
▁railways	-10.0629
▁unlike	-10.063
▁okura	-10.064
jitsu	-10.0642
▁beauty	-10.0642
▁health	-10.0643
▁ben	-10.0654
▁reizei	-10.066
▁literary	-10.066
▁greatly	-10.0668
▁horses	-10.0671
boshi	-10.0673
kara	-10.0676
▁inaba	-10.0676
▁advantage	-10.0676
▁descriptions	-10.0684
class	-10.0689
▁thick	-10.0693
▁shall	-10.0704
▁leave	-10.0708
▁community	-10.071
▁railroad	-10.071
▁uprising	-10.071
▁narrow	-10.071
▁decree	-10.0711
assistant	-10.0719
ept	-10.0719
tate	-10.0725
kusa	-10.0725
▁indicates	-10.073
▁contents	-10.0731
▁yamaguchi	-10.0732
▁actively	-10.0736
▁gojo	-10.0737
▁kukai	-10.074
▁gion	-10.075
▁rights	-10.0751
ography	-10.0759
five	-10.0762
mpl	-10.0768
▁kasa	-10.0768
▁initially	-10.0769
▁kizu	-10.0776
▁machi	-10.0788
▁concubine	-10.0796
▁labor	-10.0796
▁incorporated	-10.0798
oya	-10.0812
▁revision	-10.0813
▁offering	-10.0814
cul	-10.0814
▁recently	-10.0818
▁kano	-10.0819
▁contributed	-10.0823
▁26	-10.0826
▁plate	-10.0831
▁hito	-10.0834
▁conditions	-10.0844
▁yoshitaka	-10.0848
▁cities	-10.0851
pon	-10.086
▁kyogen	-10.0863
▁depict	-10.0865
▁battles	-10.0866
▁fudo	-10.0869
▁weight	-10.087
▁kanmu	-10.0873
▁peasants	-10.0882
▁eat	-10.0889
▁codes	-10.089
▁mean	-10.09
▁fixed	-10.0909
▁exiled	-10.091
▁teaching	-10.0915
▁goods	-10.0918
kofun	-10.0927
▁copper	-10.0934
▁award	-10.0941
▁yoshitomo	-10.0941
▁dewa	-10.0941
▁gathered	-10.0947
▁cast	-10.0947
▁wakasa	-10.0948
▁shaka	-10.0949
▁pictures	-10.0949
▁determined	-10.0951
▁failed	-10.0951
▁roll	-10.0955
▁suffered	-10.0959
▁decline	-10.0967
▁successive	-10.0973
▁monjo	-10.0975
▁invasion	-10.0986
▁attention	-10.0986
▁hakase	-10.0986
soku	-10.099
▁find	-10.0994
09	-10.0996
xi	-10.0998
▁rakugo	-10.0998
ny	-10.0999
▁koji	-10.1001
▁continue	-10.1002
▁ships	-10.1003
▁agricultural	-10.1004
▁besides	-10.1005
▁hankyu	-10.1011
▁maintained	-10.1011
▁films	-10.1013
atsu	-10.1013
zaka	-10.1014
▁patterns	-10.1015
▁strongly	-10.1016
▁kuge	-10.1019
▁suruga	-10.1021
lf	-10.1027
▁transport	-10.1035
▁lives	-10.1036
gre	-10.1054
▁kuma	-10.107
▁build	-10.1073
▁uda	-10.1077
mor	-10.1077
05	-10.1078
▁ancestor	-10.1079
▁performing	-10.1081
tto	-10.1085
▁evil	-10.1086
goto	-10.1088
▁sakura	-10.1088
▁ukyo	-10.1089
▁peerage	-10.1092
大	-10.1092
▁spirits	-10.1097
▁professional	-10.1107
▁circle	-10.111
▁kofun	-10.1117
▁si	-10.1118
▁refused	-10.1131
▁18,	-10.1131
ral	-10.1133
▁towards	-10.1133
▁college	-10.1145
▁kumamoto	-10.1148
hata	-10.1148
▁table	-10.1154
▁chosen	-10.1159
▁asano	-10.116
▁otani	-10.1161
▁chugu	-10.1163
▁stock	-10.1163
▁adult	-10.1163
▁bushi	-10.1173
ong	-10.1178
▁relocated	-10.1184
▁kuroda	-10.1187
▁flavor	-10.1189
▁entering	-10.1196
▁anecdote	-10.1199
▁domestic	-10.1199
▁border	-10.1199
26	-10.1199
▁kokuga	-10.1202
maizuru	-10.1211
▁characteristics	-10.1212
▁lotus	-10.1219
ual	-10.1221
▁prohibited	-10.1224
▁happened	-10.1229
buddhist	-10.1229
▁doctrine	-10.1234
▁develop	-10.1251
▁commercial	-10.1252
▁sugawara	-10.1254
▁ranking	-10.1255
▁look	-10.1262
▁cake	-10.1263
▁pot	-10.1267
▁alcohol	-10.127
▁coast	-10.1271
▁saku	-10.1273
▁laws	-10.1276
azuma	-10.1277
▁hit	-10.1278
cle	-10.1283
nyu	-10.1286
▁treatment	-10.129
▁shiro	-10.1292
▁wanted	-10.1292
▁attain	-10.1293
▁efforts	-10.13
▁career	-10.1304
▁tokaido	-10.1309
▁haiku	-10.1316
▁saito	-10.1318
▁pilgrimage	-10.1325
27	-10.1331
▁jizo	-10.1332
▁shichi	-10.134
▁14,	-10.134
▁star	-10.1344
▁masu	-10.1345
▁seiwa	-10.1346
▁daigaku	-10.1348
▁discovered	-10.1361
▁akechi	-10.1362
▁yanagi	-10.1363
▁miyazu	-10.1364
shitsu	-10.1364
▁taki	-10.1365
mata	-10.1366
there	-10.1366
▁makes	-10.1366
according	-10.1375
▁ue	-10.1375
▁daisho	-10.1378
▁easily	-10.1379
▁ru	-10.1383
former	-10.139
▁rituals	-10.1391
▁internal	-10.1397
▁verse	-10.14
▁royal	-10.1402
▁talent	-10.1402
▁1869	-10.1403
▁maeda	-10.1407
major	-10.1412
▁lacquer	-10.1415
▁preservation	-10.1415
ima	-10.1416
qua	-10.1418
moku	-10.1423
▁owner	-10.1426
▁27	-10.1429
▁stipend	-10.1434
▁stopped	-10.1436
monin	-10.1437
▁kurama	-10.1446
▁relatively	-10.1447
▁extremely	-10.1456
▁artist	-10.1465
▁executed	-10.1474
▁drawing	-10.1474
▁basically	-10.149
▁playing	-10.1491
▁chant	-10.1497
this	-10.15
▁pronounced	-10.1503
▁shimotsuke	-10.1508
▁claim	-10.151
▁hayashi	-10.1517
rice	-10.1521
▁defined	-10.1526
▁jushiinoge	-10.1526
▁kinai	-10.1526
▁permitted	-10.1526
▁tsuki	-10.153
▁paste	-10.1542
zaburo	-10.1544
▁finance	-10.1544
kiri	-10.1545
▁nihonshoki	-10.1548
▁1871	-10.1549
76	-10.1552
29	-10.1556
bugyo	-10.1563
▁omo	-10.1565
▁suddenly	-10.1568
▁requested	-10.157
▁arranged	-10.1581
▁metal	-10.1593
▁chin	-10.1598
▁cooked	-10.16
art	-10.1615
▁professor	-10.1616
▁adopt	-10.1616
uri	-10.1616
▁matsuri	-10.1619
▁reference	-10.1621
▁waki	-10.1636
▁anthology	-10.1636
▁mixed	-10.1637
▁judge	-10.1637
▁enshrine	-10.1639
▁cm	-10.1643
ita	-10.1645
▁attract	-10.1656
▁translation	-10.1659
▁register	-10.1659
▁har	-10.1659
▁think	-10.1662
▁hama	-10.1663
▁action	-10.1668
▁introduction	-10.1674
middle	-10.1675
ryaku	-10.1676
▁taxes	-10.1676
▁coup	-10.169
▁aspect	-10.1693
▁rites	-10.1694
▁asakura	-10.1694
▁commit	-10.1695
▁settled	-10.1699
▁okayama	-10.1703
▁takes	-10.1704
▁mat	-10.1705
kashi	-10.1708
▁leg	-10.171
▁anniversary	-10.1712
teru	-10.1716
▁kinki	-10.1717
▁nor	-10.172
▁fled	-10.172
▁offer	-10.1722
▁gosho	-10.1729
written	-10.1729
▁kato	-10.174
row	-10.174
▁pl	-10.1747
▁newspaper	-10.175
▁nagaoka	-10.1765
22	-10.177
▁arms	-10.1773
▁acted	-10.1785
▁cost	-10.1793
▁miso	-10.1795
▁earlier	-10.1807
▁instrument	-10.1807
▁nitta	-10.1807
▁feeling	-10.1812
▁tell	-10.1818
traditional	-10.1825
▁trans	-10.1825
▁attendant	-10.1828
▁clothing	-10.183
▁masamune	-10.1832
▁relative	-10.1832
▁carry	-10.1833
▁shosho	-10.1837
▁episode	-10.1845
ise	-10.1845
▁mark	-10.1846
▁months	-10.1853
▁raw	-10.1853
east	-10.1854
▁geisha	-10.1864
▁scroll	-10.1865
▁ve	-10.1874
▁goddess	-10.1883
▁rise	-10.1887
▁mae	-10.1887
▁cold	-10.189
▁announced	-10.1892
▁obtained	-10.1892
▁designed	-10.1904
▁governors	-10.1914
▁operations	-10.1918
▁expressed	-10.1919
▁poor	-10.192
▁bath	-10.1925
motsu	-10.1925
▁takakura	-10.1932
uma	-10.1938
work	-10.1941
chinese	-10.1941
▁thanks	-10.1941
▁root	-10.1944
▁lack	-10.195
▁reward	-10.1951
ame	-10.1952
▁achieved	-10.1956
▁attend	-10.1958
▁advisor	-10.196
momoyama	-10.196
▁portion	-10.1964
▁christian	-10.1967
▁disappeared	-10.1972
▁copy	-10.1979
▁powers	-10.1982
▁sakone	-10.199
▁address	-10.1998
▁entry	-10.1998
▁afterwards	-10.2001
▁enjoy	-10.2003
ably	-10.2003
▁mission	-10.2004
"),	-10.2011
▁fare	-10.2012
▁comment	-10.2018
▁pointed	-10.2026
▁registered	-10.2033
▁campaign	-10.2037
▁settlement	-10.2038
▁skill	-10.2042
▁kubo	-10.2043
▁stay	-10.2044
▁joint	-10.2045
▁koshi	-10.2046
▁shonii	-10.2057
▁shinran	-10.2057
▁`	-10.2061
▁dress	-10.2062
▁rare	-10.2065
vest	-10.2066
▁districts	-10.2069
▁stands	-10.2073
▁damage	-10.2077
ification	-10.2079
▁block	-10.2097
hold	-10.2102
fe	-10.2104
▁descended	-10.2106
nagi	-10.2114
▁contrast	-10.2115
▁evidence	-10.2115
▁petition	-10.2115
▁powder	-10.2115
▁tadayoshi	-10.2116
pan	-10.2117
▁grandchild	-10.2118
▁obi	-10.2121
▁messenger	-10.2135
▁masakado	-10.2138
numa	-10.2145
▁phrase	-10.2154
▁criticized	-10.2155
ory	-10.216
▁boiled	-10.2169
▁roju	-10.217
▁traffic	-10.2174
▁biological	-10.2175
▁drink	-10.2177
▁kichi	-10.2194
▁identified	-10.2194
▁sects	-10.2195
▁split	-10.2196
▁replaced	-10.2214
▁60	-10.2226
▁heart	-10.2228
▁mandala	-10.2229
▁heavy	-10.2233
sama	-10.2236
▁opinions	-10.2249
▁practiced	-10.225
▁moku	-10.225
▁shooting	-10.2254
▁gain	-10.2262
▁manager	-10.2262
▁dry	-10.2266
▁asia	-10.227
▁proposed	-10.2273
▁goto	-10.2276
▁recover	-10.2277
tatsu	-10.2278
▁walls	-10.2281
▁oshu	-10.2283
shita	-10.2286
▁path	-10.2289
tetsu	-10.2294
shrine	-10.2294
▁nothing	-10.2298
▁serious	-10.2299
▁parties	-10.2308
chiyo	-10.2312
▁allied	-10.2314
▁bird	-10.2316
▁recommended	-10.232
▁writer	-10.232
▁sites	-10.233
▁seated	-10.2334
▁jingu	-10.2349
▁differ	-10.235
kki	-10.2353
▁resulted	-10.2369
ative	-10.2371
▁revised	-10.2373
▁enlightenment	-10.2374
dani	-10.2375
▁confucianism	-10.2381
top	-10.2383
▁kozuke	-10.2383
tte	-10.2384
▁approved	-10.2397
▁merchant	-10.2405
hyo	-10.241
▁zu	-10.2412
▁fortune	-10.2413
],	-10.2414
direct	-10.2414
▁steam	-10.242
war	-10.2421
meter	-10.2431
etsu	-10.2432
type	-10.2432
▁focus	-10.2434
▁count	-10.2435
▁contained	-10.2436
nashi	-10.2439
▁consisted	-10.2439
rate	-10.2452
▁funa	-10.2452
leg	-10.2455
▁deal	-10.2459
his	-10.2468
▁sasaki	-10.2468
▁population	-10.2474
▁rokuhara	-10.2477
▁sand	-10.248
▁tohoku	-10.2493
▁ages	-10.2493
▁murakami	-10.2496
second	-10.2499
▁atago	-10.25
ble	-10.2509
▁sin	-10.2511
▁burned	-10.2511
tre	-10.2513
▁faith	-10.2514
▁revolt	-10.2515
▁inscription	-10.2515
▁escape	-10.2515
▁sanuki	-10.2517
▁rich	-10.2521
manyoshu	-10.2533
▁hiko	-10.2534
▁merged	-10.2535
▁nephew	-10.2535
▁ordinance	-10.2535
▁ink	-10.254
▁mitsunari	-10.2543
seven	-10.2545
otsu	-10.255
▁check	-10.2556
▁taisha	-10.2556
▁tanaka	-10.2571
▁kumi	-10.2575
▁mizuno	-10.2575
▁kojiki	-10.2576
▁response	-10.2576
▁tv	-10.2582
▁content	-10.2593
▁broad	-10.2597
▁constable	-10.2597
▁sell	-10.2599
▁miyake	-10.2601
▁nen	-10.2603
▁surrendered	-10.2607
▁hoshi	-10.2608
▁reflect	-10.2617
▁technology	-10.2617
▁fukushima	-10.2622
modern	-10.2623
▁our	-10.2625
▁correct	-10.2633
▁relations	-10.2634
▁slightly	-10.2638
nichi	-10.2649
▁relatives	-10.2658
▁excavated	-10.2659
▁divine	-10.2659
▁attempted	-10.266
▁performances	-10.2662
zuke	-10.2665
▁flow	-10.2669
▁measure	-10.2672
▁comm	-10.2672
▁orders	-10.2673
▁hill	-10.2673
asa	-10.2673
▁commerce	-10.2679
▁fief	-10.2679
▁chronicle	-10.2682
▁roles	-10.2695
▁kiku	-10.2697
▁draft	-10.2701
▁prize	-10.2701
ancient	-10.2706
guri	-10.271
▁jinshin	-10.2718
▁(11	-10.272
▁approach	-10.2721
▁tracks	-10.2727
▁40	-10.2738
▁receiving	-10.2742
▁residents	-10.2742
▁tetsu	-10.2742
▁released	-10.2747
▁restaurant	-10.2761
▁probably	-10.2762
▁shamisen	-10.2762
▁bear	-10.2771
▁foreigners	-10.2772
nokami	-10.2778
▁tales	-10.2778
▁instruments	-10.2783
train	-10.2784
script	-10.2789
▁grounds	-10.2794
▁akita	-10.2795
▁engi	-10.28
oshi	-10.2804
▁agriculture	-10.2804
▁conference	-10.2804
▁duty	-10.2807
▁maru	-10.2808
▁surrounded	-10.2809
▁reforms	-10.2826
military	-10.2833
kuchi	-10.2836
see	-10.2836
▁meet	-10.2836
hoku	-10.2839
▁cr	-10.2841
▁wakayama	-10.2843
wata	-10.2846
▁arrangement	-10.2846
▁biography	-10.2848
▁watch	-10.2856
▁stores	-10.2856
ious	-10.2856
now	-10.2865
▁nyo	-10.287
▁kameyama	-10.2872
▁oama	-10.2876
▁forms	-10.2882
▁overthrow	-10.2889
▁grew	-10.2889
▁teru	-10.2889
▁crossing	-10.289
▁sugi	-10.2894
▁comic	-10.2895
▁hat	-10.2895
▁suggest	-10.2898
▁miura	-10.2899
▁pine	-10.29
▁cur	-10.2904
▁largest	-10.2908
▁depicted	-10.2909
▁edge	-10.2913
▁nakamaro	-10.2916
▁weak	-10.2917
▁views	-10.2919
▁product	-10.2925
▁oyama	-10.2928
wake	-10.2929
▁superior	-10.2931
pass	-10.2942
▁kazan	-10.2944
▁stones	-10.2948
▁create	-10.2954
▁showing	-10.2957
▁features	-10.2964
▁dr	-10.2966
▁platforms	-10.2976
pei	-10.2977
▁sendai	-10.2978
▁deeply	-10.2982
kkai	-10.2986
▁sagami	-10.2989
▁fabric	-10.2995
▁eki	-10.2998
▁machine	-10.3001
set	-10.3002
umi	-10.3011
▁roads	-10.3014
▁supreme	-10.3016
▁degree	-10.3017
first	-10.3026
tea	-10.3026
▁kamigata	-10.303
▁meal	-10.3031
▁tourist	-10.3042
▁gotoba	-10.3043
▁omiya	-10.3045
pur	-10.305
▁ameno	-10.3055
▁establishing	-10.3056
▁supporting	-10.306
▁gift	-10.306
▁hoku	-10.3061
▁sakamoto	-10.3064
ists	-10.3067
▁tsuna	-10.3069
▁translated	-10.3071
▁educational	-10.3081
▁prayer	-10.3082
▁michizane	-10.3084
▁relation	-10.3087
tle	-10.3088
▁200	-10.3089
▁accordingly	-10.3096
▁juichii	-10.3103
▁sekkan	-10.3105
▁campus	-10.3105
▁characteristic	-10.311
▁dec	-10.3116
▁ike	-10.3119
▁vol	-10.312
▁forth	-10.3124
▁rebuilt	-10.3125
▁entertainment	-10.3127
▁display	-10.3135
▁access	-10.3141
▁blue	-10.3141
▁goes	-10.3149
▁29	-10.3149
▁india	-10.3149
book	-10.3158
▁honjo	-10.3165
▁sessho	-10.3169
▁pair	-10.3171
tsuka	-10.3174
▁rate	-10.3176
▁kotsu	-10.3177
▁ishiyama	-10.3181
▁reduced	-10.3185
▁yoshimune	-10.3199
bayashi	-10.3202
▁possessed	-10.3204
▁intended	-10.3211
▁murasaki	-10.3213
sis	-10.3218
rc	-10.3222
▁asahi	-10.3226
▁attended	-10.3228
▁setsu	-10.3231
▁trouble	-10.3233
▁rokujo	-10.324
▁directed	-10.3248
▁plain	-10.3249
▁mention	-10.3253
▁dutch	-10.3255
▁goryo	-10.3258
koshi	-10.3259
ium	-10.3262
including	-10.3266
▁desire	-10.3277
▁tanka	-10.3279
▁hidetada	-10.3282
kari	-10.3285
▁basin	-10.3287
▁(16	-10.3287
▁hen	-10.3291
▁scen	-10.3294
▁daily	-10.3308
▁routes	-10.3309
ult	-10.3316
nder	-10.3319
room	-10.332
rat	-10.332
mine	-10.3333
▁shogunal	-10.3335
▁classics	-10.3342
▁figures	-10.3342
▁decoration	-10.3343
▁dismissed	-10.3343
▁ogasawara	-10.3343
▁cousin	-10.3343
▁corner	-10.3343
▁precincts	-10.3344
▁note	-10.3344
▁bizen	-10.3352
▁host	-10.3359
▁agreement	-10.3366
▁snow	-10.3367
arm	-10.337
higashi	-10.3372
▁considering	-10.3379
▁ruler	-10.3385
▁girls	-10.3386
▁diplomatic	-10.3388
▁silla	-10.3388
▁musical	-10.3402
kkan	-10.3405
▁fear	-10.3415
▁fee	-10.3415
with	-10.3421
▁successively	-10.3428
▁furu	-10.3429
▁interpretation	-10.3432
▁scriptures	-10.3432
▁harvest	-10.3433
▁graduate	-10.3435
▁returning	-10.3437
shinto	-10.3439
▁learn	-10.3451
▁occupied	-10.3455
▁justice	-10.3455
▁2004	-10.3462
▁script	-10.347
▁yoshiie	-10.3474
▁dream	-10.3477
▁shizuoka	-10.3477
getting	-10.3478
▁heijo	-10.3481
▁explained	-10.3483
▁kono	-10.3499
▁bureaucrat	-10.35
▁kazusa	-10.3501
▁300	-10.3501
▁arashiyama	-10.3522
▁mythology	-10.3523
▁vow	-10.3523
▁shio	-10.3534
▁consider	-10.3534
▁problems	-10.3535
▁die	-10.3535
family	-10.3536
▁amaterasu	-10.3545
▁pillar	-10.3545
▁policies	-10.3545
▁hokuriku	-10.3545
▁ogura	-10.3545
cious	-10.3553
important	-10.3558
▁separate	-10.3563
▁nickname	-10.3567
▁numbers	-10.3571
tora	-10.3585
putting	-10.359
▁yamazaki	-10.3593
▁evening	-10.3598
▁ukone	-10.36
▁points	-10.36
▁ikko	-10.3608
▁rebel	-10.3614
▁junii	-10.3623
▁surrender	-10.3624
▁nagamasa	-10.3627
▁ball	-10.3627
▁key	-10.3634
▁taxi	-10.3635
▁yuan	-10.3635
▁merit	-10.3636
two	-10.3637
▁implemented	-10.3638
▁hyaku	-10.3641
▁murder	-10.3658
▁employed	-10.3658
▁magazine	-10.3658
▁expert	-10.3658
▁concerned	-10.3661
▁severe	-10.3674
bito	-10.3675
▁fierce	-10.3681
▁horikawa	-10.3686
▁arch	-10.3691
▁obtain	-10.3693
mission	-10.3698
▁bronze	-10.3704
▁industrial	-10.3704
▁alive	-10.3708
▁inari	-10.3711
▁bay	-10.3715
▁craft	-10.372
▁haya	-10.3723
▁media	-10.3727
▁criminal	-10.3727
▁integrated	-10.3727
bori	-10.3728
▁donated	-10.373
▁x	-10.3734
▁confirmed	-10.3741
▁shoin	-10.3741
▁needed	-10.3744
▁achievement	-10.3747
tro	-10.3749
▁width	-10.375
▁changing	-10.375
▁percent	-10.3752
▁door	-10.3754
▁tsuru	-10.3757
nouchi	-10.3762
▁extend	-10.3762
▁reality	-10.3763
▁armed	-10.3772
▁answer	-10.3773
▁rumor	-10.3774
▁yamamoto	-10.3785
▁ir	-10.3787
▁flat	-10.3788
▁mount	-10.3789
▁yaku	-10.3801
▁player	-10.3801
▁yoshinori	-10.3808
▁customs	-10.381
▁write	-10.3811
▁sado	-10.3812
▁bodhisattva	-10.3812
noh	-10.3815
▁temperature	-10.382
▁interior	-10.382
▁gifu	-10.3822
▁shino	-10.3825
uke	-10.3828
▁genealogy	-10.3828
▁kamigyo	-10.3829
▁oishi	-10.3833
▁landscape	-10.3843
▁islands	-10.3845
▁iemitsu	-10.3847
▁tools	-10.3851
▁increasing	-10.3852
▁2000	-10.3856
third	-10.3859
▁progress	-10.3864
▁colors	-10.3871
table	-10.3877
▁koma	-10.3878
my	-10.3881
▁(17	-10.3883
▁masako	-10.3889
▁academy	-10.3889
▁doubt	-10.3889
▁okinawa	-10.389
▁akamatsu	-10.389
▁dog	-10.3892
▁oil	-10.3893
▁yang	-10.3903
tsubo	-10.3917
▁methods	-10.3917
ability	-10.3918
▁adding	-10.3921
▁popularity	-10.3928
▁rush	-10.3928
▁fukui	-10.3931
▁keicho	-10.3933
▁shosanmi	-10.3936
wise	-10.394
▁gl	-10.3942
▁tenchi	-10.3943
▁imposed	-10.3947
▁likely	-10.3947
ichiro	-10.395
▁please	-10.3955
▁float	-10.396
▁search	-10.3961
▁flute	-10.3963
taki	-10.3966
iki	-10.3969
▁tsushima	-10.3974
▁strength	-10.3977
▁archery	-10.3984
▁quarters	-10.3984
▁subordinate	-10.3985
▁plum	-10.3988
▁expressway	-10.3988
▁sections	-10.3989
▁golden	-10.4004
refer	-10.4006
naval	-10.4006
▁practices	-10.4006
▁combined	-10.4007
▁license	-10.4007
▁j	-10.4008
▁guide	-10.401
▁instruction	-10.401
▁myoo	-10.4023
▁ueno	-10.4029
▁herself	-10.4031
ery	-10.4032
▁victory	-10.4034
reki	-10.4045
giri	-10.4053
▁examination	-10.4055
▁jnr	-10.4055
▁preparation	-10.4055
▁elements	-10.4059
▁confucian	-10.4062
▁corresponding	-10.4065
▁dispatch	-10.4068
source	-10.4073
▁stood	-10.4078
▁send	-10.4089
▁fishing	-10.409
▁hours	-10.4091
▁bottom	-10.4102
▁sanyo	-10.4116
fuji	-10.4125
▁dancing	-10.4127
▁mere	-10.4128
arashi	-10.413
matsuri	-10.4145
▁seppuku	-10.415
▁vegetables	-10.415
▁economy	-10.4174
▁distributed	-10.4174
▁defend	-10.4174
▁honen	-10.4175
▁kake	-10.4179
▁huge	-10.418
▁acting	-10.4183
ants	-10.4183
▁envoys	-10.4184
▁hoko	-10.4186
wan	-10.419
▁shot	-10.4197
▁advocated	-10.4197
▁dates	-10.4204
▁tate	-10.4217
▁grain	-10.4223
▁ohara	-10.4223
▁passing	-10.4225
▁nagano	-10.423
▁kitano	-10.423
awase	-10.4235
▁clearly	-10.4236
▁jiju	-10.4239
shio	-10.4241
count	-10.4243
▁fifty	-10.4247
▁felt	-10.4248
▁myth	-10.4249
▁kosa	-10.4251
▁1872	-10.4253
▁setting	-10.4262
▁shomu	-10.4263
▁ear	-10.4264
▁naishi	-10.4276
▁70	-10.4294
▁hospital	-10.4295
の	-10.4296
▁kishu	-10.43
▁31,	-10.4301
kumo	-10.4315
▁hime	-10.4318
▁deceased	-10.432
▁residential	-10.432
▁500	-10.4324
▁1867	-10.4328
▁shoji	-10.433
▁osa	-10.4331
▁parents	-10.4332
▁commemorat	-10.4344
▁concluded	-10.4344
▁interchange	-10.4344
▁sukune	-10.4344
tting	-10.4346
▁insisted	-10.4347
▁exclud	-10.4355
wood	-10.437
▁classification	-10.4371
god	-10.4381
ard	-10.4381
wo	-10.4385
where	-10.439
▁reside	-10.4393
▁philosophy	-10.4393
▁ghost	-10.4393
▁nun	-10.4394
▁hotel	-10.4401
▁nii	-10.4416
▁studying	-10.4416
▁judicial	-10.4418
▁tenth	-10.4418
▁republic	-10.442
▁expedition	-10.4425
lock	-10.4428
▁abandoned	-10.443
each	-10.4431
▁eyes	-10.4431
ient	-10.4438
▁moat	-10.444
based	-10.4451
▁effort	-10.4451
▁understand	-10.4455
▁tend	-10.4457
ever	-10.4459
▁kokyu	-10.4461
▁enjoyed	-10.4461
▁flour	-10.4467
▁investigation	-10.4467
▁secular	-10.4469
▁shoku	-10.4476
▁10,000	-10.4478
▁finished	-10.4488
▁literally	-10.4489
▁behavior	-10.4492
▁possibility	-10.4492
▁mouth	-10.4492
fish	-10.4493
▁2003	-10.4496
born	-10.4497
late	-10.4501
▁pan	-10.4501
!	-10.4517
▁competition	-10.4517
▁sakanoue	-10.4517
▁centralized	-10.4524
riki	-10.453
such	-10.4536
▁carrying	-10.454
▁expanded	-10.4541
▁compilation	-10.4542
▁cat	-10.4543
kasu	-10.4544
▁sick	-10.4544
▁neighboring	-10.4551
▁appeal	-10.4567
▁trading	-10.4567
▁leaf	-10.4567
▁kabane	-10.4567
▁aimed	-10.4572
▁ability	-10.4573
▁iku	-10.4581
cap	-10.4582
▁tachi	-10.4589
▁wada	-10.4591
▁pupil	-10.4592
▁tani	-10.4593
under	-10.4595
▁shonin	-10.4595
▁nagato	-10.4602
▁resulting	-10.4609
▁easy	-10.4617
▁governed	-10.464
▁suggests	-10.4641
january	-10.4641
▁environment	-10.4642
▁club	-10.4642
▁yeast	-10.4642
▁ruins	-10.4642
▁better	-10.4642
▁(12	-10.4648
▁displayed	-10.4656
▁acts	-10.4657
▁sango	-10.4658
▁nishiki	-10.4667
▁sovereignty	-10.4668
▁devoted	-10.4674
▁tengu	-10.4674
▁choja	-10.4676
may	-10.4681
▁celebrated	-10.4681
▁explanation	-10.4693
▁reorganized	-10.4693
▁containing	-10.4699
ranked	-10.4699
▁squad	-10.4718
▁church	-10.4718
▁caught	-10.4719
▁praised	-10.4728
▁cooperat	-10.4739
hereditary	-10.4743
▁committee	-10.4744
▁highway	-10.4755
▁russia	-10.4759
▁warm	-10.4762
teki	-10.4769
▁crime	-10.4769
▁belong	-10.4772
▁naru	-10.4772
▁momoyama	-10.4773
▁cooperation	-10.4774
▁representing	-10.4775
ler	-10.4776
▁construct	-10.4781
tachi	-10.4781
air	-10.4789
▁drinking	-10.4791
▁taiko	-10.4795
▁kebiishi	-10.4795
▁opposition	-10.4795
▁criticism	-10.4796
▁nikko	-10.4802
▁kuri	-10.4808
▁appoint	-10.4809
▁indicated	-10.4811
▁semi	-10.4812
▁fresh	-10.4814
▁feature	-10.4817
▁page	-10.4819
▁thereby	-10.4819
▁kari	-10.4823
dama	-10.4823
▁ezo	-10.4827
over	-10.4828
▁33	-10.4841
▁branches	-10.4842
▁operating	-10.4846
▁proceed	-10.4846
yodo	-10.4857
made	-10.4859
▁misasagi	-10.4872
▁proposal	-10.4872
▁secure	-10.4872
▁kaoru	-10.4872
▁tottori	-10.4873
▁lay	-10.4874
▁hosho	-10.4875
▁suzuki	-10.4877
▁yoshihiro	-10.4885
▁raise	-10.4887
▁distribution	-10.4898
zhou	-10.4898
▁supply	-10.4898
▁sanin	-10.4902
▁liter	-10.4904
▁rear	-10.4905
▁america	-10.4913
▁kanjo	-10.4917
haya	-10.4919
▁visiting	-10.492
▁brief	-10.4924
▁rinzai	-10.4926
▁tsunayoshi	-10.4927
▁alone	-10.4928
▁passage	-10.493
tale	-10.4934
▁torii	-10.4934
chan	-10.4936
▁shikoku	-10.4942
lay	-10.4943
▁soft	-10.4946
▁trend	-10.495
▁facing	-10.4951
▁0	-10.4964
▁representatives	-10.497
▁nagayoshi	-10.4971
kuri	-10.4972
▁joruri	-10.4976
▁experience	-10.4982
▁ikki	-10.4983
▁taifu	-10.4984
dayu	-10.4984
▁punished	-10.4987
▁map	-10.499
▁security	-10.5002
▁understood	-10.5002
▁fo	-10.5003
▁eel	-10.5004
guard	-10.5008
tribute	-10.501
▁wine	-10.501
▁stored	-10.5013
▁imported	-10.5016
▁reputation	-10.5028
▁overseas	-10.5028
▁folding	-10.5028
▁admir	-10.5029
▁race	-10.5039
▁tandai	-10.5041
dis	-10.5052
▁combination	-10.5054
▁completion	-10.5054
▁counselor	-10.5054
▁tunnel	-10.5054
shogun	-10.5054
hood	-10.5054
▁curry	-10.5057
iri	-10.5058
▁buke	-10.5062
cm	-10.5064
▁80	-10.5073
▁explain	-10.5073
▁expected	-10.5074
▁exit	-10.5074
▁kenshin	-10.5075
▁hogen	-10.5078
▁protected	-10.5079
▁impossible	-10.508
▁differences	-10.5083
▁consideration	-10.5086
▁fusa	-10.5086
nish	-10.5093
current	-10.5095
ough	-10.5099
=	-10.5107
▁speed	-10.5107
▁kameoka	-10.5108
▁worshipped	-10.5108
▁suit	-10.511
▁kashiwa	-10.5113
place	-10.5115
▁yoshisada	-10.512
▁strip	-10.5121
▁ochi	-10.5124
graph	-10.5124
tail	-10.5125
geki	-10.5125
▁suppress	-10.5126
▁accompany	-10.5133
▁imadegawa	-10.5133
▁trial	-10.5134
▁visitors	-10.5134
▁previously	-10.5135
▁income	-10.5137
▁soto	-10.5146
▁players	-10.515
december	-10.5163
▁mibu	-10.5178
▁prefixed	-10.5179
▁attitude	-10.5186
▁pacific	-10.5187
"(	-10.5188
▁luck	-10.519
▁taro	-10.5195
pet	-10.5196
▁yoshihisa	-10.5197
▁horyu	-10.5198
▁taiho	-10.5199
▁amago	-10.5208
▁arrested	-10.5209
▁rapidly	-10.5221
▁notice	-10.5226
▁mie	-10.5234
▁ascetic	-10.5239
▁honzon	-10.524
▁*	-10.5242
▁yoshimoto	-10.5242
▁departed	-10.5244
scended	-10.5258
ume	-10.5266
▁essential	-10.5267
▁dark	-10.5267
brother	-10.527
▁ushi	-10.5284
▁begin	-10.5287
▁claimed	-10.5289
▁moment	-10.5293
▁conquest	-10.5294
▁freight	-10.5294
▁kusunoki	-10.5294
▁utsunomiya	-10.5294
▁hakama	-10.5294
wn	-10.5295
▁1863	-10.53
vat	-10.5302
part	-10.5305
▁partly	-10.532
gashira	-10.5324
chamberlain	-10.5325
tsura	-10.5339
▁minor	-10.534
▁altar	-10.5348
▁usage	-10.5354
▁colored	-10.5354
▁organizations	-10.5356
▁tajima	-10.5357
▁kengyo	-10.5369
▁nippon	-10.537
▁sojo	-10.5371
▁opponent	-10.5375
▁situated	-10.5375
▁kado	-10.5377
mentioned	-10.538
nabe	-10.5381
ama	-10.5382
▁nakayama	-10.5383
▁preserved	-10.5384
▁koi	-10.5387
▁success	-10.5387
hatsu	-10.539
▁organ	-10.5392
▁apart	-10.5392
▁kaya	-10.5393
▁seek	-10.5394
▁add	-10.5397
▁liberal	-10.5402
▁assist	-10.541
▁renga	-10.5411
keihan	-10.5416
rui	-10.5417
kun	-10.5424
▁tsuchimikado	-10.5429
▁whale	-10.5429
▁personnel	-10.5429
kagami	-10.543
fumi	-10.543
mari	-10.5432
▁31	-10.5433
government	-10.5434
▁whereas	-10.5436
▁subsequent	-10.5442
▁incidentally	-10.5443
▁formation	-10.5444
q	-10.5446
▁nihongi	-10.5448
▁dynasties	-10.5456
▁truth	-10.5456
▁improvement	-10.5459
▁predecessor	-10.5464
position	-10.5472
currently	-10.5474
▁fla	-10.548
▁suo	-10.5482
goe	-10.5484
▁opposite	-10.5484
chang	-10.5485
▁ryoma	-10.5486
▁girl	-10.5486
▁servant	-10.549
▁bungo	-10.5497
▁twelve	-10.5504
▁okuma	-10.5505
▁loved	-10.5507
wi	-10.5508
sashi	-10.551
bound	-10.5511
▁corps	-10.5511
▁nikki	-10.5515
▁unclear	-10.5515
▁spent	-10.5518
▁images	-10.5526
▁effective	-10.553
zi	-10.5534
▁spear	-10.5538
▁schedule	-10.5539
▁mononobe	-10.5539
▁contest	-10.5539
mikoto	-10.554
▁assassinated	-10.554
▁baby	-10.5541
▁killing	-10.5541
▁laid	-10.5542
▁european	-10.5552
▁realm	-10.5556
▁ancestors	-10.5559
▁entertain	-10.5563
▁cuisine	-10.5566
▁filled	-10.5567
▁prison	-10.5568
tokyo	-10.557
▁tenshu	-10.557
▁passenger	-10.5571
▁governmental	-10.5571
▁contribution	-10.5575
bin	-10.5584
gosho	-10.5585
▁tanabe	-10.5586
▁shell	-10.5587
▁perfect	-10.5594
article	-10.5597
yamato	-10.5599
however	-10.5601
▁secretly	-10.5601
taira	-10.5605
▁namely	-10.561
▁plants	-10.5618
▁ladies	-10.5622
▁wisdom	-10.5622
▁clean	-10.5622
▁nationwide	-10.5622
suki	-10.5623
▁niigata	-10.5623
▁christianity	-10.5625
kkyo	-10.5629
body	-10.5635
▁message	-10.565
▁straight	-10.565
▁discontinued	-10.565
▁disaster	-10.565
▁yokohama	-10.5651
▁prayers	-10.5651
prince	-10.5653
▁tsukasa	-10.5654
▁want	-10.5656
stone	-10.5657
▁flourished	-10.5661
▁container	-10.5664
▁engineering	-10.5666
▁skills	-10.5671
fune	-10.5676
▁notes	-10.5678
▁test	-10.5691
ill	-10.5696
▁counter	-10.5699
▁kama	-10.5703
▁brush	-10.5706
▁fundoshi	-10.5706
▁assert	-10.571
▁cutting	-10.5711
small	-10.5715
▁publication	-10.5717
story	-10.5717
▁jomon	-10.5725
hitsu	-10.5727
minute	-10.5734
▁appropriate	-10.5734
▁opportunity	-10.5734
▁composition	-10.5734
▁edited	-10.5734
▁sanetomo	-10.5738
▁privilege	-10.5741
▁kataoka	-10.5742
▁ever	-10.5754
▁decorated	-10.5762
▁struggle	-10.5762
▁watanabe	-10.5763
▁retirement	-10.5763
▁doing	-10.5773
▁hatsu	-10.5781
▁cal	-10.579
▁france	-10.579
▁printed	-10.5791
▁tsubone	-10.5794
lord	-10.5798
▁manuscripts	-10.5801
▁armor	-10.5805
▁looked	-10.5815
▁broken	-10.5818
▁locomotive	-10.5819
▁creation	-10.5819
▁american	-10.583
▁dojo	-10.5831
▁matsumoto	-10.5832
▁conflicts	-10.5838
▁ishida	-10.5846
▁layer	-10.5847
▁earthquake	-10.5847
▁hakodate	-10.5847
▁specified	-10.5847
▁animals	-10.5849
▁yoro	-10.5855
western	-10.5856
buki	-10.5866
▁performers	-10.5874
・	-10.5875
▁shaped	-10.5876
▁warehouse	-10.5876
▁pressure	-10.5877
▁farm	-10.5879
▁quickly	-10.5881
▁1864	-10.5883
▁1889	-10.5883
▁kokin	-10.5884
rank	-10.5891
▁buy	-10.5894
▁hole	-10.5901
▁producing	-10.5904
▁premise	-10.5904
▁oaza	-10.5904
▁kosho	-10.5906
▁represented	-10.5908
fact	-10.591
history	-10.5916
▁forty	-10.5926
▁compos	-10.5928
ological	-10.5932
▁baekje	-10.5933
▁blade	-10.5933
▁mongol	-10.5933
koro	-10.5944
mage	-10.5944
▁helped	-10.5958
town	-10.5959
▁kings	-10.5959
▁1873	-10.5961
common	-10.5968
▁invaded	-10.5969
▁cup	-10.598
▁shigemori	-10.5982
zume	-10.5983
▁distinguish	-10.5985
▁engishiki	-10.5989
▁steward	-10.599
shimo	-10.5993
mark	-10.5996
▁formerly	-10.6001
tara	-10.6008
▁genroku	-10.6009
▁nakano	-10.6012
▁prosperity	-10.6019
子	-10.6019
▁tall	-10.6021
▁fair	-10.6025
gyu	-10.603
▁nyogo	-10.6031
haka	-10.6032
▁significant	-10.6034
▁yayoi	-10.6048
▁least	-10.6048
▁revived	-10.6055
▁dated	-10.6056
▁natsu	-10.6065
▁intangible	-10.6077
国	-10.6077
▁fruit	-10.6078
▁blossoms	-10.6083
▁skin	-10.6085
board	-10.6092
kake	-10.6092
▁fumi	-10.6094
▁saicho	-10.6102
▁occur	-10.6105
▁assassination	-10.6109
chiku	-10.611
▁hung	-10.6111
▁discussion	-10.6114
fold	-10.6126
▁occasions	-10.6126
▁hakata	-10.6129
▁seats	-10.6132
▁foster	-10.6136
▁prove	-10.6138
▁closely	-10.614
▁subjects	-10.6143
▁1870	-10.6144
▁1582	-10.6145
▁survived	-10.6145
▁youth	-10.6148
▁masanori	-10.6152
inter	-10.6153
▁chapters	-10.6156
▁miyako	-10.6158
▁depart	-10.616
▁press	-10.6161
▁valued	-10.6162
▁hashi	-10.6174
▁shojo	-10.6175
▁kokujin	-10.6175
▁saemon	-10.6179
▁komyo	-10.6181
march	-10.6182
▁dye	-10.6186
▁contract	-10.6194
▁jurisdiction	-10.6194
▁boshin	-10.6197
▁raid	-10.6202
▁eye	-10.6209
▁citizens	-10.621
▁tenjin	-10.6211
▁kishi	-10.6215
▁limit	-10.622
▁liquor	-10.6224
▁manufacturing	-10.6224
▁vehicle	-10.6224
▁compete	-10.6224
▁brave	-10.6225
▁nearby	-10.6226
▁feel	-10.6226
toge	-10.6226
▁nagao	-10.6231
▁looks	-10.624
kae	-10.624
▁sales	-10.6241
▁36	-10.6245
▁contain	-10.6246
▁founding	-10.6247
▁ring	-10.6249
▁ibaraki	-10.6253
▁stream	-10.6256
gatsu	-10.6262
▁reconstructed	-10.6262
▁titled	-10.6269
diary	-10.6275
▁dharma	-10.6279
▁centimeters	-10.6283
▁himemiko	-10.6283
▁importance	-10.6284
▁marry	-10.6287
▁nearly	-10.6288
kaze	-10.6303
▁hoki	-10.6307
▁reconstruction	-10.6315
▁believers	-10.6315
minor	-10.6317
▁hideyori	-10.632
▁yoriie	-10.6327
▁gagaku	-10.633
▁sal	-10.634
▁governing	-10.6342
▁aim	-10.6343
▁represent	-10.6349
▁controller	-10.6351
sake	-10.6352
▁kusa	-10.6352
▁tsubo	-10.6355
▁yomei	-10.6361
▁emishi	-10.6375
▁suitable	-10.6377
gara	-10.6379
▁hidetsugu	-10.6381
most	-10.6391
▁implement	-10.6399
▁kagura	-10.64
▁confusion	-10.6403
▁ignor	-10.6403
▁hanging	-10.6403
▁chance	-10.6407
▁possession	-10.6407
▁honda	-10.6408
▁shimogyo	-10.6411
february	-10.6416
▁jinmu	-10.6417
▁wake	-10.6421
▁trying	-10.6426
▁staying	-10.643
▁estimated	-10.6433
▁1990	-10.6434
▁collectively	-10.644
▁unified	-10.6441
tsugi	-10.6443
▁category	-10.6445
▁shoki	-10.6454
established	-10.6456
▁kaneie	-10.6458
▁team	-10.6462
▁indicating	-10.6463
▁nowadays	-10.6463
▁rejected	-10.6463
▁moving	-10.6463
▁naniwa	-10.6467
▁yawata	-10.6467
▁calling	-10.647
▁promote	-10.6474
fushimi	-10.6477
▁demon	-10.6489
▁trace	-10.6493
▁onoe	-10.6495
▁whereby	-10.6503
▁shoryo	-10.6504
▁insist	-10.6504
mountain	-10.6508
▁tsuchi	-10.651
▁yellow	-10.6512
▁daitoku	-10.6516
▁larger	-10.6519
saga	-10.652
▁incense	-10.6524
▁chicken	-10.6524
gri	-10.6525
▁bag	-10.653
▁customers	-10.6534
▁akashi	-10.6534
▁touch	-10.6543
▁wore	-10.6545
▁selling	-10.6548
▁eliminat	-10.6554
▁slope	-10.6554
back	-10.656
▁minbu	-10.6561
formal	-10.657
▁kame	-10.6573
▁muraji	-10.6582
▁yaki	-10.6582
▁kochi	-10.6584
▁dajokan	-10.6585
▁ryukyu	-10.659
▁commissioner	-10.659
waki	-10.6591
▁agreed	-10.6593
▁burnt	-10.6594
making	-10.6597
▁revealed	-10.6603
▁concern	-10.6605
▁takamatsu	-10.6614
▁erected	-10.6615
▁numerous	-10.6615
▁sightseeing	-10.6615
▁repeatedly	-10.6626
▁yoshitoki	-10.6629
▁waiting	-10.663
▁accompaniment	-10.6646
▁calligraphic	-10.6646
▁declared	-10.6646
▁neither	-10.6646
▁oppos	-10.6647
▁sitting	-10.6648
▁yoshiteru	-10.6651
▁indicate	-10.6653
▁grow	-10.6653
▁emaki	-10.6661
▁communication	-10.6664
roll	-10.6676
▁centered	-10.6677
▁expense	-10.6677
▁1997	-10.6678
▁ikoma	-10.6679
▁constitutional	-10.6687
▁decreased	-10.6689
fujiwara	-10.6694
▁masamoto	-10.6704
▁detailed	-10.6706
▁loyal	-10.6707
▁pronunciation	-10.6708
▁valuable	-10.6708
▁miyatsuko	-10.6708
▁higo	-10.6711
▁draw	-10.6723
ministry	-10.6724
▁suggested	-10.6727
▁resided	-10.6733
▁afterward	-10.6735
▁zui	-10.6736
▁1600	-10.6738
▁brigade	-10.6739
▁twice	-10.6739
▁profit	-10.6739
山	-10.6739
muni	-10.6742
▁chinju	-10.6745
▁kanagawa	-10.675
▁yorinaga	-10.6755
related	-10.6756
word	-10.6758
right	-10.6762
▁tribute	-10.6768
▁confrontation	-10.677
▁week	-10.677
▁commentary	-10.6771
▁takakuni	-10.6776
▁reki	-10.6778
▁kido	-10.6781
▁realized	-10.679
▁kikuchi	-10.6792
▁scrolls	-10.6799
▁matsuo	-10.6802
▁roughly	-10.6809
▁flag	-10.681
▁smaller	-10.6811
hari	-10.6816
▁fudai	-10.682
water	-10.6821
▁broth	-10.6822
▁thing	-10.6822
gawara	-10.6823
▁exhibit	-10.6823
▁seasoning	-10.683
bari	-10.6831
▁adjacent	-10.6833
▁argument	-10.6833
▁takatsukasa	-10.6833
▁mansion	-10.6835
▁2002	-10.6836
▁exile	-10.6844
▁restore	-10.6847
▁robe	-10.6851
▁precinct	-10.6864
▁1931	-10.6866
▁riot	-10.6869
large	-10.687
▁moral	-10.6871
▁odawara	-10.6871
▁toshiie	-10.6876
deputy	-10.6882
south	-10.6883
▁automatic	-10.6896
▁vicinity	-10.6896
▁entrusted	-10.6896
▁share	-10.6897
▁asian	-10.6898
ook	-10.6899
▁fuyu	-10.6899
▁peers	-10.6904
▁mounds	-10.6915
▁fat	-10.6919
▁shore	-10.6924
▁sovereign	-10.6926
▁flood	-10.6927
▁peak	-10.6928
▁exempt	-10.6928
▁hope	-10.6928
▁holidays	-10.6929
▁sakurai	-10.693
▁underground	-10.6932
▁ratio	-10.6932
kokin	-10.6951
▁wait	-10.6959
▁cloud	-10.6959
▁french	-10.6959
▁virtue	-10.6959
神	-10.696
▁ownership	-10.6961
▁sole	-10.6961
▁utensils	-10.6977
▁keeping	-10.6978
▁administrator	-10.6978
▁grant	-10.699
▁frame	-10.6991
▁hachijo	-10.6991
▁enacted	-10.6991
▁mourn	-10.6992
▁imitat	-10.6994
lan	-10.6995
▁cards	-10.6996
▁sumiyoshi	-10.6997
heian	-10.7001
▁discussed	-10.7009
▁lieutenant	-10.7016
▁xi	-10.7018
▁utiliz	-10.7023
▁finger	-10.7025
▁regardless	-10.7029
▁favored	-10.7034
▁represents	-10.7035
▁collapsed	-10.704
▁naito	-10.7041
▁karate	-10.7051
▁vessel	-10.7055
▁jugoinojo	-10.7055
5,000	-10.7067
▁yoshitada	-10.7071
kubo	-10.7071
▁describe	-10.7072
can	-10.7076
amitabha	-10.7087
▁inscribed	-10.7087
▁chairman	-10.7089
▁chrysanthemum	-10.7096
▁daytime	-10.7096
▁karo	-10.7098
zake	-10.7112
▁sought	-10.7119
▁beyond	-10.712
▁1970	-10.7121
▁wealthy	-10.7125
▁posthumously	-10.7128
▁koho	-10.7131
▁takahashi	-10.7133
about	-10.714
sauce	-10.714
▁hida	-10.7144
▁graduated	-10.7148
▁abroad	-10.7152
▁fiction	-10.7152
▁suzaku	-10.7152
▁sarugaku	-10.7152
▁presence	-10.7152
▁1928	-10.7153
▁resistance	-10.7153
▁hashimoto	-10.7155
▁mistake	-10.7156
▁kanezane	-10.7156
cut	-10.7158
▁joi	-10.7163
august	-10.7172
▁procedures	-10.7182
▁oshima	-10.7184
▁approval	-10.7184
▁election	-10.7184
▁precepts	-10.7184
▁worse	-10.7185
eastern	-10.7187
▁specifically	-10.7187
you	-10.7188
▁bando	-10.7191
▁payment	-10.7193
▁ware	-10.7198
▁azuma	-10.72
▁taishi	-10.7203
▁mata	-10.7204
appointed	-10.7206
▁kobu	-10.7206
▁affected	-10.7211
mal	-10.7214
▁excavation	-10.7217
▁uniform	-10.7217
▁historian	-10.7217
bachi	-10.7222
▁observed	-10.7227
▁coat	-10.7227
▁kawara	-10.7234
▁throw	-10.7239
▁conventional	-10.7245
chome	-10.7248
▁confined	-10.725
▁expansion	-10.725
▁technical	-10.725
▁terminal	-10.725
▁acid	-10.7252
▁tsuruga	-10.7253
▁seat	-10.7257
tric	-10.7262
located	-10.7267
▁successful	-10.727
heike	-10.7275
▁abolish	-10.7281
▁regime	-10.7281
▁mask	-10.7288
▁growing	-10.7289
▁negotiations	-10.7311
▁mono	-10.7312
▁kenmu	-10.7314
▁permanent	-10.7315
▁physical	-10.7315
▁core	-10.7322
▁sino	-10.7331
▁wet	-10.7333
▁manage	-10.7341
▁ice	-10.7342
hyaku	-10.7349
wear	-10.7352
▁launched	-10.7361
bureau	-10.7371
april	-10.7372
director	-10.7376
▁printing	-10.7382
▁&	-10.7391
▁manju	-10.7395
▁russian	-10.7395
ohashi	-10.7397
▁koro	-10.7399
feudal	-10.7404
▁shita	-10.7405
▁jokyu	-10.7405
▁provisions	-10.7414
▁complex	-10.7415
▁presumed	-10.7415
▁firm	-10.7415
▁descendent	-10.7415
▁adachi	-10.7417
▁dam	-10.7436
▁inherit	-10.7446
▁chuo	-10.7446
▁paris	-10.7446
▁cook	-10.7452
▁replac	-10.7452
▁selection	-10.7453
▁publishing	-10.7465
▁destroy	-10.7481
▁accident	-10.7481
▁emerged	-10.7481
▁universities	-10.7481
▁sky	-10.7481
▁celebration	-10.7481
▁1945	-10.7483
▁1950	-10.7484
▁takechi	-10.7489
▁strictly	-10.7494
▁weapons	-10.7496
▁120	-10.7501
▁sat	-10.7501
▁bunko	-10.7504
▁heiji	-10.7505
july	-10.7506
▁actions	-10.7523
▁shimizu	-10.7525
▁nobutada	-10.7525
▁fill	-10.7529
▁critical	-10.7531
▁handle	-10.7533
▁chigyo	-10.7537
ung	-10.7539
captain	-10.7539
▁categorized	-10.7549
▁exercise	-10.7549
▁network	-10.7549
▁responsibility	-10.7549
▁convey	-10.7549
▁bodies	-10.7549
▁bills	-10.7549
▁expelled	-10.755
▁1980	-10.755
▁regulation	-10.7552
atory	-10.7553
▁farming	-10.7558
▁initial	-10.7568
zui	-10.758
▁climb	-10.7582
▁benefit	-10.7582
▁demoted	-10.7582
▁spiritual	-10.7584
▁kibi	-10.7589
▁mandokoro	-10.7589
▁diver	-10.7593
▁improved	-10.7597
press	-10.7608
▁kobun	-10.7608
what	-10.7608
▁trusted	-10.7613
▁cultivation	-10.7616
▁remnant	-10.7616
▁dragon	-10.7616
▁hunt	-10.7617
▁requir	-10.7618
▁sanada	-10.7619
▁saitama	-10.762
▁strengthen	-10.7625
▁guarded	-10.7631
▁senju	-10.7636
tax	-10.7638
▁awaji	-10.7649
▁consult	-10.765
▁false	-10.765
▁determin	-10.7651
▁seeing	-10.7651
▁looking	-10.7652
▁1960	-10.7653
▁dissolved	-10.7655
▁rising	-10.7655
▁zuryo	-10.7656
▁1898	-10.7659
▁doors	-10.7661
▁cool	-10.7666
september	-10.7676
samurai	-10.7676
▁shoulder	-10.7682
▁shite	-10.7684
▁banished	-10.7684
▁blind	-10.7684
▁lunch	-10.7684
▁protest	-10.7684
▁zeami	-10.7684
▁losing	-10.7686
▁kawaramachi	-10.7687
▁extra	-10.769
records	-10.7692
▁koban	-10.7695
▁successfully	-10.7699
▁dolls	-10.77
bune	-10.7701
▁win	-10.7703
▁featur	-10.7704
izumi	-10.7706
▁eleven	-10.771
▁fundamental	-10.7719
、	-10.7721
councillor	-10.7721
▁->	-10.7728
▁shoten	-10.7732
▁converted	-10.7734
october	-10.7745
▁parent	-10.7747
gama	-10.7751
▁commenced	-10.7753
▁twelfth	-10.7753
▁preach	-10.7754
▁hashiba	-10.7759
▁caus	-10.7759
▁jisho	-10.776
▁jiuta	-10.7761
stretch	-10.7764
illustrated	-10.7769
▁item	-10.7774
▁covering	-10.7777
november	-10.778
regent	-10.778
hachiman	-10.7785
▁executive	-10.7787
▁familiar	-10.7787
▁substitute	-10.7787
▁tactic	-10.7788
▁shoshiinoge	-10.7788
▁favorite	-10.7789
▁separation	-10.7789
kyaku	-10.779
▁carved	-10.779
▁goro	-10.7801
▁munemori	-10.7802
▁participate	-10.7802
▁prepare	-10.7802
▁yoshiharu	-10.7803
even	-10.7815
▁referr	-10.7817
▁enthroned	-10.7822
▁sports	-10.7822
王	-10.7822
gyokuyo	-10.7822
▁sumitomo	-10.7824
▁masashige	-10.7837
▁miyagi	-10.7838
▁gathering	-10.785
▁kitabatake	-10.7857
▁providing	-10.7857
▁suspended	-10.7857
▁wrong	-10.7857
▁contact	-10.7857
nhk	-10.7857
▁hunting	-10.786
▁shinbun	-10.7862
▁critic	-10.7872
▁sculpt	-10.7891
▁enforced	-10.7892
▁forward	-10.7892
▁wild	-10.7892
▁hijikata	-10.7892
▁invented	-10.7892
▁expand	-10.7893
▁conquer	-10.7893
▁raising	-10.7893
▁recommendation	-10.7893
▁fully	-10.7894
heishi	-10.79
▁eleventh	-10.7901
▁1884	-10.7901
▁classes	-10.7902
▁dazaifu	-10.7902
▁suwa	-10.7913
▁counted	-10.7916
▁doll	-10.7925
▁housing	-10.7927
▁sharp	-10.7927
▁viewpoint	-10.7928
▁hondo	-10.7929
▁sheet	-10.7929
▁tensho	-10.7937
▁belongs	-10.7942
▁yomi	-10.7945
▁southeast	-10.7959
continu	-10.796
▁architectural	-10.7962
▁necessarily	-10.7962
▁treasury	-10.7962
▁wrestler	-10.7962
▁bicchu	-10.7962
▁recruit	-10.7962
一	-10.7962
fine	-10.7963
▁instructor	-10.7963
▁ayabe	-10.7964
▁1890	-10.7972
▁loss	-10.7974
▁assume	-10.798
▁shoot	-10.7983
▁delivered	-10.7983
▁relat	-10.7985
▁servants	-10.7995
▁icoca	-10.7997
▁lose	-10.7997
▁knew	-10.7999
▁holy	-10.8002
use	-10.8017
nuki	-10.8019
▁usa	-10.8022
aging	-10.8023
▁faced	-10.8024
▁juni	-10.8028
mble	-10.8031
▁accomplish	-10.8032
taiheiki	-10.8033
level	-10.8037
ight	-10.804
▁proper	-10.8044
▁matsui	-10.8044
▁commission	-10.8047
▁32	-10.8053
▁shugodai	-10.8056
▁divination	-10.8068
▁enemies	-10.8068
▁occupation	-10.8068
▁puppet	-10.8068
▁vinegar	-10.8068
▁voice	-10.8068
▁1907	-10.8069
▁1,000	-10.8092
▁entitled	-10.8103
▁equipment	-10.8103
▁metropolitan	-10.8103
▁banquet	-10.8103
▁grass	-10.8104
▁fried	-10.8108
▁shochiku	-10.8112
▁operate	-10.8119
▁buckwheat	-10.8122
sign	-10.8131
▁burning	-10.8135
▁retreated	-10.8136
▁breweries	-10.8139
▁monzeki	-10.8139
▁contemporary	-10.814
▁futa	-10.8141
▁careful	-10.8142
person	-10.8143
▁yorimichi	-10.8151
inner	-10.8153
▁signal	-10.8157
▁gamo	-10.8157
▁fast	-10.8174
▁atmosphere	-10.8175
▁strategy	-10.8175
▁purple	-10.8175
▁extent	-10.8175
▁multiple	-10.8175
▁hour	-10.8178
▁shinsen	-10.818
▁2001	-10.8181
▁je	-10.8182
hannya	-10.8183
suming	-10.8185
▁1881	-10.8186
▁deprived	-10.8188
rating	-10.8194
gusa	-10.8199
▁prominent	-10.8211
▁dominant	-10.8211
▁england	-10.8211
▁ecchu	-10.8211
▁switch	-10.8211
▁tatami	-10.8211
▁promise	-10.8212
kku	-10.8216
▁steamed	-10.8235
▁withdraw	-10.8236
▁hirano	-10.8242
▁detail	-10.8245
▁withdrew	-10.8247
▁yorimasa	-10.8265
gaoka	-10.8273
▁oban	-10.8278
fried	-10.828
quarter	-10.8282
▁mill	-10.8282
▁candidate	-10.8283
▁failure	-10.8283
▁creating	-10.8283
▁hanazono	-10.8283
▁heritage	-10.8283
musubi	-10.8283
▁yoshimura	-10.8292
▁1180	-10.8294
▁fleet	-10.8298
▁eizan	-10.8298
manor	-10.8304
▁strict	-10.8305
▁acquired	-10.8306
▁wei	-10.8314
▁graveyard	-10.832
▁shogoinoge	-10.832
▁poison	-10.832
▁potato	-10.832
refined	-10.8321
kotoba	-10.8322
▁traveled	-10.8336
▁separately	-10.8343
>	-10.8346
?'	-10.8346
duct	-10.8346
empress	-10.8352
▁thread	-10.8356
▁nurse	-10.8357
▁damaged	-10.8357
▁suiko	-10.8359
▁sixty	-10.8364
mitama	-10.8368
▁matsunaga	-10.8372
▁researchers	-10.8374
▁katsuragi	-10.8379
▁yi	-10.8383
▁educat	-10.8388
express	-10.839
▁mobiliz	-10.8393
▁sixteen	-10.8393
▁kajuji	-10.8393
▁hisahide	-10.8393
flower	-10.8397
▁donation	-10.8405
▁arrive	-10.841
▁yin	-10.8411
▁majority	-10.8414
▁seishi	-10.8416
▁seimei	-10.8421
▁kotoku	-10.8434
char	-10.8435
lac	-10.8437
▁180	-10.8446
▁hoso	-10.8449
iscal	-10.8459
▁multi	-10.8466
▁earthenware	-10.8466
▁execution	-10.8466
▁unusual	-10.8466
▁monme	-10.8467
▁1876	-10.8474
night	-10.8476
ginu	-10.8477
▁jiki	-10.8478
▁confiscated	-10.8478
chiken	-10.8481
▁arm	-10.8482
▁catch	-10.8487
▁yoshimi	-10.8492
▁tied	-10.8499
▁equipped	-10.8503
▁paternal	-10.8503
▁recognition	-10.8503
人	-10.8504
▁solid	-10.8504
▁sculpture	-10.8504
▁monarch	-10.8505
▁trust	-10.8509
▁nagai	-10.851
▁germany	-10.8511
▁stating	-10.8514
▁mint	-10.8517
▁collapse	-10.8521
▁pseudonym	-10.8522
▁sutoku	-10.8523
▁ninna	-10.8526
▁basho	-10.8534
▁statement	-10.8534
gaya	-10.8537
associate	-10.854
▁respond	-10.8541
▁sleeves	-10.8548
▁naomasa	-10.8553
▁shifted	-10.8564
makura	-10.8574
▁lantern	-10.8578
▁thinking	-10.8579
▁birthplace	-10.8581
▁chikuzen	-10.8583
▁kagekatsu	-10.8583
track	-10.8584
▁fushiminomiya	-10.8588
▁grown	-10.8591
▁shochu	-10.8592
chronicle	-10.8594
▁celebrate	-10.8596
▁couple	-10.8597
▁detached	-10.8615
▁smooth	-10.8615
▁stamp	-10.8615
▁russo	-10.8616
gasa	-10.8617
▁retreat	-10.8619
▁keishin	-10.862
▁suppressed	-10.8626
tango	-10.8639
▁cotton	-10.8653
▁viscount	-10.8653
▁lie	-10.8662
▁katsumoto	-10.8666
▁rarely	-10.8681
▁drive	-10.8687
▁ceramic	-10.8691
▁coffee	-10.8691
▁soybean	-10.8691
▁fashion	-10.8691
▁copied	-10.8691
▁shitenno	-10.8691
▁wrapped	-10.8691
日	-10.8691
天	-10.8691
▁battlefield	-10.8693
▁kanei	-10.8696
▁homyo	-10.8697
▁signed	-10.8703
▁omikami	-10.8703
pat	-10.8718
▁formally	-10.872
▁tenmon	-10.872
saru	-10.8721
▁speech	-10.8728
▁wives	-10.8729
▁plac	-10.873
▁beef	-10.873
▁shibata	-10.873
▁task	-10.8731
▁tip	-10.8738
▁1877	-10.8739
nokuni	-10.8744
▁shinden	-10.8748
▁gunji	-10.8759
sub	-10.876
▁kyoku	-10.876
▁yokai	-10.876
▁govern	-10.8761
▁activity	-10.8767
▁interpreted	-10.8767
▁tendency	-10.8767
▁depot	-10.8767
▁hikaru	-10.8767
▁itagaki	-10.8767
▁brand	-10.877
▁murata	-10.8777
▁save	-10.8779
▁kun	-10.8782
▁understanding	-10.8789
▁nakagawa	-10.8795
▁normally	-10.88
▁kiso	-10.8801
▁mari	-10.8802
▁reinforcement	-10.8805
▁governance	-10.8806
▁iki	-10.8812
▁immediate	-10.8813
▁cave	-10.8822
▁nohgaku	-10.8825
▁respected	-10.8835
▁extension	-10.8843
▁horizontal	-10.8843
▁generated	-10.8843
▁regain	-10.8844
▁1987	-10.8845
▁abdicated	-10.885
▁growth	-10.8854
bata	-10.8856
▁encouraged	-10.8858
although	-10.8882
▁1918	-10.8884
▁blow	-10.8885
▁inspection	-10.8885
▁seized	-10.8898
▁classic	-10.8899
▁daikan	-10.8899
lower	-10.8902
▁yorimori	-10.8904
ketsu	-10.8906
▁tokuso	-10.891
▁circular	-10.892
▁honorific	-10.892
▁wheat	-10.892
▁momo	-10.892
▁admitted	-10.8921
▁outstanding	-10.8923
▁soldier	-10.8924
▁triggered	-10.8929
▁takatsuki	-10.8936
▁constitut	-10.8954
▁arrival	-10.8959
▁narrative	-10.8959
▁proclamation	-10.8959
▁drew	-10.8959
gari	-10.8961
▁syn	-10.8961
introduc	-10.8969
▁keifuku	-10.897
▁soil	-10.8972
tang	-10.898
puku	-10.898
▁honnoji	-10.8981
byo	-10.8988
▁experienced	-10.8989
▁keyhole	-10.8998
▁serizawa	-10.8998
▁mutual	-10.8998
▁safety	-10.8999
▁syllables	-10.8999
▁apply	-10.9
▁hina	-10.9002
▁negotiation	-10.9003
▁takashima	-10.9008
▁kiyohara	-10.9009
▁naturally	-10.9016
▁compile	-10.9017
▁roshi	-10.9017
▁kanjin	-10.9019
▁merger	-10.9037
▁straw	-10.9037
▁masterpiece	-10.9038
▁hometown	-10.9039
▁friendship	-10.9039
biki	-10.9042
▁affair	-10.9043
▁dainichi	-10.9044
▁noriyori	-10.9046
▁wave	-10.9049
▁yoshitsugu	-10.906
▁chain	-10.907
▁pun	-10.9075
▁expel	-10.9075
▁continent	-10.9076
▁photograph	-10.9076
▁advice	-10.9077
▁suburb	-10.9077
▁1910	-10.9079
▁occasionally	-10.908
▁arrest	-10.9081
▁shuri	-10.9089
▁yasutoki	-10.9089
▁tram	-10.909
▁conspiracy	-10.9093
arch	-10.9096
▁decide	-10.9097
▁sending	-10.9099
▁koken	-10.911
gged	-10.9113
▁bloom	-10.9115
▁rennyo	-10.9119
▁teahouse	-10.9123
▁1862	-10.9125
▁kusu	-10.9127
▁apprentice	-10.9128
owned	-10.9132
▁nobutaka	-10.9139
▁linked	-10.9139
fall	-10.9141
▁performer	-10.9147
▁=>	-10.915
▁gakko	-10.9151
▁pork	-10.9155
▁reserve	-10.9155
▁aristocrats	-10.9155
▁kiyomizu	-10.9158
▁kagetoki	-10.9159
▁arose	-10.916
▁traditionally	-10.9176
▁iri	-10.9186
tokugawa	-10.9189
honcho	-10.9193
▁calligrapher	-10.9195
▁nakatsukasa	-10.9195
▁garment	-10.9195
usu	-10.9195
▁average	-10.9195
▁bingo	-10.9195
▁sagano	-10.9196
▁rival	-10.9199
▁minato	-10.9203
▁plea	-10.9209
▁sail	-10.9215
▁hirata	-10.9216
▁birthday	-10.9216
▁seika	-10.9218
▁resist	-10.9226
▁describing	-10.9234
▁uzumasa	-10.9234
grade	-10.9236
▁nagaya	-10.924
▁chugoku	-10.9241
▁planning	-10.9243
▁muko	-10.9243
▁umako	-10.9243
▁timetable	-10.9252
play	-10.9265
▁convenience	-10.9274
▁essay	-10.9274
▁violat	-10.9276
▁1949	-10.9277
approximately	-10.9278
▁really	-10.9282
▁procession	-10.9282
▁curve	-10.9285
▁komei	-10.9298
▁takamori	-10.9299
ographic	-10.9303
▁holder	-10.9304
▁omura	-10.9308
▁workers	-10.9313
▁adjust	-10.9315
▁diameter	-10.9315
▁vertical	-10.9315
▁fusuma	-10.9315
▁injured	-10.9315
▁1911	-10.9317
▁danjuro	-10.9317
▁hairstyle	-10.9319
▁arima	-10.9319
nada	-10.9329
▁ideal	-10.9338
inoge	-10.9347
▁medium	-10.9355
▁okazaki	-10.9358
▁missionary	-10.9358
▁leadership	-10.9359
▁1185	-10.9365
hajime	-10.9366
▁calm	-10.9367
▁gunma	-10.9374
▁capture	-10.9378
▁safe	-10.9388
▁jimyoin	-10.9395
▁barrier	-10.9396
▁1926	-10.9397
▁kamon	-10.9397
▁prop	-10.9414
▁contrary	-10.9436
▁independence	-10.9436
▁virtually	-10.9436
hiki	-10.9443
▁ogre	-10.9458
▁baron	-10.9459
off	-10.9466
▁hizen	-10.9468
▁saigoku	-10.9474
▁dictionary	-10.9477
▁weather	-10.9477
bime	-10.9478
▁1929	-10.9478
▁burn	-10.9478
▁debate	-10.9479
commander	-10.9482
▁niwa	-10.9483
cular	-10.9484
▁finish	-10.9485
▁miki	-10.9486
▁miscellaneous	-10.9495
june	-10.9495
▁1000	-10.9498
▁designation	-10.95
office	-10.95
▁achieve	-10.9501
daimyo	-10.9506
▁approx	-10.9511
▁assembly	-10.9518
▁journey	-10.9518
▁persuade	-10.9518
▁annex	-10.9518
▁panel	-10.9521
▁cultivated	-10.9524
▁ienari	-10.9524
▁bl	-10.9527
▁speaking	-10.9543
▁stable	-10.9548
▁princesses	-10.9548
▁kume	-10.9557
▁complicated	-10.9559
▁scattered	-10.9559
▁copies	-10.9559
▁freedom	-10.9559
▁portray	-10.9559
▁debt	-10.9559
▁denied	-10.956
▁kanazawa	-10.9561
knowledge	-10.9565
=>	-10.9565
▁jisha	-10.9573
▁scar	-10.9573
▁takakage	-10.9573
▁motonari	-10.9578
▁suffering	-10.9578
▁belt	-10.9588
lv	-10.9595
quality	-10.9597
▁excell	-10.9599
▁exclusively	-10.96
▁sanskrit	-10.96
▁sanjonishi	-10.9604
▁remark	-10.9605
▁1882	-10.961
▁1875	-10.9613
…	-10.9642
▁parallel	-10.9642
▁pottery	-10.9642
▁registration	-10.9642
▁1874	-10.9642
▁angry	-10.9643
之	-10.9643
▁mud	-10.9644
people	-10.9648
▁affect	-10.965
▁ride	-10.965
▁ascend	-10.9654
after	-10.9657
▁greatest	-10.9661
colored	-10.9664
▁agent	-10.9674
▁saigu	-10.9681
▁400	-10.9683
▁revolution	-10.9683
▁1895	-10.9683
▁alternative	-10.9683
▁elevated	-10.9683
▁wound	-10.9683
▁shimousa	-10.9684
▁sliding	-10.9684
▁grill	-10.9684
▁milk	-10.9684
▁onmyodo	-10.9684
▁riding	-10.9684
▁select	-10.9685
▁mochihito	-10.9691
▁yosa	-10.9693
▁reduc	-10.9695
nyorai	-10.9698
▁tokimasa	-10.9698
▁fudoki	-10.9707
▁rope	-10.9718
▁oblig	-10.9721
▁application	-10.9725
▁british	-10.9725
▁sufficient	-10.9725
▁okuninushi	-10.9725
▁revenge	-10.9725
▁abbot	-10.9725
▁banned	-10.9731
post	-10.9733
▁1885	-10.9735
▁walking	-10.9735
▁alternate	-10.9745
record	-10.9755
▁saiin	-10.9757
▁imai	-10.9761
affiliated	-10.9767
▁federation	-10.9767
▁supporters	-10.9769
▁repeated	-10.9769
▁1996	-10.9769
tsutsu	-10.977
▁kutsuki	-10.9778
▁yoriyuki	-10.9783
▁remove	-10.9785
▁konin	-10.9797
▁coffin	-10.981
▁engraved	-10.981
▁revenue	-10.981
▁tumuli	-10.981
▁kitakinki	-10.981
iratsume	-10.981
▁hirobumi	-10.981
▁layout	-10.981
▁informed	-10.9812
▁managing	-10.9813
▁nobushige	-10.9823
▁specialty	-10.9823
ranging	-10.9826
▁norinaga	-10.9828
▁broadcasting	-10.9834
▁capacity	-10.9852
▁exploit	-10.9852
▁fourteenth	-10.9852
▁varieties	-10.9852
三	-10.9852
▁1946	-10.9854
▁1999	-10.9854
▁distinction	-10.9855
▁resignation	-10.9856
private	-10.986
▁insert	-10.9865
▁danjo	-10.9866
▁satake	-10.9873
▁honno	-10.9889
▁imina	-10.9895
▁demanded	-10.9895
▁1947	-10.9897
▁1989	-10.9897
▁beach	-10.9899
mawari	-10.9899
▁nagahama	-10.9901
▁tokitada	-10.9903
korea	-10.9904
▁maiden	-10.9909
osa	-10.991
▁weapon	-10.9918
▁exchanged	-10.9926
▁saved	-10.9926
▁tadamasa	-10.9928
▁thirteen	-10.9928
▁miwa	-10.993
▁kitchen	-10.9937
▁reproduc	-10.9937
ceremony	-10.9946
▁manufactured	-10.9954
▁koryo	-10.9958
▁appearing	-10.996
▁seriously	-10.9968
▁kagawa	-10.9968
▁curse	-10.9971
▁pri	-10.9973
▁extinct	-10.998
▁enforcement	-10.998
▁primary	-10.998
▁variation	-10.998
▁ridge	-10.998
view	-10.9984
▁abolition	-10.9986
ruiju	-10.9987
▁kyudo	-10.9988
special	-10.9989
▁install	-10.999
▁aiming	-10.9994
clock	-11
▁worth	-11.0009
syllable	-11.0022
▁intersection	-11.0023
▁daruma	-11.0023
▁maintenance	-11.0023
▁enhance	-11.0023
▁everything	-11.0024
suppression	-11.0024
▁hagi	-11.0026
▁tayu	-11.0028
▁alter	-11.0031
▁hikone	-11.0033
▁shimane	-11.0035
voc	-11.0036
▁tadazane	-11.0036
▁modeled	-11.0037
▁union	-11.004
▁wing	-11.0042
▁kodan	-11.0049
▁nirvana	-11.0067
▁thorough	-11.0067
▁ocean	-11.0067
▁moronao	-11.0071
▁672	-11.0073
▁katsuyori	-11.0074
▁soseki	-11.008
▁remov	-11.0084
▁ukai	-11.0085
▁ueda	-11.0086
▁sort	-11.0089
▁konoefu	-11.0092
▁yagi	-11.0093
▁characteriz	-11.0102
ended	-11.0103
▁greater	-11.0106
▁meditation	-11.011
▁crisis	-11.011
▁parade	-11.0115
▁nengu	-11.0119
tanba	-11.0123
▁restrict	-11.0129
500	-11.0131
▁teika	-11.0137
▁teishi	-11.014
▁shichijo	-11.014
▁gozen	-11.0146
▁yoshiakira	-11.0147
▁keihanshin	-11.0151
▁budget	-11.0154
▁cavalry	-11.0154
▁expulsion	-11.0154
▁impression	-11.0154
▁manchuria	-11.0154
▁tournament	-11.0154
▁transition	-11.0154
▁biggest	-11.0154
▁1993	-11.0156
▁miyazaki	-11.0161
▁150	-11.0164
▁tenpo	-11.0165
▁scenery	-11.0167
▁yasaka	-11.017
when	-11.0173
vol	-11.0176
▁kazoku	-11.0176
kamakura	-11.0182
▁outline	-11.0188
kkei	-11.019
▁conquered	-11.0196
▁resemble	-11.0198
▁surviving	-11.0198
▁instance	-11.0199
▁spite	-11.02
▁hearing	-11.0202
gasaki	-11.0203
▁flu	-11.0212
▁ninja	-11.0212
▁ox	-11.0228
▁karu	-11.0234
▁assassin	-11.0235
▁supposedly	-11.0237
▁izanagi	-11.0242
▁politician	-11.0242
▁compound	-11.0242
▁armies	-11.0243
▁1998	-11.0244
▁authorities	-11.0244
▁3,000	-11.0245
▁reigen	-11.0255
▁nakahara	-11.0257
▁everyday	-11.0257
▁stipulated	-11.0259
structed	-11.0261
▁slow	-11.0268
▁ingredient	-11.0273
tsuho	-11.0275
▁dealing	-11.0278
▁crow	-11.028
▁definition	-11.0286
▁seventeen	-11.0286
▁retain	-11.0287
▁phil	-11.0288
▁1900	-11.0292
▁cloister	-11.0296
▁ramen	-11.0296
▁brown	-11.0298
front	-11.0298
▁katsuie	-11.0298
▁yose	-11.0304
▁wafuku	-11.0304
▁inspector	-11.0305
▁eiga	-11.0317
▁band	-11.0318
▁german	-11.0322
zakura	-11.0322
▁borrow	-11.033
▁charcoal	-11.033
▁administered	-11.033
▁textile	-11.0331
▁sure	-11.0336
▁1897	-11.034
▁iemoto	-11.0343
yashiki	-11.0344
▁specialized	-11.0347
kabuki	-11.0371
prostitute	-11.0375
▁dwelling	-11.0375
▁judging	-11.0375
▁bestowed	-11.0375
▁tokudaiji	-11.0375
▁heavenly	-11.0375
▁umewaka	-11.0377
▁wu	-11.0379
▁minted	-11.0381
▁data	-11.0383
▁1891	-11.0386
▁fence	-11.039
▁kiyomasa	-11.0392
▁enyu	-11.04
bankoku	-11.0406
▁yagura	-11.042
▁export	-11.0425
▁tsuda	-11.0425
▁1887	-11.0431
▁cord	-11.0433
xx	-11.0439
gahara	-11.0447
down	-11.0455
▁wakoku	-11.0456
▁difficulty	-11.046
▁jingi	-11.046
▁complain	-11.0465
▁burden	-11.0465
▁dough	-11.0466
▁downfall	-11.0469
▁benkei	-11.047
spring	-11.0479
▁improve	-11.0486
▁takayoshi	-11.0501
▁blossom	-11.0502
▁preached	-11.0509
▁concrete	-11.051
▁deploy	-11.051
▁fermentation	-11.051
▁radical	-11.051
▁kudara	-11.051
▁mainstream	-11.0513
▁1920	-11.0513
▁natto	-11.0514
▁clay	-11.0514
▁kokufu	-11.0518
▁yamauchi	-11.0518
gakko	-11.0524
school	-11.0525
shogunate	-11.0527
▁sleeve	-11.0527
▁pull	-11.053
▁decorative	-11.0537
phy	-11.0539
open	-11.0541
▁hyuga	-11.0556
▁syllabary	-11.0556
▁ukiyoe	-11.0556
▁departure	-11.0557
▁shakuhachi	-11.0557
▁genpuku	-11.0559
▁spend	-11.0559
▁courtier	-11.0561
▁appreciated	-11.0561
▁kyokai	-11.0565
▁araki	-11.0566
▁warlord	-11.0567
▁expect	-11.0567
▁1886	-11.0568
▁harumoto	-11.057
▁kunai	-11.0575
▁yoshichika	-11.0576
▁masayuki	-11.058
▁strengthened	-11.0601
▁categories	-11.0601
▁uncertain	-11.0601
▁mimasaka	-11.0601
▁sonobe	-11.0602
▁1943	-11.0604
▁teach	-11.0607
read	-11.0609
▁junna	-11.0611
▁tadaoki	-11.0613
▁susanoo	-11.0614
secretary	-11.0616
birth	-11.0616
▁ukon	-11.0641
▁nama	-11.0643
▁totally	-11.0645
▁absolute	-11.0647
▁mahayana	-11.0647
▁crack	-11.0648
▁species	-11.0648
▁kyotanabe	-11.0649
▁iemochi	-11.0651
▁taika	-11.0652
▁para	-11.0655
▁starch	-11.0674
yang	-11.0678
▁1995	-11.0693
▁bottle	-11.0693
▁conclusion	-11.0693
▁expensive	-11.0693
▁judgment	-11.0693
▁occupy	-11.0693
▁resort	-11.0693
▁craftsmen	-11.0693
道	-11.0693
▁textbook	-11.0695
storied	-11.0698
▁himeji	-11.0704
▁1888	-11.0705
father	-11.0708
▁handling	-11.0716
genpei	-11.0717
▁riku	-11.0721
▁increasingly	-11.0721
▁animal	-11.0736
▁transformed	-11.0739
▁pepper	-11.0739
▁salary	-11.0742
▁debut	-11.0742
▁kojima	-11.0744
▁bunroku	-11.0752
▁gather	-11.0762
▁seasonal	-11.0769
▁pat	-11.0772
▁elegant	-11.0786
▁leather	-11.0786
▁signature	-11.0786
▁editor	-11.0786
院	-11.0786
▁missing	-11.0788
▁loop	-11.0788
▁1912	-11.0788
▁farmer	-11.0797
sacred	-11.0803
▁listen	-11.0809
▁nakagyo	-11.081
evil	-11.0814
▁spec	-11.0822
▁holiday	-11.083
▁deemed	-11.0833
▁shakyamuni	-11.0833
▁valley	-11.0833
▁announcement	-11.0833
▁mercy	-11.0833
▁telling	-11.0833
▁kuwa	-11.0838
▁honorary	-11.0838
▁review	-11.0838
▁okami	-11.0839
▁kanpei	-11.0841
▁1183	-11.0845
▁try	-11.0859
▁consolidat	-11.088
▁aristocracy	-11.088
▁chancellor	-11.088
▁promulgated	-11.088
▁revival	-11.088
▁1988	-11.0882
▁1930	-11.0883
▁kitayama	-11.0885
▁handled	-11.0887
▁1896	-11.089
public	-11.0892
▁1184	-11.0894
break	-11.0897
▁ronin	-11.0903
▁roman	-11.0907
▁ruined	-11.0913
▁dressed	-11.0915
▁promoting	-11.0927
▁indian	-11.0931
▁lifetime	-11.0935
▁independently	-11.0939
▁malt	-11.0941
▁sanesuke	-11.0943
▁37	-11.095
▁anger	-11.096
around	-11.0961
▁ornament	-11.0965
▁marked	-11.0966
comparable	-11.0974
▁shimbun	-11.0974
▁mishima	-11.0975
▁1904	-11.0976
▁interval	-11.0977
▁fifteenth	-11.0981
▁provision	-11.0986
▁bunka	-11.0987
▁1865	-11.0987
▁chogin	-11.0988
▁ruin	-11.0988
▁nobukatsu	-11.0989
picture	-11.0993
priest	-11.0993
▁yoshinari	-11.1003
personal	-11.1008
▁yoshinaga	-11.102
▁experiment	-11.1022
▁mixture	-11.1022
▁participants	-11.1022
▁storage	-11.1022
▁sechie	-11.1022
▁boom	-11.1022
▁queen	-11.1022
▁originates	-11.1022
▁1905	-11.1024
▁1925	-11.1024
▁tangible	-11.1026
▁varies	-11.1027
▁difficulties	-11.1027
▁okamoto	-11.1033
▁makeup	-11.1034
▁prefix	-11.1036
▁happen	-11.1036
▁komatsu	-11.1037
magistrate	-11.1041
tsukuri	-11.1045
tanabe	-11.1061
▁originator	-11.107
▁suga	-11.1072
▁1923	-11.1072
▁sale	-11.1078
▁personality	-11.1081
▁1880	-11.1082
▁purchased	-11.1087
▁myojin	-11.1095
▁restriction	-11.1097
▁column	-11.1118
▁jewel	-11.1118
▁kobayakawa	-11.1118
▁sleep	-11.1118
▁struck	-11.1118
▁seaweed	-11.1118
▁1994	-11.112
▁reins	-11.1121
▁tamura	-11.1121
▁load	-11.1123
▁2009	-11.1123
▁1879	-11.1132
▁dedicat	-11.1132
▁haikai	-11.1133
▁shoshidai	-11.1134
▁tadamichi	-11.1142
▁yukichi	-11.1148
▁pulled	-11.1154
▁600	-11.1155
▁shared	-11.116
▁masayoshi	-11.1166
▁commuter	-11.1166
▁industries	-11.1166
▁shonagon	-11.1166
▁demise	-11.1167
▁qi	-11.1168
▁kuranosuke	-11.117
▁procedure	-11.117
▁preface	-11.1173
▁unification	-11.1174
▁haniwa	-11.1175
▁20,000	-11.1181
▁tablet	-11.1181
▁benkan	-11.1184
▁seinan	-11.1187
▁zone	-11.1193
▁masanobu	-11.1194
▁tears	-11.1194
▁myoho	-11.1201
rural	-11.1213
▁ceased	-11.1215
▁demachiyanagi	-11.1215
▁investiture	-11.1215
▁nakamikado	-11.1215
▁credit	-11.1215
▁invocation	-11.1215
▁neighborhood	-11.1215
point	-11.1215
▁horseback	-11.1216
▁onmyoji	-11.1216
▁window	-11.1217
▁fukuzawa	-11.1218
▁gongen	-11.1219
▁haihan	-11.1219
▁magic	-11.122
▁taga	-11.1221
▁peaceful	-11.1221
▁toyooka	-11.1226
▁sencha	-11.1238
minami	-11.1247
▁toshizo	-11.1249
▁closer	-11.1252
▁gozoku	-11.1255
▁warship	-11.1256
▁keeper	-11.1263
▁kilometers	-11.1263
▁strange	-11.1263
▁sight	-11.1265
▁shimabara	-11.1265
▁1991	-11.1266
▁1965	-11.1266
▁1940	-11.1266
fifth	-11.1285
▁mental	-11.1289
▁iwami	-11.1292
▁sudden	-11.1298
0%	-11.1299
▁usual	-11.13
▁headship	-11.1304
▁guarantee	-11.1312
▁nikkatsu	-11.1312
法	-11.1312
▁1955	-11.1315
▁1919	-11.1316
▁shaved	-11.1317
▁1878	-11.1325
▁tsurugi	-11.1325
ground	-11.1326
▁emphasized	-11.1327
▁tameyoshi	-11.1328
▁shigehira	-11.1338
▁yoshishige	-11.1338
▁afraid	-11.1362
▁etiquette	-11.1362
▁ceiling	-11.1362
▁gokuraku	-11.1362
▁quiet	-11.1362
▁mr	-11.1362
unit	-11.1364
▁matsuyama	-11.1367
▁korechika	-11.1369
▁hiyoshi	-11.1369
▁1899	-11.1376
▁yukinaga	-11.138
▁mototsune	-11.1381
▁sit	-11.1395
▁reportedly	-11.1409
▁konparu	-11.1411
▁loincloth	-11.1411
▁relief	-11.1411
▁nevertheless	-11.1411
本	-11.1411
muryoju	-11.1413
pure	-11.1423
tsuhiko	-11.1436
▁lion	-11.1437
▁encourage	-11.1441
gging	-11.1445
▁nobuyoshi	-11.1447
▁chair	-11.1448
▁submit	-11.1461
▁climate	-11.1461
▁journal	-11.1461
▁cycle	-11.1461
▁kikkawa	-11.1461
▁archives	-11.1461
▁kashihara	-11.1461
▁tight	-11.1462
▁storehouse	-11.1463
▁1951	-11.1464
▁kosode	-11.1467
immer	-11.1476
▁nanzen	-11.148
bukuro	-11.1481
▁mural	-11.1482
▁decrease	-11.1491
gakari	-11.1504
▁respective	-11.1504
▁fuhito	-11.1506
▁enormous	-11.1511
▁external	-11.1511
▁gomizunoo	-11.1511
▁simplified	-11.1511
▁evaluated	-11.1511
▁townspeople	-11.1512
▁specter	-11.1513
▁tochigi	-11.1515
▁continuously	-11.1518
▁deeds	-11.1527
▁argued	-11.1528
▁absorbed	-11.1529
▁bore	-11.1534
shogunal	-11.1548
▁widespread	-11.1561
▁steep	-11.1561
▁ogimachi	-11.1561
▁histories	-11.1562
officer	-11.1563
▁1944	-11.1563
▁taisei	-11.1563
▁delivery	-11.1569
▁shigenobu	-11.1584
sweet	-11.1585
▁rent	-11.1595
▁myoshin	-11.1604
▁driver	-11.1606
▁sanctuary	-11.1612
▁subjugate	-11.1612
▁dialect	-11.1612
▁fukakusa	-11.1612
▁takarazuka	-11.1612
▁ancestr	-11.1612
▁iwate	-11.1612
▁anything	-11.1612
御	-11.1613
▁stem	-11.1615
▁impact	-11.1615
▁1901	-11.1615
▁1894	-11.1623
▁toshimichi	-11.1625
▁suspected	-11.1626
original	-11.1637
bility	-11.1641
▁bullet	-11.1662
▁obama	-11.1663
▁hostage	-11.1667
▁iesada	-11.1669
▁lowest	-11.1671
▁possess	-11.1672
▁thirteenth	-11.1673
▁yoshikage	-11.1674
▁masahiro	-11.1684
volume	-11.1688
▁brewed	-11.1695
▁tokiwa	-11.1697
▁preced	-11.1712
▁circulation	-11.1713
▁corridor	-11.1713
▁pardoned	-11.1713
▁substantial	-11.1713
▁fortress	-11.1713
し	-11.1714
▁hyakunin	-11.1718
▁treat	-11.172
▁youngest	-11.1725
▁theatre	-11.1725
▁ningyo	-11.1726
▁threat	-11.1765
superintendent	-11.1765
▁exposed	-11.1765
▁gofukakusa	-11.1765
▁patriarch	-11.1765
▁geographical	-11.1765
田	-11.1765
▁rescue	-11.1765
▁amagasaki	-11.1766
▁transmitted	-11.1766
▁dawn	-11.1766
▁1985	-11.1767
▁koyasan	-11.1778
▁manufacture	-11.1795
paper	-11.1798
▁taxation	-11.1807
▁wealth	-11.1808
▁miroku	-11.1809
▁fulfill	-11.1816
▁illegitimate	-11.1816
▁ritsumeikan	-11.1816
▁hidden	-11.1816
▁earned	-11.1818
▁1927	-11.1818
▁oath	-11.1818
▁concentrated	-11.1823
▁comprised	-11.1826
▁byodo	-11.1826
▁saeki	-11.183
▁yoshioki	-11.1832
▁disappear	-11.1834
▁passes	-11.1861
▁terr	-11.1862
▁nasu	-11.1867
▁pleasure	-11.1868
▁bitter	-11.1868
▁desert	-11.1868
▁1948	-11.1871
▁businesses	-11.1885
▁kobori	-11.189
child	-11.1894
▁unless	-11.1894
except	-11.1895
poem	-11.1897
▁whi	-11.1897
▁treaties	-11.1921
hall	-11.1923
▁mold	-11.1927
▁delay	-11.1927
▁1866	-11.1933
▁resign	-11.1941
▁michitaka	-11.1942
painting	-11.1948
northern	-11.1948
meaning	-11.1949
▁tune	-11.195
▁yoshifusa	-11.1951
▁cubic	-11.1972
▁infantry	-11.1972
▁positive	-11.1972
▁suspicion	-11.1972
▁oppress	-11.1973
▁stole	-11.1975
▁sumimoto	-11.1982
▁yoritsuna	-11.1989
▁praise	-11.2005
gold	-11.2013
▁dormitory	-11.2025
▁enshrining	-11.2025
▁perspective	-11.2025
▁woodblock	-11.2025
▁folklore	-11.2025
▁encounter	-11.2025
▁snake	-11.2025
▁glass	-11.2025
▁bright	-11.2028
▁sunpu	-11.2032
▁honmon	-11.2033
▁hut	-11.2035
▁apparently	-11.2037
faced	-11.2046
▁accused	-11.2051
▁significantly	-11.2051
posthumous	-11.2054
▁brew	-11.206
▁yoshiyasu	-11.206
▁violent	-11.2078
▁quoted	-11.2078
▁jushiinojo	-11.2079
▁yugiri	-11.2085
tched	-11.2095
▁1615	-11.2096
warrior	-11.2108
world	-11.2108
▁introduce	-11.2112
▁feud	-11.2124
▁bought	-11.2131
▁circulated	-11.2131
▁comparison	-11.2131
▁subjugation	-11.2131
▁boiling	-11.2131
▁brewery	-11.2132
▁precedent	-11.2133
▁loyalty	-11.2133
▁1908	-11.2134
▁1942	-11.2134
▁1969	-11.2134
▁fellow	-11.2136
▁naosuke	-11.2148
▁neck	-11.2152
▁shift	-11.2152
▁kenkyu	-11.2155
power	-11.2162
▁kelp	-11.2185
▁chokusen	-11.2185
▁tsutsui	-11.2185
▁1976	-11.2187
ikazuchi	-11.2187
▁fox	-11.2187
▁1986	-11.2188
▁nominal	-11.22
▁shigetada	-11.2202
▁dealt	-11.2217
▁severely	-11.2218
▁fukei	-11.2236
▁divorce	-11.2238
▁1972	-11.2241
▁counties	-11.2241
▁nobuyori	-11.2255
▁daikon	-11.2257
▁ichinomiya	-11.2257
another	-11.227
▁statesman	-11.227
▁uemon	-11.2273
▁shimada	-11.2289
music	-11.2292
▁1902	-11.2293
▁precise	-11.2293
▁supervised	-11.2293
▁actress	-11.2293
▁danjiri	-11.2293
▁drunk	-11.2293
▁shopping	-11.2295
▁remember	-11.2297
▁mochiuji	-11.2299
zasu	-11.23
▁nakatomi	-11.2304
▁tokiyori	-11.2304
▁adoption	-11.2309
▁yoshimochi	-11.2311
white	-11.2324
▁oita	-11.2338
kazari	-11.2343
▁jushii	-11.2347
▁laugh	-11.2347
▁scheme	-11.2347
▁obey	-11.2348
▁mikkyo	-11.2354
▁proof	-11.2355
▁tokushima	-11.236
▁sunday	-11.2361
▁maruyama	-11.2362
storey	-11.2366
▁acquir	-11.2368
▁noodle	-11.2376
complete	-11.2379
generation	-11.238
▁derive	-11.2392
▁negative	-11.2402
▁confronted	-11.2402
▁storyteller	-11.2402
▁oriental	-11.2402
▁reduction	-11.2404
▁tametomo	-11.2407
▁considerable	-11.2408
▁native	-11.2409
▁shogoi	-11.2413
▁yoshitane	-11.2414
▁shintoism	-11.2421
▁buzen	-11.2428
province	-11.2435
uesugi	-11.2435
battle	-11.2435
▁purchase	-11.2437
anthologies	-11.2456
▁kinoshita	-11.2457
▁poured	-11.2457
▁enomoto	-11.2457
▁tsukushi	-11.2457
▁chion	-11.2463
▁yorimitsu	-11.2477
horse	-11.2491
▁phenomenon	-11.2512
▁reassigned	-11.2512
▁extraordinary	-11.2512
▁1953	-11.2515
etary	-11.2527
▁rusu	-11.2529
▁keitai	-11.2548
▁patron	-11.2567
▁abdication	-11.2567
▁wedding	-11.2567
▁kusakabe	-11.2567
▁knot	-11.2568
▁famine	-11.2569
▁himiko	-11.2569
▁1903	-11.257
▁mediation	-11.2572
▁honmaru	-11.2581
▁morosuke	-11.2582
▁shortage	-11.2586
lift	-11.2589
▁confirm	-11.2589
▁matches	-11.259
▁sukeroku	-11.2592
▁preserve	-11.2603
▁monju	-11.2605
▁tabi	-11.2616
▁communities	-11.2623
▁discriminat	-11.2623
▁hierarchy	-11.2623
▁ministries	-11.2623
▁authentic	-11.2623
▁dropped	-11.2623
▁employee	-11.2623
▁purification	-11.2623
▁unearthed	-11.2623
▁confused	-11.2623
▁sahyoe	-11.2623
▁cedar	-11.2623
▁kiln	-11.2623
▁renge	-11.2626
arrow	-11.2634
wide	-11.2636
▁deliver	-11.2637
pound	-11.2645
daughter	-11.2659
▁link	-11.2659
▁honden	-11.267
▁collective	-11.2672
▁chronological	-11.2679
▁elected	-11.2679
▁relocation	-11.2679
命	-11.2679
▁diplomacy	-11.2679
▁charm	-11.268
▁ultimately	-11.2686
▁advocat	-11.2693
▁1585	-11.2697
▁kobayashi	-11.2705
member	-11.2711
▁yamatai	-11.2712
▁loan	-11.2714
▁kaidan	-11.2714
inspector	-11.2715
▁daibutsu	-11.2734
▁collaborat	-11.2736
▁immortal	-11.2736
▁cypress	-11.2736
▁behalf	-11.2736
▁sanction	-11.2736
▁else	-11.2737
super	-11.2751
▁lover	-11.2751
▁attach	-11.2763
▁effectively	-11.2765
▁fame	-11.2785
engraving	-11.2793
hyakki	-11.2793
▁centuries	-11.2793
▁conservative	-11.2793
▁rectangular	-11.2793
▁demonstrate	-11.2793
annotation	-11.2793
▁cited	-11.2793
▁chest	-11.2794
▁oyamazaki	-11.2795
▁hosso	-11.2797
slave	-11.2798
▁jujutsu	-11.2804
▁gosaga	-11.2805
▁contribut	-11.2807
▁vary	-11.2812
▁tadatsune	-11.2818
regular	-11.283
confucianism	-11.283
▁advocate	-11.2838
▁initiative	-11.285
▁pollution	-11.285
▁stabiliz	-11.285
▁1573	-11.285
▁izanami	-11.285
▁kinema	-11.285
▁kiritsubo	-11.2851
▁1909	-11.2852
▁inheritance	-11.2853
▁heizei	-11.2853
▁azana	-11.2862
zong	-11.2886
document	-11.2888
north	-11.2905
▁scientific	-11.2907
▁sexual	-11.2907
▁shelter	-11.2907
▁sawamura	-11.2907
▁tourism	-11.2908
▁choice	-11.2908
▁1915	-11.291
▁1932	-11.291
▁1981	-11.2911
▁boundary	-11.2914
▁jingikan	-11.2915
▁aoyama	-11.2921
▁gable	-11.2932
▁comprehensive	-11.2965
▁destination	-11.2965
▁constant	-11.2965
▁heavily	-11.2965
▁hasegawa	-11.2966
▁1941	-11.2968
▁nakajima	-11.2976
▁1333	-11.2976
▁artistic	-11.2986
▁reveal	-11.2989
village	-11.3005
▁frequent	-11.3009
▁cormorant	-11.3023
▁inferior	-11.3023
▁orthodox	-11.3023
▁welfare	-11.3023
▁liquid	-11.3023
▁eighteen	-11.3023
merging	-11.3023
▁negoro	-11.303
▁nikaido	-11.3036
▁seeds	-11.3038
▁surprised	-11.3038
▁driven	-11.304
▁overlap	-11.3043
zhi	-11.3044
▁waist	-11.3047
prim	-11.3056
100	-11.3065
▁hachimangu	-11.3073
▁negotiate	-11.3082
▁possibly	-11.3082
▁1892	-11.3082
▁driving	-11.3082
▁ippon	-11.3082
▁strike	-11.3082
▁obaku	-11.3082
▁flying	-11.3083
green	-11.3084
▁outbound	-11.3094
▁welcomed	-11.3098
▁pursued	-11.3099
konjaku	-11.3108
waiting	-11.3123
▁arriving	-11.314
▁component	-11.314
▁consumption	-11.314
▁inaugurated	-11.314
▁ashigaru	-11.314
▁dominated	-11.314
▁pitapa	-11.314
▁examine	-11.3141
▁label	-11.3141
▁kawagoe	-11.3143
▁1906	-11.3143
▁hattori	-11.3143
▁precious	-11.3143
▁atsutane	-11.3144
▁assets	-11.3145
▁1913	-11.3145
▁prohibition	-11.3145
▁prefer	-11.3147
▁monster	-11.3149
▁discuss	-11.3149
▁sakuma	-11.317
▁osumi	-11.3175
▁flee	-11.3176
tumulus	-11.3182
▁chopsticks	-11.32
▁investigate	-11.32
▁mathematics	-11.32
▁distant	-11.32
▁depth	-11.32
▁sekke	-11.3202
▁1924	-11.3202
▁civilization	-11.3203
▁aomori	-11.3206
▁forestry	-11.321
▁1858	-11.3216
▁carrie	-11.3218
▁mineyama	-11.3221
▁1590	-11.3224
▁saigyo	-11.323
▁jump	-11.3232
▁naganori	-11.325
▁urin	-11.3251
polishing	-11.3259
▁compromise	-11.3259
▁troupe	-11.3259
volving	-11.3259
▁iwashimizu	-11.3259
▁pioneer	-11.3259
▁bonito	-11.3259
▁partition	-11.326
▁asakusa	-11.326
▁1934	-11.3262
▁solve	-11.3281
▁speak	-11.3282
ddle	-11.3287
▁fix	-11.3292
yeong	-11.3296
▁survive	-11.3299
▁argue	-11.3299
buddha	-11.3302
held	-11.3302
▁monopoliz	-11.3319
é	-11.3319
▁1992	-11.3319
▁penalty	-11.3319
▁exactly	-11.3319
▁underwent	-11.3319
▁chichibu	-11.3319
▁continuing	-11.332
▁naming	-11.332
▁2,000	-11.3327
▁factory	-11.3328
▁authorized	-11.3328
▁knead	-11.3379
▁easier	-11.3379
▁emergency	-11.3379
▁evaluation	-11.3379
▁extensive	-11.3379
▁observation	-11.3379
▁tsugaru	-11.3379
▁joseon	-11.3379
▁craftsman	-11.3379
▁nyudo	-11.338
▁framework	-11.338
▁illustrations	-11.3381
▁manufacturers	-11.3381
▁blame	-11.3381
▁winning	-11.3381
▁tokimune	-11.3389
▁unify	-11.3393
▁yoshikane	-11.3396
▁thrown	-11.3399
▁shinzei	-11.3402
▁poetic	-11.3422
▁amanohashidate	-11.344
▁clerk	-11.344
▁happiness	-11.344
▁concert	-11.344
▁guild	-11.344
▁kegon	-11.3449
▁seventy	-11.3451
keep	-11.3459
▁kodama	-11.3464
▁translat	-11.3464
▁matsukata	-11.3468
defense	-11.3485
▁mysterious	-11.3501
▁practitioner	-11.3501
▁prosperous	-11.3501
▁involvement	-11.3503
▁ensure	-11.3503
▁kikugoro	-11.3503
▁airport	-11.3504
▁1979	-11.3504
▁kitaoji	-11.3508
▁purge	-11.351
▁portable	-11.3519
▁engage	-11.3542
▁rough	-11.3548
▁clique	-11.3562
▁contradict	-11.3562
▁discovery	-11.3562
▁peculiar	-11.3562
▁recipe	-11.3562
▁handwriting	-11.3564
▁balance	-11.3569
▁1893	-11.3577
▁recogniz	-11.359
▁settle	-11.3608
royal	-11.361
▁destruction	-11.3624
▁zodiac	-11.3624
▁illegal	-11.3624
▁gosanjo	-11.3624
▁extract	-11.3625
▁1954	-11.3628
▁1968	-11.3628
▁1935	-11.3628
▁texture	-11.3631
▁saneyori	-11.3636
▁accession	-11.3637
▁aunt	-11.3637
palace	-11.3672
▁fifteen	-11.3677
▁assumption	-11.3686
▁intervention	-11.3686
▁threw	-11.3686
fermented	-11.3686
▁robber	-11.3686
▁1975	-11.369
▁amity	-11.369
▁diaries	-11.3692
life	-11.3701
▁engineer	-11.3712
▁sasa	-11.3717
▁hitotsubashi	-11.3749
▁identify	-11.3749
▁supervision	-11.3749
▁tathagata	-11.3749
▁television	-11.3749
▁absence	-11.3749
▁shimonoseki	-11.3749
▁phase	-11.3749
▁oracle	-11.3749
▁isonokami	-11.3749
▁tsukuba	-11.3749
▁medal	-11.375
▁1933	-11.3751
▁1921	-11.3752
▁fond	-11.3752
▁assistance	-11.3753
▁yusoku	-11.376
▁kanemichi	-11.3762
▁rescript	-11.3764
forfeit	-11.3766
▁tokihira	-11.3767
▁spoke	-11.3768
▁paint	-11.3772
`	-11.3798
study	-11.3798
▁1974	-11.3811
▁allegedly	-11.3811
▁confidence	-11.3811
▁lodging	-11.3811
▁marutamachi	-11.3811
▁radish	-11.3811
▁tamakazura	-11.3811
▁refuge	-11.3812
▁shugendo	-11.3812
り	-11.3812
▁provok	-11.3812
▁habit	-11.3812
▁takashina	-11.3812
▁transmission	-11.3813
▁danger	-11.3813
▁1922	-11.3814
▁1963	-11.3814
▁thatched	-11.3815
▁30,000	-11.383
▁import	-11.3841
black	-11.3861
manager	-11.3861
free	-11.3863
▁britain	-11.3875
▁league	-11.3875
▁seclusion	-11.3875
▁skirt	-11.3875
▁error	-11.3875
▁iruka	-11.3875
▁renowned	-11.3876
▁asceticism	-11.3877
▁1952	-11.3878
▁nishioji	-11.3885
▁modernization	-11.3886
▁broadcast	-11.3902
▁archaeological	-11.3938
▁convenient	-11.3938
▁lyrics	-11.3938
▁pretext	-11.3938
▁supplied	-11.3938
▁lawsuit	-11.3939
▁rendered	-11.3939
に	-11.3939
上	-11.3939
▁reverse	-11.394
▁beads	-11.3943
▁risk	-11.3943
▁ginza	-11.395
▁saint	-11.3956
minato	-11.3961
▁apparent	-11.3988
designated	-11.399
limited	-11.399
▁artificial	-11.4003
▁discharge	-11.4003
▁structural	-11.4003
▁smell	-11.4003
▁compli	-11.4004
▁1966	-11.4006
▁remarkable	-11.4006
▁1967	-11.4007
agaru	-11.4007
▁wonder	-11.4008
▁sasayama	-11.4008
▁fukuhara	-11.4013
▁yoshizumi	-11.4022
cultural	-11.4055
▁equinox	-11.4067
▁obvious	-11.4067
▁poverty	-11.4067
▁stadium	-11.4067
▁vocational	-11.4067
▁pirates	-11.4067
▁crane	-11.4068
▁kamatari	-11.4068
▁distinctive	-11.4068
▁kagetora	-11.4069
▁happy	-11.4077
▁kawakami	-11.4078
▁legendary	-11.4079
▁device	-11.4082
▁1883	-11.4083
▁verb	-11.4099
▁realize	-11.4119
principal	-11.412
▁autonomy	-11.4132
▁decisive	-11.4132
▁omitted	-11.4132
▁furious	-11.4132
▁teeth	-11.4132
▁remote	-11.4132
▁1959	-11.4136
▁ukita	-11.4143
▁sakon	-11.4179
servant	-11.4186
wife	-11.4187
▁advised	-11.4197
▁emphasis	-11.4197
▁prospered	-11.4197
▁ensemble	-11.4197
▁vietnam	-11.4197
▁marquis	-11.4197
▁extant	-11.4197
義	-11.4197
▁steel	-11.4197
▁gohojo	-11.4198
▁attire	-11.4199
▁1957	-11.4201
▁byobu	-11.4203
▁exert	-11.4205
▁symbolize	-11.4206
▁wasabi	-11.4211
xian	-11.4225
▁pursue	-11.4243
\	-11.4263
▁delicate	-11.4263
▁measuring	-11.4263
▁reverence	-11.4263
▁simultaneously	-11.4263
▁preparing	-11.4263
▁regret	-11.4263
▁varied	-11.4263
中	-11.4264
▁goryeo	-11.4264
▁tamuramaro	-11.4265
▁fool	-11.4265
plant	-11.4268
▁ietsugu	-11.4273
▁marine	-11.4281
▁yoritsune	-11.4282
▁clap	-11.4285
juhachi	-11.4289
historical	-11.4319
between	-11.4319
▁reconcil	-11.4329
▁instant	-11.4329
月	-11.4329
十	-11.433
▁ajari	-11.4331
▁swordplay	-11.4332
▁odd	-11.4334
▁ienobu	-11.4341
▁observe	-11.4376
female	-11.4386
▁chosokabe	-11.4396
▁impressed	-11.4396
▁kuninomiyatsuko	-11.4396
▁punitive	-11.4396
▁subsidiary	-11.4396
▁1592	-11.4396
▁assault	-11.4396
▁baseball	-11.4396
▁diesel	-11.4396
▁spell	-11.4396
▁tray	-11.4397
tenmangu	-11.4399
▁1971	-11.4399
▁katagiri	-11.44
▁1914	-11.4401
▁glue	-11.4402
▁ietsuna	-11.4406
▁tawara	-11.4414
abolition	-11.4454
▁rhythm	-11.4463
▁astronomy	-11.4463
▁earliest	-11.4463
▁gorgeous	-11.4463
▁mushroom	-11.4463
▁trunk	-11.4463
▁requirement	-11.4463
寺	-11.4463
宗	-11.4464
▁preferred	-11.4465
▁regiment	-11.4466
▁1984	-11.4466
▁starring	-11.4467
▁manhood	-11.447
▁yuryaku	-11.4474
▁rebuild	-11.4516
correspond	-11.4522
grandchild	-11.4522
▁strategic	-11.4531
▁allegiance	-11.4531
▁consumer	-11.4531
▁custody	-11.4531
▁intellectual	-11.4531
▁substance	-11.4531
▁theatrical	-11.4531
▁ukifune	-11.4531
▁forefather	-11.4531
▁smoke	-11.4531
▁treatise	-11.4531
▁1964	-11.4534
▁whisk	-11.4536
jyu	-11.4538
▁sukiya	-11.4541
▁kazunomiya	-11.4541
▁measurement	-11.4543
▁emphasize	-11.4579
▁extreme	-11.4584
lady	-11.4596
▁challenge	-11.4599
▁vendor	-11.4599
▁essence	-11.4599
▁thunder	-11.4599
▁folded	-11.4599
▁sashimi	-11.46
▁knee	-11.46
▁katsudon	-11.4603
▁aritomo	-11.4606
title	-11.4639
▁nyobo	-11.4655
territory	-11.4659
▁dismissal	-11.4667
▁knife	-11.4667
▁pillow	-11.4667
▁resolve	-11.4667
▁reliable	-11.4667
▁brick	-11.4667
▁carving	-11.4667
▁gokomatsu	-11.4667
▁partially	-11.4667
文	-11.4667
▁onmyoryo	-11.4668
▁gouda	-11.4668
▁orange	-11.4669
▁ekiben	-11.4669
earth	-11.4672
▁interfere	-11.4672
▁kuwana	-11.4675
▁furukawa	-11.4675
▁nantan	-11.4681
▁abandon	-11.4702
▁saturday	-11.4736
▁accurate	-11.4736
▁deliberat	-11.4736
▁foodstuff	-11.4736
▁apprais	-11.4736
▁whereupon	-11.4736
▁mixing	-11.4736
公	-11.4736
二	-11.4737
▁1956	-11.474
▁cordon	-11.4742
▁yagyu	-11.4743
▁onwards	-11.4743
▁washed	-11.476
▁accus	-11.4772
▁corrupt	-11.4806
▁1937	-11.4806
▁compiling	-11.4806
▁disembowelment	-11.4806
▁initiated	-11.4806
▁mistress	-11.4806
▁quantity	-11.4806
▁worried	-11.4806
▁disorder	-11.4806
▁kajiwara	-11.4806
▁pretend	-11.4806
▁guess	-11.4807
▁fiber	-11.4808
▁gentle	-11.4815
▁narichika	-11.4815
▁presid	-11.4824
group	-11.4869
▁dialogue	-11.4876
▁elaborate	-11.4876
▁universal	-11.4876
▁ichinotani	-11.4876
▁carriage	-11.4876
▁preparator	-11.4876
princess	-11.4878
▁shikinai	-11.4882
▁obligation	-11.4883
stringed	-11.4929
auspicious	-11.4946
▁cemetery	-11.4946
▁certified	-11.4946
▁cinema	-11.4946
▁maximum	-11.4946
▁privy	-11.4946
▁turmoil	-11.4946
▁ninigi	-11.4946
▁epic	-11.4947
▁batter	-11.4947
▁drastically	-11.4947
▁dying	-11.4948
▁kemari	-11.4948
▁1978	-11.495
▁1936	-11.495
throne	-11.495
▁mokuroku	-11.4952
▁washing	-11.4955
will	-11.4959
▁susano	-11.4998
▁1.8	-11.5008
jugoinoge	-11.5011
especially	-11.5011
▁1973	-11.5017
▁battalion	-11.5017
▁chemical	-11.5017
▁closing	-11.5017
▁conversation	-11.5017
▁resumed	-11.5017
▁victim	-11.5017
記	-11.5017
▁inspired	-11.5017
▁wield	-11.5017
▁motif	-11.5017
▁radio	-11.5017
▁tonsure	-11.5017
皇	-11.5017
▁faithful	-11.5021
▁tiger	-11.5022
▁convention	-11.5027
▁quick	-11.5074
▁northeast	-11.5076
field	-11.5078
stream	-11.5079
glutinous	-11.5088
▁forbidden	-11.5088
▁gratitude	-11.5088
▁gregori	-11.5088
▁necessity	-11.5088
▁pregnant	-11.5088
▁reinforced	-11.5088
▁summoned	-11.5088
▁goyozei	-11.5088
▁nineteen	-11.5088
▁munakata	-11.5088
▁timber	-11.5088
▁kanpyo	-11.5088
▁descent	-11.5089
い	-11.5089
▁courtesy	-11.5089
▁storytelling	-11.509
aristocratic	-11.509
▁jugoi	-11.5091
▁forgiven	-11.5091
▁hisamitsu	-11.5091
▁1982	-11.5091
▁hamamatsu	-11.5094
▁progressive	-11.5094
▁stir	-11.51
trust	-11.5102
worthy	-11.5112
telling	-11.5155
*	-11.5156
because	-11.5156
matsudaira	-11.5156
▁defensive	-11.516
▁discipline	-11.516
▁practicing	-11.516
▁barrel	-11.516
▁weakened	-11.516
▁drift	-11.516
五	-11.5161
▁shinagawa	-11.5161
▁clash	-11.5164
▁1977	-11.5164
▁prewar	-11.5164
▁announc	-11.5199
▁publish	-11.5205
system	-11.5229
auxiliary	-11.5233
▁energy	-11.5233
▁inauguration	-11.5233
▁predict	-11.5233
▁generic	-11.5233
▁shoichii	-11.5233
▁speculat	-11.5233
▁loose	-11.5235
▁dangerous	-11.5235
dried	-11.5235
▁score	-11.5238
▁priestess	-11.5238
shikimoku	-11.5242
igned	-11.5243
kinosaki	-11.5247
▁welcome	-11.5286
numera	-11.5297
▁aesthetic	-11.5306
▁carpenter	-11.5306
▁grudge	-11.5306
▁guidance	-11.5306
▁kinugasa	-11.5306
▁ogimachisanjo	-11.5306
▁drove	-11.5306
▁memory	-11.5306
▁audit	-11.5306
▁leap	-11.5306
▁patient	-11.5306
▁meantime	-11.5308
▁tozama	-11.5308
▁differentiate	-11.5327
standing	-11.5363
▁accommodate	-11.5379
▁excessive	-11.5379
▁umbrella	-11.5379
▁zaibatsu	-11.5379
▁definite	-11.5379
▁paddy	-11.5379
▁kamaboko	-11.5379
▁beverage	-11.5379
▁alias	-11.538
▁visual	-11.538
▁farmland	-11.5382
▁1962	-11.5383
hokke	-11.5426
▁organize	-11.5435
▁disadvantage	-11.5453
▁electrified	-11.5453
▁comfort	-11.5453
▁sapporo	-11.5453
▁collar	-11.5453
▁sakonoe	-11.5453
▁isolation	-11.5454
▁bread	-11.5455
▁yamanouchi	-11.5458
stitution	-11.5481
▁graduation	-11.5528
▁participation	-11.5528
門	-11.5528
▁pledge	-11.5528
▁harbor	-11.5528
▁valid	-11.5528
▁prompt	-11.5529
▁winner	-11.553
▁choose	-11.553
▁spearhead	-11.5531
▁convert	-11.557
▁controll	-11.5575
▁release	-11.5583
▁devote	-11.5583
empt	-11.559
celebrat	-11.5602
▁oinomikado	-11.5603
▁pavilion	-11.5603
▁prescribed	-11.5603
▁swimming	-11.5603
▁unexpected	-11.5603
▁implies	-11.5603
▁ikkyu	-11.5603
▁sesame	-11.5603
kannon	-11.5604
▁considerably	-11.5604
▁arisugawanomiya	-11.5605
▁1917	-11.5607
▁1958	-11.5607
▁imagine	-11.5607
▁cutlet	-11.5608
▁punish	-11.5644
▁impos	-11.567
▁beijing	-11.5679
▁polished	-11.5679
▁transcribed	-11.5679
▁yabusame	-11.5679
女	-11.5679
▁defect	-11.5679
▁modified	-11.5679
▁sketch	-11.5679
▁emotion	-11.5679
▁jitsuroku	-11.5679
▁synonym	-11.5679
▁stroke	-11.5679
▁standpoint	-11.568
▁1961	-11.5683
▁municipalities	-11.5684
▁novelist	-11.5697
southern	-11.5755
野	-11.5755
▁bereaved	-11.5755
▁demonstration	-11.5755
▁identical	-11.5755
▁disguise	-11.5755
▁strife	-11.5755
castle	-11.5755
season	-11.5756
▁umayado	-11.5756
▁glory	-11.5757
▁patronage	-11.5758
▁ginger	-11.5758
▁atsuta	-11.5807
▁deposit	-11.5811
▁surprise	-11.5812
▁victor	-11.5824
▁appreciation	-11.5832
▁creature	-11.5832
▁goguryeo	-11.5832
▁operator	-11.5832
▁paekche	-11.5832
▁reclamation	-11.5832
▁yonezawa	-11.5832
▁bunmyaku	-11.5832
▁unchanged	-11.5832
▁relieve	-11.5832
▁breath	-11.5832
長	-11.5832
▁issuance	-11.5833
▁azechi	-11.5833
▁prohibit	-11.587
▁blend	-11.587
close	-11.5881
▁harsh	-11.5898
▁invade	-11.5898
collect	-11.5903
郎	-11.591
▁abbreviation	-11.591
▁artisans	-11.591
▁consecutive	-11.591
▁witness	-11.591
combining	-11.591
家	-11.591
正	-11.591
lotus	-11.5911
those	-11.5913
flat	-11.5978
▁ambassador	-11.5988
▁calculation	-11.5988
▁concentration	-11.5988
▁genuine	-11.5988
▁sophisticated	-11.5988
▁volunteer	-11.5988
▁1595	-11.5988
▁regency	-11.5988
▁uhyoe	-11.5988
太	-11.5988
▁outdoor	-11.5988
▁wholesale	-11.5989
▁gravestone	-11.599
▁kawabata	-11.599
▁midnight	-11.599
▁kurosawa	-11.5992
please	-11.5994
sponsored	-11.6067
▁declaration	-11.6067
▁infrastructure	-11.6067
▁maneuver	-11.6067
▁naginata	-11.6067
▁qualification	-11.6067
▁tanabata	-11.6067
▁hongwan	-11.6067
▁shimogamo	-11.6067
▁empty	-11.6067
gukansho	-11.6067
▁wrapping	-11.6067
▁patrol	-11.6069
▁1938	-11.6071
▁retire	-11.6122
▁revive	-11.6127
diploma	-11.6146
+	-11.6146
▁chestnut	-11.6146
▁chushingura	-11.6146
▁dynastic	-11.6146
▁palanquin	-11.6146
▁fittings	-11.6146
▁sliced	-11.6146
▁repose	-11.6146
▁honinbo	-11.6146
▁ndl	-11.6146
▁drain	-11.6146
commentary	-11.6149
regional	-11.6149
anthology	-11.6149
▁ashihara	-11.615
▁suffer	-11.6155
urged	-11.6216
▁advancing	-11.6226
▁autonomous	-11.6226
▁misfortune	-11.6226
▁pigment	-11.6226
▁ninomaru	-11.6226
▁shibukawa	-11.6226
▁madenokoji	-11.6226
▁accumulated	-11.6226
▁combat	-11.6226
▁tramway	-11.6228
▁mineral	-11.6228
equivalent	-11.623
▁gleanings	-11.6307
▁statistics	-11.6307
▁platoon	-11.6307
▁literati	-11.6307
▁quasi	-11.6307
▁beheaded	-11.6308
▁oribe	-11.6309
poetry	-11.6311
control	-11.6311
▁intervene	-11.6312
cloth	-11.6315
▁grip	-11.6354
▁confess	-11.6388
▁democratic	-11.6388
▁melody	-11.6388
▁monastery	-11.6388
▁clause	-11.6388
▁isolated	-11.6388
明	-11.6388
▁delegate	-11.6388
▁permit	-11.6389
▁isbn	-11.6391
▁1983	-11.6392
retainer	-11.6393
building	-11.6411
▁formula	-11.6412
▁flourish	-11.6438
▁agree	-11.645
▁inspect	-11.6455
▁communicat	-11.6457
≒	-11.647
▁amendment	-11.647
▁counterattack	-11.647
▁protocol	-11.647
▁siblings	-11.647
城	-11.647
▁stuck	-11.647
生	-11.647
▁kamigamo	-11.647
▁trail	-11.647
を	-11.6471
dynasty	-11.6475
stick	-11.6478
vajra	-11.6479
▁eligible	-11.6553
▁longevity	-11.6553
▁itsukushima	-11.6553
▁reconciliation	-11.6553
sanjusangen	-11.6553
▁mizoguchi	-11.6553
▁shinpachi	-11.6553
liaison	-11.6553
▁reply	-11.6553
多	-11.6553
▁remind	-11.6556
▁descend	-11.6599
▁seclud	-11.6636
阿	-11.6636
▁aggressive	-11.6636
▁disinherit	-11.6636
▁hozonkai	-11.6636
▁incorporating	-11.6636
▁mackerel	-11.6636
▁magnificent	-11.6636
▁assignment	-11.6636
▁kuruwa	-11.6636
▁curtain	-11.6636
▁confectionery	-11.6636
▁monkey	-11.6636
▁revered	-11.6636
▁relics	-11.6637
無	-11.6637
▁drown	-11.6665
▁collateral	-11.672
▁demesne	-11.672
▁immigrants	-11.672
▁allotted	-11.672
部	-11.672
▁protein	-11.672
平	-11.672
▁paragraph	-11.672
▁toilet	-11.6722
student	-11.6728
onym	-11.6787
▁confinement	-11.6805
▁controversy	-11.6805
▁diminish	-11.6805
▁global	-11.6805
▁residing	-11.6805
▁swordsmanship	-11.6805
▁thumb	-11.6805
▁tassel	-11.6805
▁tsukigase	-11.6805
小	-11.6805
▁taruhito	-11.6805
▁zhu	-11.6805
安	-11.6805
▁excuse	-11.6805
▁gakushuin	-11.6805
▁systematic	-11.6805
▁regulat	-11.6825
▁launch	-11.6856
▁analysis	-11.689
▁castellan	-11.689
▁context	-11.689
▁ethnic	-11.689
▁fragrance	-11.689
▁occurrence	-11.689
▁devised	-11.689
▁hyojoshu	-11.689
▁daisojo	-11.689
▁breed	-11.6891
▁juice	-11.6892
published	-11.6899
kagura	-11.6901
▁weigh	-11.695
▁garrison	-11.6976
▁eaves	-11.6976
▁neutral	-11.6976
▁shrimp	-11.6976
▁significance	-11.6976
元	-11.6976
▁warfare	-11.6976
▁taboo	-11.6977
き	-11.6977
木	-11.6977
piece	-11.6984
▁illustrat	-11.6998
▁element	-11.7047
encyclopedia	-11.7063
▁betrayal	-11.7063
▁bicycle	-11.7063
▁manifest	-11.7063
▁physician	-11.7063
八	-11.7063
▁cartoon	-11.7063
▁taoism	-11.7063
▁hollow	-11.7063
▁palm	-11.7064
▁akasaka	-11.7068
roshigumi	-11.7071
musume	-11.7073
crown	-11.708
▁stipulat	-11.7117
corn	-11.7148
▁christ	-11.715
▁certification	-11.7151
▁colleague	-11.7151
▁plastic	-11.7151
▁unprecedented	-11.7151
▁emblem	-11.7151
▁weekdays	-11.7151
mikuriya	-11.7152
dharma	-11.7162
professor	-11.7162
goshui	-11.7206
revere	-11.7211
scribe	-11.7224
▁broiled	-11.7239
▁consumed	-11.7239
▁credibility	-11.7239
▁jealous	-11.7239
▁legitimacy	-11.7239
▁meritorious	-11.7239
▁paradise	-11.7239
▁replied	-11.7239
▁silent	-11.7239
▁lumber	-11.7239
▁nabeshima	-11.724
▁cheap	-11.724
川	-11.724
▁flank	-11.724
下	-11.724
▁repeat	-11.7296
▁profession	-11.7303
▁ambition	-11.7329
▁banishment	-11.7329
▁clerical	-11.7329
▁dissolution	-11.7329
▁explor	-11.7329
▁privatization	-11.7329
▁reluctant	-11.7329
▁vacant	-11.7329
光	-11.7329
▁rokujizo	-11.7329
ballad	-11.7332
▁serial	-11.7333
izumo	-11.734
ritual	-11.7404
▁arisugawa	-11.7417
preliminary	-11.7419
proprietor	-11.7419
▁nyoirin	-11.7419
（	-11.7419
▁sphere	-11.7419
金	-11.7419
▁unstable	-11.7419
▁aikido	-11.742
▁nagashino	-11.742
▁accede	-11.7422
▁hook	-11.7423
engishiki	-11.7433
▁depriv	-11.7476
▁parliamentar	-11.7477
expeditionary	-11.7484
color	-11.7491
▁bacteria	-11.751
▁basket	-11.751
▁brilliant	-11.751
▁conscription	-11.751
▁phenomena	-11.751
▁supplies	-11.751
▁twist	-11.751
信	-11.751
▁takoyaki	-11.751
▁session	-11.751
▁gesture	-11.751
▁courtesan	-11.7511
department	-11.7524
retired	-11.7524
early	-11.7572
▁micro	-11.7574
▁distinct	-11.7593
▁quarrel	-11.7601
▁agencies	-11.7601
▁betrayed	-11.7601
▁emergence	-11.7601
▁playwright	-11.7601
▁sakhalin	-11.7601
▁wrestling	-11.7601
▁widow	-11.7602
▁cream	-11.7602
▁conspir	-11.7602
▁reaction	-11.7602
▁shionoya	-11.7602
▁moderate	-11.7602
▁elite	-11.7602
bakama	-11.7606
approx	-11.7617
bamboo	-11.7617
▁clam	-11.7627
▁contemplat	-11.7694
▁amusement	-11.7694
▁indispensable	-11.7694
▁neglect	-11.7694
▁overwhelming	-11.7694
▁pedestal	-11.7694
▁sumeramikoto	-11.7694
▁xavier	-11.7694
▁jinmyocho	-11.7694
▁purify	-11.7694
▁tokonoma	-11.7694
▁flesh	-11.7694
▁yanagawa	-11.7694
▁grasp	-11.7694
▁kuruma	-11.7695
aratame	-11.7696
nippon	-11.771
hundred	-11.771
▁citizen	-11.7736
drawn	-11.7738
▁channel	-11.7788
▁equestrian	-11.7788
▁improving	-11.7788
▁profound	-11.7788
▁renovation	-11.7788
▁stuff	-11.7788
▁suspicious	-11.7788
▁intensified	-11.7788
▁shohatto	-11.7788
▁gunnery	-11.7788
▁slices	-11.7788
▁shuttle	-11.7788
▁oneself	-11.7788
▁animation	-11.7788
▁shugakuin	-11.7788
和	-11.7788
▁relied	-11.7788
▁logic	-11.7812
bodhi	-11.7812
▁recommend	-11.7843
covered	-11.7881
accumulat	-11.7882
▁anegakoji	-11.7882
▁pursuit	-11.7882
▁unequal	-11.7882
▁desperate	-11.7882
▁unfortunate	-11.7882
▁capturing	-11.7882
▁internet	-11.7882
▁karaoke	-11.7882
経	-11.7882
事	-11.7882
▁lessons	-11.7883
ldom	-11.7883
▁restrain	-11.7883
候	-11.7884
deposited	-11.7889
▁vote	-11.79
transfer	-11.79
▁tempo	-11.7903
drama	-11.7904
privileged	-11.7952
burg	-11.7964
▁confection	-11.7977
▁dissatisfied	-11.7977
▁kawanakajima	-11.7977
▁splendid	-11.7977
▁supermarket	-11.7977
▁turret	-11.7977
▁salvation	-11.7977
▁gauge	-11.7977
▁stress	-11.7977
▁niece	-11.7977
高	-11.7977
▁shortened	-11.7977
る	-11.7978
▁kanroji	-11.7978
ノ	-11.7982
ceremonial	-11.7996
round	-11.7997
▁absorb	-11.8039
8,000	-11.807
genealogies	-11.8073
▁calculated	-11.8073
▁prevailing	-11.8073
▁vanguard	-11.8073
▁amateur	-11.8073
▁smallpox	-11.8073
▁ribbon	-11.8073
▁sorrow	-11.8073
▁binding	-11.8073
▁nominated	-11.8073
武	-11.8073
▁jesus	-11.8074
lieutenant	-11.8093
suicide	-11.8093
▁trap	-11.8107
▁continuous	-11.8156
6,000	-11.8169
▁architect	-11.817
▁counterfeit	-11.817
▁miniature	-11.817
▁qualified	-11.817
▁souvenir	-11.817
▁earnest	-11.817
▁seiyukai	-11.817
▁slander	-11.817
▁stew	-11.817
原	-11.8171
▁consent	-11.8172
▁taoist	-11.8173
pronounced	-11.8191
mandala	-11.8191
living	-11.8192
mawashi	-11.8194
talk	-11.8222
ā	-11.8268
▁compensation	-11.8268
▁confucius	-11.8268
▁luxury	-11.8268
▁perhaps	-11.8268
▁propagation	-11.8268
▁relevant	-11.8268
▁replica	-11.8268
▁repository	-11.8268
▁typhoon	-11.8268
▁wakadoshiyori	-11.8268
▁yatsuhashi	-11.8268
▁yodoyabashi	-11.8268
▁magatama	-11.8268
▁solution	-11.8268
▁karafuto	-11.8268
▁torinoko	-11.8268
▁tsurayuki	-11.8268
造	-11.8269
殿	-11.8269
▁hakone	-11.8269
▁saving	-11.8269
▁photo	-11.8269
▁shitokan	-11.8269
不	-11.8269
respect	-11.829
through	-11.829
blue	-11.829
▁wrap	-11.8366
真	-11.8367
▁astronomical	-11.8367
▁indigenous	-11.8367
▁indication	-11.8367
▁snack	-11.8367
▁disliked	-11.8367
▁shield	-11.8368
▁uneme	-11.8368
▁slash	-11.8369
▁strait	-11.837
▁quota	-11.8372
writing	-11.8388
correct	-11.839
treasure	-11.839
religious	-11.839
headquarters	-11.839
ologist	-11.8393
<	-11.8467
▁phonetic	-11.8467
▁abilities	-11.8467
▁cancelled	-11.8467
▁escaping	-11.8467
▁potential	-11.8467
▁tsukuyomi	-11.8467
▁universe	-11.8467
▁declining	-11.8467
▁stomach	-11.8467
▁irimoya	-11.8467
▁upgraded	-11.8467
▁hydro	-11.8467
▁conceal	-11.8467
▁gosanke	-11.8468
▁accomplishments	-11.8468
。	-11.8468
▁celebrating	-11.8468
ornamental	-11.8486
boiled	-11.8492
publisher	-11.8508
▁enthusiast	-11.8568
▁escort	-11.8568
▁ethics	-11.8568
▁implicated	-11.8568
▁scandal	-11.8568
尊	-11.8568
▁miyasudokoro	-11.8568
▁striking	-11.8568
▁minakuchi	-11.8568
▁omelet	-11.8568
名	-11.8569
内	-11.8569
oriented	-11.8583
▁aveng	-11.8593
summer	-11.8593
▁disclos	-11.8612
▁pilgrim	-11.8669
▁disturb	-11.8669
▁relax	-11.867
▁chemistry	-11.867
▁completing	-11.867
▁embrac	-11.867
▁hectares	-11.867
▁identity	-11.867
▁legislation	-11.867
▁netherlands	-11.867
▁pedigree	-11.867
吉	-11.867
▁1602	-11.867
▁cruel	-11.8671
常	-11.8671
▁tenpyo	-11.8671
都	-11.8671
▁lodge	-11.8671
な	-11.8671
twelve	-11.8696
education	-11.8697
▁slip	-11.8722
distribut	-11.8736
regulated	-11.8744
▁abdicate	-11.8754
barbarian	-11.8772
▁aforementioned	-11.8774
▁evolved	-11.8774
▁graduating	-11.8774
▁imprisoned	-11.8774
▁japonica	-11.8774
▁london	-11.8774
▁persimmon	-11.8774
▁primarily	-11.8774
▁reorganization	-11.8774
▁skewer	-11.8774
▁treason	-11.8774
▁sequel	-11.8774
仏	-11.8774
▁gomurakami	-11.8774
▁threatened	-11.8774
宮	-11.8774
▁renounc	-11.8774
▁kidendo	-11.8774
▁whereabouts	-11.8774
良	-11.8774
▁sokutai	-11.8774
と	-11.8775
▁boast	-11.8776
▁coincide	-11.8799
plain	-11.8799
model	-11.8806
▁neighbor	-11.8841
▁confiscat	-11.8844
▁facilitat	-11.8878
）	-11.8878
▁assembled	-11.8878
▁participating	-11.8878
▁shizugatake	-11.8878
▁profile	-11.8878
▁recitation	-11.8878
▁squid	-11.8878
▁firearms	-11.8878
▁repel	-11.8888
fresh	-11.8906
▁pink	-11.8916
left	-11.8918
▁comprise	-11.8963
▁refuse	-11.8963
▁acquainted	-11.8983
▁colonel	-11.8983
久	-11.9089
行	-11.909
師	-11.9416
氏	-11.9416
清	-11.9416
年	-11.9416
有	-11.9417
倭	-11.9527
石	-11.9527
方	-11.9527
通	-11.9639
ん	-11.9639
徳	-11.9639
ら	-11.964
か	-11.964
比	-11.9753
姫	-11.9868
士	-11.9868
て	-11.9984
世	-11.9985
津	-12.0101
居	-12.0102
海	-12.0103
[	-12.0143
馬	-12.0221
藤	-12.0341
く	-12.0342
如	-12.0342
社	-12.0463
東	-12.0463
相	-12.0464
－	-12.0586
佐	-12.0586
楽	-12.0586
定	-12.0587
伊	-12.0587
手	-12.0587
南	-12.0587
以	-12.0589
ニ	-12.0592
村	-12.0711
主	-12.0711
豊	-12.0711
書	-12.0712
は	-12.0712
シ	-12.0717
ま	-12.0838
す	-12.0838
重	-12.1096
志	-12.1096
心	-12.1097
う	-12.1228
代	-12.1228
言	-12.1228
井	-12.1361
も	-12.1362
百	-12.1362
蔵	-12.1496
政	-12.1497
次	-12.1633
水	-12.1633
六	-12.1772
万	-12.1772
四	-12.1773
臣	-12.1773
松	-12.1913
朝	-12.1914
た	-12.1914
波	-12.2056
華	-12.2056
古	-12.2056
変	-12.2056
成	-12.2057
西	-12.2201
申	-12.2201
九	-12.2348
美	-12.2348
前	-12.2348
物	-12.2348
所	-12.2348
ⅱ	-12.2497
表	-12.2497
入	-12.2497
さ	-12.2498
時	-12.2499
ヲ	-12.2507
七	-12.2649
&	-12.8418
–	-12.8419
■	-13.2482
