{
  "<pad>": 0,
  "<bos>": 1,
  "<eos>": 2,
  "<unk>": 3,
  "▁の": 4,
  "▁、": 5,
  "▁に": 6,
  "▁": 7,
  "▁。": 8,
  "▁は": 9,
  "▁た": 10,
  "▁を": 11,
  "▁と": 12,
  "▁て": 13,
  "▁が": 14,
  "▁で": 15,
  "▁（": 16,
  "▁し": 17,
  "▁）": 18,
  "▁年": 19,
  "▁れ": 20,
  "▁も": 21,
  "▁ある": 22,
  "▁さ": 23,
  "▁・": 24,
  "▁」": 25,
  "▁「": 26,
  "▁する": 27,
  "▁いる": 28,
  "▁月": 29,
  "▁日": 30,
  "っ": 31,
  "▁から": 32,
  "▁こと": 33,
  "▁な": 34,
  "▁大": 35,
  "る": 36,
  "い": 37,
  "▁い": 38,
  "く": 39,
  "8": 40,
  "▁れる": 41,
  "6": 42,
  "7": 43,
  "▁や": 44,
  "▁など": 45,
  "▁その": 46,
  "し": 47,
  "▁)": 48,
  "▁(": 49,
  "▁国": 50,
  "▁後": 51,
  "▁日本": 52,
  "9": 53,
  "▁一": 54,
  "『": 55,
  "▁』": 56,
  "0": 57,
  "▁3": 58,
  "▁なっ": 59,
  "▁時代": 60,
  "▁家": 61,
  "▁いう": 62,
  "▁あっ": 63,
  "▁もの": 64,
  "▁この": 65,
  "▁天皇": 66,
  "▁2": 67,
  "り": 68,
  "▁市": 69,
  "▁ない": 70,
  "▁ため": 71,
  "▁られ": 72,
  "▁的": 73,
  "▁寺": 74,
  "▁4": 75,
  "▁京都": 76,
  "ん": 77,
  "▁氏": 78,
  "▁中": 79,
  "▁19": 80,
  "▁上": 81,
  "▁また": 82,
  "▁よう": 83,
  "ら": 84,
  "▁三": 85,
  "1": 86,
  "5": 87,
  "▁より": 88,
  "3": 89,
  "▁人": 90,
  "▁18": 91,
  "2": 92,
  "▁1": 93,
  "4": 94,
  "田": 95,
  "さ": 96,
  "▁5": 97,
  "原": 98,
  "わ": 99,
  "▁本": 100,
  "▁-": 101,
  "▁これ": 102,
  "▁天": 103,
  "▁へ": 104,
  "▁同": 105,
  "▁山": 106,
  "▁あり": 107,
  "▁なる": 108,
  "▁だ": 109,
  "▁平": 110,
  "▁ら": 111,
  "▁者": 112,
  "▁か": 113,
  "子": 114,
  "▁行": 115,
  "▁11": 116,
  "▁新": 117,
  "▁高": 118,
  "▁長": 119,
  "▁代": 120,
  "国": 121,
  "▁駅": 122,
  "▁県": 123,
  "▁名": 124,
  "▁下": 125,
  "▁10": 126,
  "▁明治": 127,
  "▁12": 128,
  "山": 129,
  "▁第": 130,
  "▁正": 131,
  "▁藤": 132,
  "▁神": 133,
  "▁お": 134,
  "年": 135,
  "▁まで": 136,
  "か": 137,
  "▁自": 138,
  "▁内": 139,
  "て": 140,
  "▁15": 141,
  "▁元": 142,
  "人": 143,
  "▁町": 144,
  "▁つ": 145,
  "▁多": 146,
  "▁法": 147,
  "かっ": 148,
  "▁西": 149,
  "▁院": 150,
  "▁江戸": 151,
  "▁二": 152,
  "き": 153,
  "▁られる": 154,
  "▁御": 155,
  "う": 156,
  "ー": 157,
  "▁時": 158,
  "▁よっ": 159,
  "▁それ": 160,
  "▁義": 161,
  "▁事": 162,
  "▁東": 163,
  "▁前": 164,
  "▁位": 165,
  "▁藩": 166,
  "▁実": 167,
  "れ": 168,
  "▁重": 169,
  "▁間": 170,
  "▁城": 171,
  "▁小": 172,
  "▁：": 173,
  "▁出": 174,
  "▁しかし": 175,
  "▁現在": 176,
  "▁子": 177,
  "▁地": 178,
  "に": 179,
  "最": 180,
  "▁16": 181,
  "部": 182,
  "▁宗": 183,
  "▁見": 184,
  "▁通": 185,
  "▁なり": 186,
  "▁せ": 187,
  "▁従": 188,
  "▁よる": 189,
  "▁ず": 190,
  "▁石": 191,
  "ル": 192,
  "方": 193,
  "安": 194,
  "す": 195,
  "▁所": 196,
  "▁道": 197,
  "地": 198,
  "ン": 199,
  "長": 200,
  "▁五": 201,
  "▁元年": 202,
  "▁政": 203,
  "▁幕府": 204,
  "ま": 205,
  "▁おい": 206,
  "み": 207,
  "野": 208,
  "▁なく": 209,
  "▁軍": 210,
  "▁とも": 211,
  "▁13": 212,
  "川": 213,
  "▁文": 214,
  "▁旧暦": 215,
  "▁ば": 216,
  "▁説": 217,
  "▁17": 218,
  "▁線": 219,
  "上": 220,
  "▁源": 221,
  "明": 222,
  "▁生": 223,
  "▁権": 224,
  "め": 225,
  "▁宮": 226,
  "▁四": 227,
  "名": 228,
  "正": 229,
  "▁目": 230,
  "▁官": 231,
  "▁府": 232,
  "力": 233,
  "▁方": 234,
  "▁記": 235,
  "▁公": 236,
  "政": 237,
  "▁つい": 238,
  "▁書": 239,
  "▁南": 240,
  "▁神社": 241,
  "▁おり": 242,
  "▁呼ば": 243,
  "▁全": 244,
  "▁朝": 245,
  "▁学": 246,
  "ス": 247,
  "行": 248,
  "▁北": 249,
  "利": 250,
  "え": 251,
  "▁父": 252,
  "▁14": 253,
  "来": 254,
  "▁他": 255,
  "▁安": 256,
  "▁主": 257,
  "▁王": 258,
  "▁特": 259,
  "▁明": 260,
  "島": 261,
  "▁文化": 262,
  "▁経": 263,
  "▁流": 264,
  "▁無": 265,
  "本": 266,
  "ち": 267,
  "▁場合": 268,
  "た": 269,
  "▁き": 270,
  "▁万": 271,
  "家": 272,
  "▁昭和": 273,
  "▁親王": 274,
  "々": 275,
  "物": 276,
  "▁金": 277,
  "▁歳": 278,
  "町": 279,
  "▁入": 280,
  "▁古": 281,
  "▁郡": 282,
  "▁化": 283,
  "▁不": 284,
  "▁会": 285,
  "文": 286,
  "▁広": 287,
  "▁水": 288,
  "▁十": 289,
  "▁等": 290,
  "▁信": 291,
  "▁直": 292,
  "▁集": 293,
  "▁清": 294,
  "▁鎌倉": 295,
  "▁区": 296,
  "▁部": 297,
  "和": 298,
  "▁際": 299,
  "▁手": 300,
  "▁足": 301,
  "け": 302,
  "門": 303,
  "▁分": 304,
  "▁受け": 305,
  "定": 306,
  "▁戦": 307,
  "▁各": 308,
  "朝": 309,
  "身": 310,
  "成": 311,
  "▁館": 312,
  "▁外": 313,
  "中": 314,
  "▁当時": 315,
  "▁村": 316,
  "手": 317,
  "リ": 318,
  "▁～": 319,
  "じ": 320,
  "▁奈良": 321,
  "▁考え": 322,
  "宮": 323,
  "▁立": 324,
  "▁大臣": 325,
  "▁豊": 326,
  "▁忠": 327,
  "▁社": 328,
  "事": 329,
  "▁旧": 330,
  "▁いっ": 331,
  "▁開": 332,
  "▁徳川": 333,
  "▁次": 334,
  "▁相": 335,
  "道": 336,
  "イ": 337,
  "▁室": 338,
  "▁八": 339,
  "▁諸": 340,
  "▁両": 341,
  "▁京": 342,
  "徳": 343,
  "▁多い": 344,
  "▁将軍": 345,
  "村": 346,
  "間": 347,
  "津": 348,
  "軍": 349,
  "ば": 350,
  "ラ": 351,
  "つ": 352,
  "▁松": 353,
  "▁対し": 354,
  "▁大学": 355,
  "▁真": 356,
  "▁派": 357,
  "▁六": 358,
  "書": 359,
  "▁存在": 360,
  "▁永": 361,
  "▁物": 362,
  "▁号": 363,
  "▁世": 364,
  "▁娘": 365,
  "▁.": 366,
  "▁左": 367,
  "元": 368,
  "▁海": 369,
  "む": 370,
  "▁支": 371,
  "▁領": 372,
  "永": 373,
  "▁教": 374,
  "▁なお": 375,
  "▁源氏": 376,
  "▁当": 377,
  "生": 378,
  "井": 379,
  "主": 380,
  "▁有": 381,
  "▁鉄道": 382,
  "▁のみ": 383,
  "立": 384,
  "▁白": 385,
  "実": 386,
  "び": 387,
  "▁東京": 388,
  "▁中国": 389,
  "▁発": 390,
  "▁酒": 391,
  "な": 392,
  "用": 393,
  "▁性": 394,
  "体": 395,
  "▁川": 396,
  "分": 397,
  "時": 398,
  "学": 399,
  "▁関": 400,
  "臣": 401,
  "▁光": 402,
  "▁和": 403,
  "▁現": 404,
  "▁数": 405,
  "▁母": 406,
  "▁あ": 407,
  "▁歌": 408,
  "権": 409,
  "▁用い": 410,
  "▁女": 411,
  "仁": 412,
  "木": 413,
  "作": 414,
  "▁図": 415,
  "▁成": 416,
  "▁伝": 417,
  "▁学校": 418,
  "神": 419,
  "▁）-": 420,
  "要": 421,
  "▁守": 422,
  "者": 423,
  "▁土": 424,
  "▁関係": 425,
  "▁慶": 426,
  "▁式": 427,
  "▁形": 428,
  "▁頼": 429,
  "▁20": 430,
  "▁別": 431,
  "▁武": 432,
  "法": 433,
  "▁だっ": 434,
  "▁乱": 435,
  "▁いわ": 436,
  "▁一般": 437,
  "▁み": 438,
  "▁物語": 439,
  "寺": 440,
  "▁木": 441,
  "▁中心": 442,
  "府": 443,
  "日": 444,
  "▁門": 445,
  "▁反": 446,
  "▁右": 447,
  "せ": 448,
  "▁以降": 449,
  "内": 450,
  "出": 451,
  "▁師": 452,
  "▁七": 453,
  "屋": 454,
  "▁巻": 455,
  "記": 456,
  "▁条": 457,
  "武": 458,
  "前": 459,
  "▁仏": 460,
  "▁とき": 461,
  "務": 462,
  "▁戦い": 463,
  "▁期": 464,
  "▁今": 465,
  "の": 466,
  "▁おけ": 467,
  "▁地方": 468,
  "する": 469,
  "城": 470,
  "▁作": 471,
  "▁ほ": 472,
  "▁建": 473,
  "▁民": 474,
  "▁回": 475,
  "▁大阪": 476,
  "▁財": 477,
  "合": 478,
  "▁円": 479,
  "河": 480,
  "▁称": 481,
  "▁堂": 482,
  "▁男": 483,
  "▁千": 484,
  "面": 485,
  "▁頃": 486,
  "大": 487,
  "気": 488,
  "▁保": 489,
  "禄": 490,
  "光": 491,
  "馬": 492,
  "▁使用": 493,
  "▁持": 494,
  "▁総": 495,
  "▁さらに": 496,
  "▁織": 497,
  "▁風": 498,
  "▁残": 499,
  "▁研究": 500,
  "▁共": 501,
  "▁世紀": 502,
  "▁用": 503,
  "▁制": 504,
  "翌": 505,
  "治": 506,
  "▁都": 507,
  "▁同じ": 508,
  "平": 509,
  "▁僧": 510,
  "▁定": 511,
  "口": 512,
  "廷": 513,
  "▁久": 514,
  "が": 515,
  "▁大名": 516,
  "▁皇子": 517,
  "再": 518,
  "▁先": 519,
  "▁信長": 520,
  "ト": 521,
  "見": 522,
  "▁得": 523,
  "崎": 524,
  "領": 525,
  "▁太": 526,
  "▁役": 527,
  "▁ん": 528,
  "▁知ら": 529,
  "目": 530,
  "▁寛": 531,
  "後": 532,
  "▁近": 533,
  "様": 534,
  "ク": 535,
  "▁約": 536,
  "▁ま": 537,
  "▁勢": 538,
  "▁命": 539,
  "楽": 540,
  "▁かけ": 541,
  "義": 542,
  "こ": 543,
  "ジ": 544,
  "場": 545,
  "初": 546,
  "▁納言": 547,
  "所": 548,
  "▁ながら": 549,
  "▁島": 550,
  "▁職": 551,
  "▁治": 552,
  "ぶ": 553,
  "▁彼": 554,
  "西": 555,
  "▁親": 556,
  "民": 557,
  "位": 558,
  "久": 559,
  "▁福": 560,
  "代": 561,
  "▁言わ": 562,
  "▁秀吉": 563,
  "まっ": 564,
  "州": 565,
  "▁よ": 566,
  "世": 567,
  "▁す": 568,
  "際": 569,
  "▁側": 570,
  "▁品": 571,
  "▁結": 572,
  "▁歴史": 573,
  "カ": 574,
  "▁カ": 575,
  "▁首": 576,
  "▁能": 577,
  "▁/": 578,
  "流": 579,
  "▁意味": 580,
  "▁田": 581,
  "▁兵": 582,
  "院": 583,
  "下": 584,
  "配": 585,
  "▁こう": 586,
  "▁殿": 587,
  "▁勝": 588,
  "だけ": 589,
  "▁花": 590,
  "▁事件": 591,
  "常": 592,
  "▁兼": 593,
  "▁たり": 594,
  "▁ア": 595,
  "▁守護": 596,
  "▁合": 597,
  "▁在": 598,
  "▁省": 599,
  "一": 600,
  "▁語": 601,
  "言": 602,
  "信": 603,
  "▁為": 604,
  "▁系": 605,
  "ぐ": 606,
  "▁像": 607,
  "持": 608,
  "▁唐": 609,
  "▁政治": 610,
  "▁なら": 611,
  "▁たち": 612,
  "▁茶": 613,
  "▁ところ": 614,
  "▁一部": 615,
  "谷": 616,
  "入": 617,
  "▁以下": 618,
  "▁度": 619,
  "式": 620,
  "ろ": 621,
  "色": 622,
  "▁ひ": 623,
  "▁画": 624,
  "▁車": 625,
  "▁でき": 626,
  "▁ス": 627,
  "▁九": 628,
  "ナ": 629,
  "士": 630,
  "しい": 631,
  "▁祭": 632,
  "盛": 633,
  "▁武士": 634,
  "▁初": 635,
  "▁強": 636,
  "▁弟": 637,
  "岡": 638,
  "▁地域": 639,
  "制": 640,
  "▁進": 641,
  "▁死": 642,
  "▁例": 643,
  "形": 644,
  "▁座": 645,
  "▁バス": 646,
  "藤": 647,
  "保": 648,
  "任": 649,
  "▁ふ": 650,
  "▁原": 651,
  "▁吉": 652,
  "▁造": 653,
  "王": 654,
  "▁伊": 655,
  "▁できる": 656,
  "▁人物": 657,
  "母": 658,
  "▁面": 659,
  "ぎ": 660,
  "▁没": 661,
  "▁改": 662,
  "高": 663,
  "▁使": 664,
  "▁口": 665,
  "度": 666,
  "▁うち": 667,
  "▁近衛": 668,
  "官": 669,
  "▁赤": 670,
  "▁表": 671,
  "ム": 672,
  "▁秀": 673,
  "▁応": 674,
  "台": 675,
  "皇": 676,
  "▁朝鮮": 677,
  "▁常": 678,
  "▁末": 679,
  "▁令": 680,
  "▁続": 681,
  "会": 682,
  "も": 683,
  "▁与え": 684,
  "▁基": 685,
  "▁盛": 686,
  "▁死去": 687,
  "条": 688,
  "▁以後": 689,
  "▁心": 690,
  "▁屋": 691,
  "▁仏教": 692,
  "▁加": 693,
  "▁連": 694,
  "▁陸": 695,
  "▁ただし": 696,
  "▁藩主": 697,
  "▁論": 698,
  "▁設置": 699,
  "▁家康": 700,
  "▁点": 701,
  "土": 702,
  "シ": 703,
  "▁百": 704,
  "格": 705,
  "▁良": 706,
  "▁祖": 707,
  "▁以": 708,
  "a": 709,
  "沢": 710,
  "京": 711,
  "▁せる": 712,
  "▁組": 713,
  "ロ": 714,
  "▁影響": 715,
  "▁宝": 716,
  "統": 717,
  "水": 718,
  "▁様": 719,
  "マ": 720,
  "▁もと": 721,
  "▁成立": 722,
  "▁尊": 723,
  "心": 724,
  "▁取り": 725,
  "勢": 726,
  "▁貞": 727,
  "▁のち": 728,
  "▁頭": 729,
  "▁継": 730,
  "▁力": 731,
  "▁番": 732,
  "月": 733,
  "命": 734,
  "▁北条": 735,
  "▁参": 736,
  "女": 737,
  "▁意": 738,
  "ッ": 739,
  "▁興": 740,
  "▁場": 741,
  "▁以上": 742,
  "▁米": 743,
  "▁21": 744,
  "▁享": 745,
  "▁聖": 746,
  "▁対": 747,
  "▁初期": 748,
  "▁承": 749,
  "▁そし": 750,
  "▁要": 751,
  "▁京阪": 752,
  "コ": 753,
  "▁こ": 754,
  "華": 755,
  "▁半": 756,
  "ぼ": 757,
  "数": 758,
  "▁若": 759,
  "等": 760,
  "▁置": 761,
  "▁25": 762,
  "▁体": 763,
  "▁頼朝": 764,
  "▁及び": 765,
  "勝": 766,
  "▁身": 767,
  "福": 768,
  "ろう": 769,
  "▁之": 770,
  "▁う": 771,
  "▁寺院": 772,
  "と": 773,
  "▁変": 774,
  "▁時期": 775,
  "▁観": 776,
  "害": 777,
  "▁シ": 778,
  "▁利用": 779,
  "▁佐": 780,
  "ミ": 781,
  "▁可能": 782,
  "▁早": 783,
  "宝": 784,
  "▁帰": 785,
  "▁独": 786,
  "向": 787,
  "蔵": 788,
  "▁行う": 789,
  "▁,": 790,
  "ノ": 791,
  "▁解": 792,
  "▁仁": 793,
  "橋": 794,
  "▁伊勢": 795,
  "▁交": 796,
  "▁火": 797,
  "▁大和": 798,
  "進": 799,
  "▁史": 800,
  "▁伴": 801,
  "▁種": 802,
  "ね": 803,
  "▁30": 804,
  "だ": 805,
  "▁22": 806,
  "▁大き": 807,
  "造": 808,
  "▁隊": 809,
  "▁推": 810,
  "▁専": 811,
  "風": 812,
  "▁紀": 813,
  "よう": 814,
  "戦": 815,
  "▁生まれ": 816,
  "える": 817,
  "▁伝え": 818,
  "経": 819,
  "▁住": 820,
  "▁馬": 821,
  "▁列車": 822,
  "▁制度": 823,
  "室": 824,
  "古": 825,
  "▁ほか": 826,
  "▁弘": 827,
  "▁養子": 828,
  "▁春": 829,
  "▁じ": 830,
  "▁戦争": 831,
  "重": 832,
  "レ": 833,
  "▁食": 834,
  "白": 835,
  "▁世界": 836,
  "▁－": 837,
  "▁維": 838,
  "▁まま": 839,
  "▁調": 840,
  "▁皇": 841,
  "暦": 842,
  "▁鳥": 843,
  "▁ほど": 844,
  "▁和歌": 845,
  "いは": 846,
  "▁料理": 847,
  "▁近江": 848,
  "▁ノ": 849,
  "▁必要": 850,
  "別": 851,
  "▁兄": 852,
  "▁作品": 853,
  "▁24": 854,
  "号": 855,
  "▁以外": 856,
  "キ": 857,
  "業": 858,
  "▁異": 859,
  "▁船": 860,
  "▁野": 861,
  "字": 862,
  "頼": 863,
  "称": 864,
  "▁23": 865,
  "味": 866,
  "族": 867,
  "線": 868,
  "▁知": 869,
  "吉": 870,
  "石": 871,
  "説": 872,
  "タ": 873,
  "▁局": 874,
  "量": 875,
  "▁霊": 876,
  "ド": 877,
  "宗": 878,
  "ア": 879,
  "▁登場": 880,
  "▁付": 881,
  "▁後期": 882,
  "ュ": 883,
  "i": 884,
  "▁妻": 885,
  "▁鉄": 886,
  "▁細川": 887,
  "仏": 888,
  "郷": 889,
  "▁律令": 890,
  "▁かつ": 891,
  "取": 892,
  "▁私": 893,
  "▁部分": 894,
  "ツ": 895,
  "▁いく": 896,
  "よび": 897,
  "議": 898,
  "▁蔵": 899,
  "▁達": 900,
  "▁家臣": 901,
  "▁指定": 902,
  "営": 903,
  "座": 904,
  "理": 905,
  "▁年間": 906,
  "ット": 907,
  "▁持つ": 908,
  "▁→": 909,
  "▁台": 910,
  "動": 911,
  "東": 912,
  "▁廃": 913,
  "▁青": 914,
  "▁退": 915,
  "しく": 916,
  "ニ": 917,
  "▁岩": 918,
  "師": 919,
  "然": 920,
  "▁丸": 921,
  "伝": 922,
  "▁伏見": 923,
  "▁製": 924,
  "▁28": 925,
  "▁代表": 926,
  "▁博": 927,
  "▁古墳": 928,
  "▁修": 929,
  "▁非": 930,
  "▁気": 931,
  "応": 932,
  "▁摂": 933,
  "▁仲": 934,
  "▁景": 935,
  "▁記録": 936,
  "▁色": 937,
  "▁以前": 938,
  "▁深": 939,
  "▁にて": 940,
  "▁絵": 941,
  "▁渡": 942,
  "▁不明": 943,
  "▁貴族": 944,
  "▁はじめ": 945,
  "通": 946,
  "器": 947,
  "房": 948,
  "意": 949,
  "羽": 950,
  "▁竹": 951,
  "▁富": 952,
  "▁着": 953,
  "▁映画": 954,
  "▁延": 955,
  "▁収": 956,
  "▁具": 957,
  "▁討": 958,
  "▁廃止": 959,
  "▁阿": 960,
  "化": 961,
  "親": 962,
  "▁女性": 963,
  "▁即位": 964,
  "▁そこ": 965,
  "ぞれ": 966,
  "ず": 967,
  "▁描": 968,
  "▁公家": 969,
  "▁宿": 970,
  "科": 971,
  "▁少な": 972,
  "▁満": 973,
  "メ": 974,
  "能": 975,
  "▁継承": 976,
  "▁曲": 977,
  "▁一族": 978,
  "▁中央": 979,
  "▁香": 980,
  "▁悪": 981,
  "質": 982,
  "ウ": 983,
  "男": 984,
  "▁如": 985,
  "▁店": 986,
  "プ": 987,
  "▁士": 988,
  "▁衆": 989,
  "▁池": 990,
  "▁記述": 991,
  "集": 992,
  "▁使わ": 993,
  "▁起こ": 994,
  "▁類": 995,
  "▁姿": 996,
  "▁遠": 997,
  "▁マ": 998,
  "兵衛": 999,
  "▁紙": 1000,
  "▁黒": 1001,
  "▁ここ": 1002,
  "智": 1003,
  "で": 1004,
  "▁遺": 1005,
  "▁中期": 1006,
  "▁徳": 1007,
  "▁字": 1008,
  "▁浄土": 1009,
  "▁電": 1010,
  "頭": 1011,
  "▁少": 1012,
  "▁イ": 1013,
  "チ": 1014,
  "▁26": 1015,
  "グ": 1016,
  "げ": 1017,
  "▁何": 1018,
  "▁業": 1019,
  "▁参照": 1020,
  "▁音": 1021,
  "▁問題": 1022,
  "新": 1023,
  "▁理": 1024,
  "▁社会": 1025,
  "▁27": 1026,
  "海": 1027,
  "▁単": 1028,
  "▁宣": 1029,
  "▁ハ": 1030,
  "路": 1031,
  "▁結果": 1032,
  "良": 1033,
  "対": 1034,
  "▁対す": 1035,
  "▁就任": 1036,
  "ネ": 1037,
  "▁来": 1038,
  "▁位置": 1039,
  "▁ち": 1040,
  "倉": 1041,
  "装": 1042,
  "▁ト": 1043,
  "▁橋": 1044,
  "▁君": 1045,
  "▁梅": 1046,
  "ギ": 1047,
  "葉": 1048,
  "e": 1049,
  "▁ひと": 1050,
  "助": 1051,
  "点": 1052,
  "▁関東": 1053,
  "ビ": 1054,
  "▁武田": 1055,
  "▁移": 1056,
  "外": 1057,
  "▁比": 1058,
  "▁井": 1059,
  "▁タ": 1060,
  "▁引き": 1061,
  "▁認め": 1062,
  "▁銀": 1063,
  "まり": 1064,
  "▁m": 1065,
  "産": 1066,
  "▁譲": 1067,
  "▁美": 1068,
  "▁夜": 1069,
  "▁幼": 1070,
  "▁許": 1071,
  "▁加え": 1072,
  "▁病": 1073,
  "▁横": 1074,
  "▁公卿": 1075,
  "兵": 1076,
  "▁子孫": 1077,
  "▁増": 1078,
  "夷": 1079,
  "▁更": 1080,
  "▁話": 1081,
  "林": 1082,
  "▁言": 1083,
  "▁活動": 1084,
  "▁出家": 1085,
  "堂": 1086,
  "団": 1087,
  "落": 1088,
  "▁愛": 1089,
  "▁教育": 1090,
  "性": 1091,
  "之": 1092,
  "ヶ": 1093,
  "好": 1094,
  "松": 1095,
  "司": 1096,
  "ール": 1097,
  "▁失": 1098,
  "▁周": 1099,
  "▁有力": 1100,
  "オ": 1101,
  "▁機": 1102,
  "▁戸": 1103,
  "▁系統": 1104,
  "▁通り": 1105,
  "や": 1106,
  "▁100": 1107,
  "▁舞鶴": 1108,
  "▁言う": 1109,
  "論": 1110,
  "▁一人": 1111,
  "▁顕": 1112,
  "御": 1113,
  "▁奉行": 1114,
  "▁開始": 1115,
  "▁階": 1116,
  "達": 1117,
  "▁志": 1118,
  "▁長男": 1119,
  "▁対立": 1120,
  "▁ご": 1121,
  "▁思わ": 1122,
  "隆": 1123,
  "期": 1124,
  "▁末期": 1125,
  "杉": 1126,
  "▁倭": 1127,
  "きな": 1128,
  "▁転": 1129,
  "▁国家": 1130,
  "▁利": 1131,
  "▁急": 1132,
  "▁空": 1133,
  "略": 1134,
  "▁未": 1135,
  "▁え": 1136,
  "▁29": 1137,
  "▁武家": 1138,
  "▁当主": 1139,
  "▁初代": 1140,
  "▁荘園": 1141,
  "綱": 1142,
  "▁書紀": 1143,
  "側": 1144,
  "▁禅": 1145,
  "▁コ": 1146,
  "▁信仰": 1147,
  "▁宇治": 1148,
  "スト": 1149,
  "社": 1150,
  "南": 1151,
  "▁康": 1152,
  "ど": 1153,
  "▁南北": 1154,
  "▁仕え": 1155,
  "▁呼ぶ": 1156,
  "▁助": 1157,
  "▁任じ": 1158,
  "泉": 1159,
  "根": 1160,
  "▁由来": 1161,
  "▁草": 1162,
  "▁観音": 1163,
  "▁寄": 1164,
  "我": 1165,
  "▁理由": 1166,
  "▁毛": 1167,
  "術": 1168,
  "▁あたる": 1169,
  "▁べき": 1170,
  "▁玉": 1171,
  "▁有名": 1172,
  "発": 1173,
  "▁孫": 1174,
  "▁統": 1175,
  "▁む": 1176,
  "▁根": 1177,
  "金": 1178,
  "複": 1179,
  "▁そう": 1180,
  "▁サ": 1181,
  "▁建築": 1182,
  "は": 1183,
  "▁勅": 1184,
  "▁舞": 1185,
  "▁文書": 1186,
  "▁孝": 1187,
  "▁指す": 1188,
  "督": 1189,
  "▁本願": 1190,
  "ケ": 1191,
  "▁美術": 1192,
  "リー": 1193,
  "▁JR": 1194,
  "工": 1195,
  "▁印": 1196,
  "戸": 1197,
  "▁作ら": 1198,
  "▁姓": 1199,
  "▁科": 1200,
  "藩": 1201,
  "友": 1202,
  "料": 1203,
  "▁菩薩": 1204,
  "▁参加": 1205,
  "相": 1206,
  "▁三条": 1207,
  "▁黄": 1208,
  "▁雑": 1209,
  "籍": 1210,
  "▁郷": 1211,
  "▁講": 1212,
  "▁九州": 1213,
  "▁追": 1214,
  "▁片": 1215,
  "▁臨": 1216,
  "▁御所": 1217,
  "▁よく": 1218,
  "▁楽": 1219,
  "▁任": 1220,
  "▁主に": 1221,
  "▁フ": 1222,
  "▁始め": 1223,
  "役": 1224,
  "▁平氏": 1225,
  "▁活躍": 1226,
  "▁皇后": 1227,
  "清": 1228,
  "▁秋": 1229,
  "▁ね": 1230,
  "▁定め": 1231,
  "▁群": 1232,
  "▁斎": 1233,
  "▁不詳": 1234,
  "▁殺": 1235,
  "護": 1236,
  "米": 1237,
  "▁松平": 1238,
  "江": 1239,
  "有": 1240,
  "とんど": 1241,
  "▁墓": 1242,
  "▁務め": 1243,
  "▁鎮": 1244,
  "▁歌舞伎": 1245,
  "▁迎え": 1246,
  "▁帝国": 1247,
  "▁旅": 1248,
  "▁善": 1249,
  "▁入り": 1250,
  "▁運": 1251,
  "▁刀": 1252,
  "▁大坂": 1253,
  "磨": 1254,
  "▁節": 1255,
  "羅": 1256,
  "▁合戦": 1257,
  "▁平家": 1258,
  "ート": 1259,
  "次": 1260,
  "▁ク": 1261,
  "▁資": 1262,
  "▁内容": 1263,
  "▁関白": 1264,
  "▁嫡": 1265,
  "▁演": 1266,
  "▁都市": 1267,
  "▁鏡": 1268,
  "解": 1269,
  "続": 1270,
  "▁玄": 1271,
  "▁名称": 1272,
  "▁打": 1273,
  "▁築": 1274,
  "▁神道": 1275,
  "▁如来": 1276,
  "▁補": 1277,
  "▁農": 1278,
  "衆": 1279,
  "▁客": 1280,
  "▁河": 1281,
  "▁塩": 1282,
  "t": 1283,
  "▁求め": 1284,
  "▁注": 1285,
  "▁メ": 1286,
  "客": 1287,
  "志": 1288,
  "浦": 1289,
  "姓": 1290,
  "材": 1291,
  "▁団": 1292,
  "▁言葉": 1293,
  "▁浅": 1294,
  "ょ": 1295,
  "尾": 1296,
  "出し": 1297,
  "▁状": 1298,
  "▁近代": 1299,
  "上げ": 1300,
  "ずれ": 1301,
  "▁征": 1302,
  "▁商": 1303,
  "着": 1304,
  "賀": 1305,
  "▁感": 1306,
  "天": 1307,
  "▁河内": 1308,
  "▁個": 1309,
  "▁仕": 1310,
  "▁開業": 1311,
  "▁技術": 1312,
  "▁精": 1313,
  "▁毎": 1314,
  "▁選": 1315,
  "▁養": 1316,
  "▁跡": 1317,
  "▁甲": 1318,
  "▁高い": 1319,
  "▁皇族": 1320,
  "▁現代": 1321,
  "▁完成": 1322,
  "▁八幡": 1323,
  "殿": 1324,
  "▁周辺": 1325,
  "▁地下": 1326,
  "▁奥": 1327,
  "▁死後": 1328,
  "知": 1329,
  "▁目的": 1330,
  "付": 1331,
  "▁余": 1332,
  "▁命じ": 1333,
  "▁入れ": 1334,
  "▁通じ": 1335,
  "▁菊": 1336,
  "▁林": 1337,
  "▁入る": 1338,
  "撃": 1339,
  "▁交通": 1340,
  "筆": 1341,
  "▁破": 1342,
  "▁設立": 1343,
  "▁冷": 1344,
  "▁順": 1345,
  "▁事業": 1346,
  "▁嘉": 1347,
  "▁武将": 1348,
  "s": 1349,
  "▁パ": 1350,
  "▁ぬ": 1351,
  "▁古代": 1352,
  "▁園": 1353,
  "典": 1354,
  "▁短": 1355,
  "▁義経": 1356,
  "忠": 1357,
  "▁ニ": 1358,
  "雄": 1359,
  "覚": 1360,
  "▁参議": 1361,
  "▁引": 1362,
  "▁場所": 1363,
  "▁暦": 1364,
  "▁羽": 1365,
  "▁建立": 1366,
  "影": 1367,
  "▁キ": 1368,
  "▁負": 1369,
  "▁幕": 1370,
  "▁持ち": 1371,
  "▁発展": 1372,
  "ック": 1373,
  "▁時間": 1374,
  "める": 1375,
  "太郎": 1376,
  "関": 1377,
  "接": 1378,
  "▁姫": 1379,
  "込": 1380,
  "▁経済": 1381,
  "▁丹波": 1382,
  "▁エ": 1383,
  "▁寿": 1384,
  "ター": 1385,
  "▁運転": 1386,
  "▁…": 1387,
  "満": 1388,
  "▁機関": 1389,
  "▁取": 1390,
  "▁隆": 1391,
  "▁供": 1392,
  "▁率い": 1393,
  "▁焼": 1394,
  "▁どう": 1395,
  "館": 1396,
  "▁会社": 1397,
  "▁天平": 1398,
  "▁神宮": 1399,
  "▁資料": 1400,
  "▁弓": 1401,
  "▁なか": 1402,
  "紙": 1403,
  "興": 1404,
  "▁地位": 1405,
  "拠": 1406,
  "界": 1407,
  "▁流れ": 1408,
  "職": 1409,
  "▁現存": 1410,
  "▁乗": 1411,
  "▁形式": 1412,
  "▁並": 1413,
  "型": 1414,
  "波": 1415,
  "▁建設": 1416,
  "▁居": 1417,
  "▁洋": 1418,
  "▁山城": 1419,
  "▁オ": 1420,
  "老": 1421,
  "▁次男": 1422,
  "収": 1423,
  "▁付け": 1424,
  "情": 1425,
  "瀬": 1426,
  "火": 1427,
  "▁派遣": 1428,
  "▁ウ": 1429,
  "花": 1430,
  "▁動": 1431,
  "▁豪": 1432,
  "▁尼": 1433,
  "ズ": 1434,
  "▁運動": 1435,
  "▁逆": 1436,
  "奥": 1437,
  "岐": 1438,
  "▁監督": 1439,
  "夫": 1440,
  "▁本線": 1441,
  "▁陵": 1442,
  "▁柳": 1443,
  "教": 1444,
  "▁発生": 1445,
  "▁路線": 1446,
  "▁通称": 1447,
  "▁裏": 1448,
  "児": 1449,
  "▁官位": 1450,
  "▁防": 1451,
  "▁礼": 1452,
  "例": 1453,
  "ざ": 1454,
  "▁もっ": 1455,
  "▁巡": 1456,
  "▁華": 1457,
  "▁国宝": 1458,
  "▁好": 1459,
  "▁配": 1460,
  "▁ど": 1461,
  "▁生活": 1462,
  "▁方面": 1463,
  "づ": 1464,
  "▁帝": 1465,
  "語": 1466,
  "▁段": 1467,
  "▁泰": 1468,
  "▁中世": 1469,
  "フ": 1470,
  "▁日記": 1471,
  "▁妙": 1472,
  "▁規模": 1473,
  "▁綱": 1474,
  "述": 1475,
  "▁書か": 1476,
  "景": 1477,
  "域": 1478,
  "当": 1479,
  "▁生まれる": 1480,
  "▁鬼": 1481,
  "▁故": 1482,
  "▁縁": 1483,
  "系": 1484,
  "まう": 1485,
  "▁放": 1486,
  "▁評価": 1487,
  "▁思想": 1488,
  "端": 1489,
  "▁幸": 1490,
  "▁荘": 1491,
  "▁桂": 1492,
  "▁龍": 1493,
  "▁産": 1494,
  "▁卿": 1495,
  "▁限": 1496,
  "▁土地": 1497,
  "▁列": 1498,
  "▁朱": 1499,
  "▁密": 1500,
  "承": 1501,
  "ゆる": 1502,
  "麻呂": 1503,
  "▁格": 1504,
  "▁崇": 1505,
  "▁板": 1506,
  "近": 1507,
  "パ": 1508,
  "▁改め": 1509,
  "▁司": 1510,
  "▁釈": 1511,
  "級": 1512,
  "隊": 1513,
  "歌": 1514,
  "▁バ": 1515,
  "▁敵": 1516,
  "▁弟子": 1517,
  "画": 1518,
  "▁兄弟": 1519,
  "▁薩摩": 1520,
  "▁党": 1521,
  "▁家人": 1522,
  "▁二条": 1523,
  "(": 1524,
  "▁極": 1525,
  "輪": 1526,
  "属": 1527,
  "鳥": 1528,
  "▁辞": 1529,
  "員": 1530,
  "▁体制": 1531,
  "o": 1532,
  "ピ": 1533,
  "▁英": 1534,
  "▁矢": 1535,
  "▁人々": 1536,
  "霊": 1537,
  "▁計画": 1538,
  "サ": 1539,
  "▁正室": 1540,
  "▁特徴": 1541,
  "像": 1542,
  "跡": 1543,
  "▁津": 1544,
  "▁大寺": 1545,
  "次郎": 1546,
  "▁基本": 1547,
  "▁建て": 1548,
  "▁終": 1549,
  "テ": 1550,
  "▁筆": 1551,
  "▁調査": 1552,
  "刀": 1553,
  "▁_": 1554,
  "▁塔": 1555,
  "食": 1556,
  "▁叙": 1557,
  "▁含": 1558,
  "▁程度": 1559,
  "▁本尊": 1560,
  "▁異なる": 1561,
  "▁天保": 1562,
  "▁大夫": 1563,
  "▁味": 1564,
  "▁施設": 1565,
  "▁熊": 1566,
  "▁大津": 1567,
  "直": 1568,
  "郎": 1569,
  "▁消": 1570,
  "▁勘": 1571,
  "▁優": 1572,
  "▁現れ": 1573,
  "札": 1574,
  "太": 1575,
  "▁紫": 1576,
  "▁相当": 1577,
  "▁次第": 1578,
  "▁型": 1579,
  "▁及": 1580,
  "▁布": 1581,
  "▁用いる": 1582,
  "▁じょう": 1583,
  "▁工": 1584,
  "▁東山": 1585,
  "▁判": 1586,
  "▁量": 1587,
  "選": 1588,
  "▁挙げ": 1589,
  "▁正月": 1590,
  "印": 1591,
  "死": 1592,
  "▁尾": 1593,
  "▁美濃": 1594,
  "▁枚": 1595,
  "▁読": 1596,
  "▁湖": 1597,
  "▁ヶ": 1598,
  "去": 1599,
  "▁戦後": 1600,
  "▁立て": 1601,
  "ヤ": 1602,
  "観": 1603,
  "▁延暦": 1604,
  "▁決": 1605,
  "▁つけ": 1606,
  "▁蓮": 1607,
  "▁覚": 1608,
  "▁内閣": 1609,
  "▁あら": 1610,
  "▁発行": 1611,
  "▁続け": 1612,
  "囲": 1613,
  "▁状態": 1614,
  "ガ": 1615,
  "▁考": 1616,
  "▁大将": 1617,
  "退": 1618,
  "▁模": 1619,
  "坂": 1620,
  "越": 1621,
  "▁史料": 1622,
  "▁漢": 1623,
  "▁牛": 1624,
  "▁帯": 1625,
  "▁阪": 1626,
  "姫": 1627,
  "▁向か": 1628,
  "▁名前": 1629,
  "▁軍事": 1630,
  "▁低": 1631,
  "税": 1632,
  "宅": 1633,
  "▁堀": 1634,
  "▁切": 1635,
  "▁前期": 1636,
  "車": 1637,
  "▁伝承": 1638,
  "党": 1639,
  "▁主張": 1640,
  "▁里": 1641,
  "▁湯": 1642,
  "▁対象": 1643,
  "▁しょう": 1644,
  "▁視": 1645,
  "ペ": 1646,
  "▁設け": 1647,
  "▁寮": 1648,
  "▁表記": 1649,
  "▁表現": 1650,
  "使": 1651,
  "▁多数": 1652,
  "多": 1653,
  "派": 1654,
  "▁略": 1655,
  "▁贈": 1656,
  "小路": 1657,
  "▁完": 1658,
  "らか": 1659,
  "求": 1660,
  "▁俊": 1661,
  "▁文学": 1662,
  "▁待": 1663,
  "ザ": 1664,
  "備": 1665,
  "▁森": 1666,
  "＝": 1667,
  "▁遊": 1668,
  "▁基づ": 1669,
  "▁政策": 1670,
  "▁さん": 1671,
  "▁将": 1672,
  "▁任命": 1673,
  "▁割": 1674,
  "▁武蔵": 1675,
  "▁功": 1676,
  "急": 1677,
  "▁普通": 1678,
  "自": 1679,
  "▁器": 1680,
  "▁攻め": 1681,
  "▁落": 1682,
  "▁検": 1683,
  "▁江": 1684,
  "▁飛鳥": 1685,
  "▁歩": 1686,
  "三": 1687,
  "▁国司": 1688,
  "▁臣": 1689,
  "ション": 1690,
  "▁編纂": 1691,
  "船": 1692,
  "▁服": 1693,
  "▁浮": 1694,
  "守": 1695,
  "▁指": 1696,
  "ブ": 1697,
  "▁清盛": 1698,
  "▁予": 1699,
  "置": 1700,
  "盤": 1701,
  "▁聞": 1702,
  "▁保存": 1703,
  "玉": 1704,
  "▁房": 1705,
  "▁関西": 1706,
  "貨": 1707,
  "▁身分": 1708,
  "▁決定": 1709,
  "▁晴": 1710,
  "▁与": 1711,
  "付け": 1712,
  "▁古く": 1713,
  "全": 1714,
  "▁構成": 1715,
  "▁仙": 1716,
  "左衛門": 1717,
  "美": 1718,
  "u": 1719,
  "▁尾張": 1720,
  "▁誕生": 1721,
  "バ": 1722,
  "▁素": 1723,
  "種": 1724,
  "席": 1725,
  "▁断": 1726,
  "▁ミ": 1727,
  "態": 1728,
  "▁介": 1729,
  "▁呼び": 1730,
  "▁幕末": 1731,
  "▁宗教": 1732,
  "▁蘇": 1733,
  "▁貴": 1734,
  "謀": 1735,
  "▁細": 1736,
  "▁積": 1737,
  "▁祝": 1738,
  "▁銀行": 1739,
  "▁賞": 1740,
  "▁夏": 1741,
  "▁しか": 1742,
  "▁ただ": 1743,
  "▁道路": 1744,
  "▁文字": 1745,
  "▁弁": 1746,
  "▁管理": 1747,
  "▁既": 1748,
  "▁登": 1749,
  "足": 1750,
  "▁必": 1751,
  "▁大将軍": 1752,
  "詞": 1753,
  "極": 1754,
  "▁元号": 1755,
  "▁校": 1756,
  "エ": 1757,
  "▁慶応": 1758,
  "▁状況": 1759,
  "曲": 1760,
  "品": 1761,
  "▁庁": 1762,
  "▁自由": 1763,
  "▁問": 1764,
  "▁招": 1765,
  "▁創": 1766,
  "壬": 1767,
  "▁阿弥陀": 1768,
  "▁坂": 1769,
  "換": 1770,
  "断": 1771,
  "▁ぶ": 1772,
  "▁方法": 1773,
  "▁メートル": 1774,
  "▁開発": 1775,
  "▁独立": 1776,
  "▁いい": 1777,
  "寿": 1778,
  "▁血": 1779,
  "▁あま": 1780,
  "乱": 1781,
  "▁売": 1782,
  "右衛門": 1783,
  "約": 1784,
  "よ": 1785,
  "▁谷": 1786,
  "▁包": 1787,
  "▁儀式": 1788,
  "▁呼": 1789,
  "▁坊": 1790,
  "照": 1791,
  "介": 1792,
  "▁抄": 1793,
  "雲": 1794,
  "▁雅": 1795,
  "▁剣": 1796,
  "▁思": 1797,
  "▁行事": 1798,
  "▁過": 1799,
  "▁変化": 1800,
  "▁出し": 1801,
  "▁ホーム": 1802,
  "▁醍醐": 1803,
  "同": 1804,
  "▁陰陽": 1805,
  "図": 1806,
  "倒": 1807,
  "角": 1808,
  "佐": 1809,
  "▁願": 1810,
  "▁整備": 1811,
  "▁証": 1812,
  "▁拝": 1813,
  "▁建物": 1814,
  "▁射": 1815,
  "▁見る": 1816,
  "▁執": 1817,
  "▁傾": 1818,
  "垣": 1819,
  "▁栄": 1820,
  "れる": 1821,
  "傷": 1822,
  "▁コン": 1823,
  "▁宇": 1824,
  "春": 1825,
  "▁護": 1826,
  "▁免": 1827,
  "▁200": 1828,
  "▁賜": 1829,
  "▁料": 1830,
  "居": 1831,
  "▁尺": 1832,
  "茶": 1833,
  "察": 1834,
  "▁め": 1835,
  "▁弾": 1836,
  "▁高野": 1837,
  "切": 1838,
  "▁季": 1839,
  "導": 1840,
  "▁陣": 1841,
  "▁尊氏": 1842,
  "氏": 1843,
  "▁飲": 1844,
  "▁副": 1845,
  "▁観光": 1846,
  "▁友": 1847,
  "▁強い": 1848,
  "▁禁": 1849,
  "留": 1850,
  "▁福知": 1851,
  "衣": 1852,
  "▁差": 1853,
  "如": 1854,
  "▁滋賀": 1855,
  "▁条約": 1856,
  "▁攻撃": 1857,
  "▁自然": 1858,
  "▁付近": 1859,
  "▁組織": 1860,
  "三郎": 1861,
  "▁述べ": 1862,
  "▁リ": 1863,
  "▁納": 1864,
  "▁荒": 1865,
  "▁つつ": 1866,
  "丸": 1867,
  "彦": 1868,
  "▁木造": 1869,
  "▁老": 1870,
  "▁皇女": 1871,
  "園": 1872,
  "▁改革": 1873,
  "▁舞台": 1874,
  "市": 1875,
  "洋": 1876,
  "侶": 1877,
  "▁呼称": 1878,
  "▁歌人": 1879,
  "話": 1880,
  "▁界": 1881,
  "▁祀": 1882,
  "▁冠": 1883,
  "念": 1884,
  "べ": 1885,
  "▁太子": 1886,
  "止": 1887,
  "▁至る": 1888,
  "▁存": 1889,
  "▁ほう": 1890,
  "▁主義": 1891,
  "頃": 1892,
  "▁確立": 1893,
  "▁大社": 1894,
  "庭": 1895,
  "▁魚": 1896,
  "▁属": 1897,
  "▁彦": 1898,
  "▁新聞": 1899,
  "▁くる": 1900,
  "▁層": 1901,
  "価": 1902,
  "▁銭": 1903,
  "機": 1904,
  "喜": 1905,
  "広": 1906,
  "▁冬": 1907,
  "▁芸": 1908,
  "▁運行": 1909,
  "▁弥": 1910,
  "▁ごと": 1911,
  "かり": 1912,
  "基": 1913,
  "具": 1914,
  "▁日蓮": 1915,
  "▁近畿": 1916,
  "陣": 1917,
  "▁記念": 1918,
  "▁レ": 1919,
  "功": 1920,
  "ェ": 1921,
  "▁復": 1922,
  "▁出来": 1923,
  "▁上野": 1924,
  "▁モ": 1925,
  "儀": 1926,
  "準": 1927,
  "紀": 1928,
  "▁経由": 1929,
  "▁受ける": 1930,
  "▁寺社": 1931,
  "▁販売": 1932,
  "旨": 1933,
  "▁編": 1934,
  "弟": 1935,
  "▁言え": 1936,
  "▁版": 1937,
  "送": 1938,
  "▁街道": 1939,
  "▁著": 1940,
  "▁皇太子": 1941,
  "視": 1942,
  "音": 1943,
  "済": 1944,
  "庁": 1945,
  "的": 1946,
  "▁岡": 1947,
  "▁編成": 1948,
  "▁飛": 1949,
  "途": 1950,
  "先": 1951,
  "遇": 1952,
  "▁計": 1953,
  "▁折": 1954,
  "迦": 1955,
  "A": 1956,
  "替": 1957,
  "柄": 1958,
  "▁近い": 1959,
  "殺": 1960,
  "ゃ": 1961,
  "抗": 1962,
  "▁生産": 1963,
  "▁送": 1964,
  "▁雲": 1965,
  "延": 1966,
  "▁活": 1967,
  "ティ": 1968,
  "▁吉田": 1969,
  "▁受": 1970,
  "▁そ": 1971,
  "醍醐": 1972,
  "▁近世": 1973,
  "出す": 1974,
  "▁起": 1975,
  "束": 1976,
  "▁天下": 1977,
  "▁角": 1978,
  "▁制定": 1979,
  "▁今日": 1980,
  "▁改正": 1981,
  "▁行き": 1982,
  "▁温泉": 1983,
  "得": 1984,
  "▁初めて": 1985,
  "▁葛": 1986,
  "けれ": 1987,
  "▁夫": 1988,
  "▁課": 1989,
  "▁銅": 1990,
  "圧": 1991,
  "▁焼き": 1992,
  "▁三十": 1993,
  "▁浪": 1994,
  "▁形成": 1995,
  "▁アメリカ": 1996,
  "▁集め": 1997,
  "望": 1998,
  "店": 1999,
  "秀": 2000,
  "▁km": 2001,
  "▁行政": 2002,
  "▁秘": 2003,
  "▁すな": 2004,
  "モ": 2005,
  "▁接": 2006,
  "▁勧": 2007,
  "▁行な": 2008,
  "▁屋敷": 2009,
  "在": 2010,
  "▁しん": 2011,
  "もと": 2012,
  "沿": 2013,
  "▁規定": 2014,
  "▁意見": 2015,
  "▁港": 2016,
  "▁皇位": 2017,
  "▁容": 2018,
  "貞": 2019,
  "都": 2020,
  "▁桃山": 2021,
  "▁やま": 2022,
  "▁桜": 2023,
  "岸": 2024,
  "▁記載": 2025,
  "陽": 2026,
  "▁創建": 2027,
  "▁含む": 2028,
  "▁典": 2029,
  "総": 2030,
  "▁地区": 2031,
  "▁除": 2032,
  "帯": 2033,
  "京極": 2034,
  "▁やが": 2035,
  "▁飯": 2036,
  "▁吉野": 2037,
  "▁候": 2038,
  "▁音楽": 2039,
  "▁電車": 2040,
  "▁庵": 2041,
  "▁合わせ": 2042,
  "慶": 2043,
  "▁出雲": 2044,
  "衡": 2045,
  "池": 2046,
  "▁真宗": 2047,
  "▁中将": 2048,
  "草": 2049,
  "里": 2050,
  "▁散": 2051,
  "▁かん": 2052,
  "▁一揆": 2053,
  "航": 2054,
  "▁結婚": 2055,
  "▁尚": 2056,
  "▁智": 2057,
  "▁公園": 2058,
  "▁妹": 2059,
  "製": 2060,
  "-": 2061,
  "ング": 2062,
  "あ": 2063,
  "▁切り": 2064,
  "▁厚": 2065,
  "売": 2066,
  "験": 2067,
  "▁区間": 2068,
  "識": 2069,
  "▁祖父": 2070,
  "摩": 2071,
  "▁兼任": 2072,
  "▁すべ": 2073,
  "養": 2074,
  "計": 2075,
  "ラン": 2076,
  "▁鹿": 2077,
  "▁起源": 2078,
  "示": 2079,
  "▁上洛": 2080,
  "▁博士": 2081,
  "▁越前": 2082,
  "▁薄": 2083,
  "斎": 2084,
  "▁薬": 2085,
  "▁騎": 2086,
  "ご": 2087,
  "▁延喜": 2088,
  "▁兵庫": 2089,
  "▁絶": 2090,
  "かけ": 2091,
  "▁中宮": 2092,
  "八": 2093,
  "祭": 2094,
  "▁批判": 2095,
  "願": 2096,
  "▁施": 2097,
  "▁打ち": 2098,
  "▁一種": 2099,
  "局": 2100,
  "▁喜": 2101,
  "組": 2102,
  "▁嵯峨": 2103,
  "▁奪": 2104,
  "▁庄": 2105,
  "▁丹後": 2106,
  "▁柱": 2107,
  "▁留": 2108,
  "l": 2109,
  "▁衣": 2110,
  "▁比較": 2111,
  "ベ": 2112,
  "▁蔵人": 2113,
  "▁菅": 2114,
  "伏": 2115,
  "阿弥": 2116,
  "▁二十": 2117,
  "▁大内": 2118,
  "▁保護": 2119,
  "c": 2120,
  "▁西園": 2121,
  "▁残し": 2122,
  "▁ガ": 2123,
  "▁国内": 2124,
  "▁幅": 2125,
  "芸": 2126,
  "▁け": 2127,
  "▁チ": 2128,
  "▁軽": 2129,
  "▁構造": 2130,
  "I": 2131,
  "密": 2132,
  "▁進め": 2133,
  "礼": 2134,
  "▁戒": 2135,
  "▁救": 2136,
  "▁昇": 2137,
  "▁詩": 2138,
  "▁評": 2139,
  "▁墨": 2140,
  "▁ぎ": 2141,
  "▁改称": 2142,
  "状": 2143,
  "▁土佐": 2144,
  "走": 2145,
  "▁流派": 2146,
  "▁禁止": 2147,
  "▁神戸": 2148,
  "▁項": 2149,
  "▁後世": 2150,
  "告": 2151,
  "▁つく": 2152,
  "▁棟": 2153,
  "▁因": 2154,
  "勤": 2155,
  "兄": 2156,
  "▁宗家": 2157,
  "▁ヒ": 2158,
  "映": 2159,
  "案": 2160,
  "香": 2161,
  "▁営業": 2162,
  "▁金剛": 2163,
  "▁昇叙": 2164,
  "▁幹線": 2165,
  "ダ": 2166,
  "▁相続": 2167,
  "▁息子": 2168,
  "伐": 2169,
  "▁奏": 2170,
  "r": 2171,
  "▁輪": 2172,
  "▁撮": 2173,
  "巻": 2174,
  "▁範": 2175,
  "▁前後": 2176,
  "▁経営": 2177,
  "撰": 2178,
  "▁背景": 2179,
  "▁伝説": 2180,
  "▁稲": 2181,
  "▁別当": 2182,
  "与": 2183,
  "▁変更": 2184,
  "▁わけ": 2185,
  "▁念仏": 2186,
  "託": 2187,
  "▁採用": 2188,
  "▁固": 2189,
  "▁ポ": 2190,
  "▁厳": 2191,
  "▁種類": 2192,
  "▁橘": 2193,
  "辺": 2194,
  "提": 2195,
  "▁葉": 2196,
  "▁望": 2197,
  "談": 2198,
  "徒": 2199,
  "▁貫": 2200,
  "▁帰国": 2201,
  "▁難": 2202,
  "ける": 2203,
  "▁期間": 2204,
  "段": 2205,
  "章": 2206,
  "ワ": 2207,
  "結": 2208,
  "お": 2209,
  "▁採": 2210,
  "▁脱": 2211,
  "▁罪": 2212,
  "▁石川": 2213,
  "▁輸": 2214,
  "▁浜": 2215,
  "▁再建": 2216,
  "僧": 2217,
  "▁発見": 2218,
  "▁いえ": 2219,
  "▁熱": 2220,
  "▁休": 2221,
  "▁近鉄": 2222,
  "▁教え": 2223,
  "▁奉": 2224,
  "▁担当": 2225,
  "▁境内": 2226,
  "▁依": 2227,
  "▁播": 2228,
  "▁安置": 2229,
  "▁後継": 2230,
  "▁返": 2231,
  "▁訳": 2232,
  "▁ワ": 2233,
  "▁四条": 2234,
  "そ": 2235,
  "▁ざ": 2236,
  "▁導入": 2237,
  "▁熊野": 2238,
  "▁読み": 2239,
  "つけ": 2240,
  "▁含め": 2241,
  "▁詳細": 2242,
  "▁ナ": 2243,
  "封": 2244,
  "少": 2245,
  "▁確認": 2246,
  "▁扱": 2247,
  "▁特急": 2248,
  "▁違い": 2249,
  "▁示す": 2250,
  "誌": 2251,
  "▁半島": 2252,
  "▁一門": 2253,
  "▁分け": 2254,
  "▁担": 2255,
  "▁生没": 2256,
  "嗣": 2257,
  "疑": 2258,
  "▁cm": 2259,
  "▁突": 2260,
  "▁駿": 2261,
  "▁旗本": 2262,
  "ヨ": 2263,
  "今": 2264,
  "▁光秀": 2265,
  "▁言い": 2266,
  "▁見せ": 2267,
  "▁医": 2268,
  "育": 2269,
  "▁暗殺": 2270,
  "▁憲法": 2271,
  "回": 2272,
  "▁作成": 2273,
  "▁札": 2274,
  "▁なし": 2275,
  "澄": 2276,
  "▁捕": 2277,
  "貢": 2278,
  "縁": 2279,
  "継": 2280,
  "▁わた": 2281,
  "▁食べる": 2282,
  "穂": 2283,
  "ぜ": 2284,
  "▁挙兵": 2285,
  "終": 2286,
  "▁2006": 2287,
  "▁指摘": 2288,
  "▁分類": 2289,
  "張": 2290,
  "▁琵琶": 2291,
  "之助": 2292,
  "題": 2293,
  "康": 2294,
  "▁製造": 2295,
  "m": 2296,
  "▁投": 2297,
  "▁俗": 2298,
  "幡": 2299,
  "差": 2300,
  "球": 2301,
  "▁滅亡": 2302,
  "▁押": 2303,
  "想": 2304,
  "▁区別": 2305,
  "▁提": 2306,
  "空": 2307,
  "▁至": 2308,
  "滅": 2309,
  "▁詠": 2310,
  "かし": 2311,
  "▁仮": 2312,
  "▁又": 2313,
  "起": 2314,
  "▁貿易": 2315,
  "▁2007": 2316,
  "▁占": 2317,
  "▁芸術": 2318,
  "▁近く": 2319,
  "混": 2320,
  "▁あたり": 2321,
  "銭": 2322,
  "給": 2323,
  "▁食べ": 2324,
  "▁雪": 2325,
  "▁ド": 2326,
  "確": 2327,
  "▁背": 2328,
  "祖": 2329,
  "▁百済": 2330,
  "▁巨": 2331,
  "▁管領": 2332,
  "肉": 2333,
  "▁鋳": 2334,
  "▁あた": 2335,
  "▁ベ": 2336,
  "設": 2337,
  "▁所在": 2338,
  "賢": 2339,
  "▁擁": 2340,
  "リア": 2341,
  "▁国道": 2342,
  "証": 2343,
  "▁庭園": 2344,
  "便": 2345,
  "▁ちな": 2346,
  "▁伊藤": 2347,
  "▁修行": 2348,
  "▁唯": 2349,
  "伸": 2350,
  "尊": 2351,
  "▁みな": 2352,
  "▁似": 2353,
  "▁三河": 2354,
  "▁宮内": 2355,
  "▁称する": 2356,
  "S": 2357,
  "▁本堂": 2358,
  "▁観世": 2359,
  "▁ダ": 2360,
  "▁財政": 2361,
  "▁離れ": 2362,
  "▁ブ": 2363,
  "▁倉": 2364,
  "▁至っ": 2365,
  "幣": 2366,
  "浜": 2367,
  "ップ": 2368,
  "▁成功": 2369,
  "▁春日": 2370,
  "▁伝わる": 2371,
  "▁声": 2372,
  "g": 2373,
  "▁役割": 2374,
  "▁狩": 2375,
  "▁伝わ": 2376,
  "因": 2377,
  "▁単位": 2378,
  "丘": 2379,
  "▁指揮": 2380,
  "▁向": 2381,
  "込み": 2382,
  "▁降": 2383,
  "酒": 2384,
  "▁変わ": 2385,
  "類": 2386,
  "▁開催": 2387,
  "▁協会": 2388,
  "▁台湾": 2389,
  "▁すぐ": 2390,
  "▁代々": 2391,
  "▁隠": 2392,
  "調": 2393,
  "比": 2394,
  "▁拡大": 2395,
  "代わり": 2396,
  "令": 2397,
  "▁寸": 2398,
  "▁昇進": 2399,
  "変": 2400,
  "▁普及": 2401,
  "愛": 2402,
  "▁賀茂": 2403,
  "覧": 2404,
  "▁再興": 2405,
  "▁敬": 2406,
  "▁唱え": 2407,
  "威": 2408,
  "▁ゆ": 2409,
  "▁踏": 2410,
  "▁淀": 2411,
  "▁子供": 2412,
  "▁報": 2413,
  "▁甘": 2414,
  "▁邸": 2415,
  "▁随": 2416,
  "▁侍": 2417,
  "d": 2418,
  "殊": 2419,
  "修": 2420,
  "▁デ": 2421,
  "▁寝": 2422,
  "伴": 2423,
  "▁茂": 2424,
  "▁欠": 2425,
  "▁競": 2426,
  "▁落ち": 2427,
  "▁脇": 2428,
  "層": 2429,
  "存": 2430,
  "申": 2431,
  "五郎": 2432,
  "▁快速": 2433,
  "乗": 2434,
  "▁議員": 2435,
  "ジャ": 2436,
  "君": 2437,
  "合い": 2438,
  "▁徒歩": 2439,
  "▁麻呂": 2440,
  "▁優れ": 2441,
  "▁立像": 2442,
  "▁帳": 2443,
  "▁双": 2444,
  "▁ラ": 2445,
  "▁全体": 2446,
  "ポ": 2447,
  "▁雄": 2448,
  "▁帖": 2449,
  "▁実施": 2450,
  "従": 2451,
  "▁急行": 2452,
  "▁遣": 2453,
  "住": 2454,
  "▁植": 2455,
  "▁大久保": 2456,
  "▁解釈": 2457,
  "憲": 2458,
  "▁備": 2459,
  "▁院政": 2460,
  "▁ビ": 2461,
  "▁乗り": 2462,
  "▁甲斐": 2463,
  "▁激": 2464,
  "▁忍": 2465,
  "北": 2466,
  "句": 2467,
  "▁新田": 2468,
  "▁発表": 2469,
  "算": 2470,
  "澤": 2471,
  "▁立ち": 2472,
  "底": 2473,
  "▁ホ": 2474,
  "将": 2475,
  "▁崩御": 2476,
  "▁警": 2477,
  "▁信濃": 2478,
  "ディ": 2479,
  "▁丁": 2480,
  "▁犬": 2481,
  "▁標": 2482,
  "▁境": 2483,
  "▁憲": 2484,
  "刻": 2485,
  "▁太平": 2486,
  "▁東海道": 2487,
  "壇": 2488,
  "舎": 2489,
  "ゲ": 2490,
  "▁300": 2491,
  "習": 2492,
  "働": 2493,
  "費": 2494,
  "夜": 2495,
  "クラ": 2496,
  "▁安政": 2497,
  "討": 2498,
  "▁書き": 2499,
  "▁肥": 2500,
  "▁便": 2501,
  "▁統治": 2502,
  "▁道具": 2503,
  "納": 2504,
  "▁施行": 2505,
  "引": 2506,
  "立て": 2507,
  "▁伊達": 2508,
  "▁幽": 2509,
  "▁おお": 2510,
  "▁請": 2511,
  "雀": 2512,
  "▁敷": 2513,
  "▁文政": 2514,
  "▁国守": 2515,
  "なる": 2516,
  "▁純": 2517,
  "▁形態": 2518,
  "舞": 2519,
  "塔": 2520,
  "▁作り": 2521,
  "▁北海道": 2522,
  "▁伯": 2523,
  "絶": 2524,
  "孫": 2525,
  "▁申": 2526,
  "▁紋": 2527,
  "▁摂政": 2528,
  "▁錦": 2529,
  "▁動き": 2530,
  "▁後半": 2531,
  "梁": 2532,
  "▁密教": 2533,
  "▁妃": 2534,
  "▁認": 2535,
  "▁鷹": 2536,
  "▁官職": 2537,
  "▁使う": 2538,
  "源": 2539,
  "▁墳": 2540,
  "▁赴": 2541,
  "匠": 2542,
  "▁遺跡": 2543,
  "婚": 2544,
  "▁二人": 2545,
  "▁協": 2546,
  "▁吉良": 2547,
  "▁様式": 2548,
  "▁戻": 2549,
  "▁鴨": 2550,
  "▁停車": 2551,
  "▁斉": 2552,
  "p": 2553,
  "▁泉": 2554,
  "▁工事": 2555,
  "▁宣下": 2556,
  "▁指導": 2557,
  "服": 2558,
  "▁員": 2559,
  "▁適": 2560,
  "▁城主": 2561,
  "▁途中": 2562,
  "▁鑑": 2563,
  "易": 2564,
  "▁封": 2565,
  "亀": 2566,
  "▁関連": 2567,
  "N": 2568,
  "絵": 2569,
  "▁塚": 2570,
  "▁統一": 2571,
  "▁路": 2572,
  "▁異な": 2573,
  "▁神話": 2574,
  "▁木津": 2575,
  "▁任官": 2576,
  "▁左京": 2577,
  "▁敗れ": 2578,
  "▁合併": 2579,
  "幸": 2580,
  "▁株": 2581,
  "▁勲": 2582,
  "▁500": 2583,
  "▁生じ": 2584,
  "▁章": 2585,
  "▁越後": 2586,
  "入れ": 2587,
  "▁烏丸": 2588,
  "▁小説": 2589,
  "誉": 2590,
  "▁セ": 2591,
  "▁隠居": 2592,
  "▁会津": 2593,
  "古屋": 2594,
  "復": 2595,
  "▁プロ": 2596,
  "善": 2597,
  "▁繁": 2598,
  "▁例え": 2599,
  "▁記事": 2600,
  "▁訪れ": 2601,
  "奏": 2602,
  "▁庶": 2603,
  "渡": 2604,
  "▁示し": 2605,
  "▁造営": 2606,
  "まる": 2607,
  "▁干": 2608,
  "▁分かれ": 2609,
  "▁よし": 2610,
  "▁きょう": 2611,
  "挙": 2612,
  "▁初め": 2613,
  "▁まず": 2614,
  "▁敦": 2615,
  "岳": 2616,
  "離": 2617,
  "▁庭": 2618,
  "▁対応": 2619,
  "▁絹": 2620,
  "▁刑": 2621,
  "▁げ": 2622,
  "▁かた": 2623,
  "▁交渉": 2624,
  "▁歴任": 2625,
  "ント": 2626,
  "▁拒": 2627,
  "▁質": 2628,
  "▁教授": 2629,
  "▁義仲": 2630,
  "▁文久": 2631,
  "布": 2632,
  "▁給": 2633,
  "・": 2634,
  "▁年代": 2635,
  "▁連合": 2636,
  "▁学生": 2637,
  "▁ツ": 2638,
  "▁走": 2639,
  "壁": 2640,
  "▁扇": 2641,
  "▁行動": 2642,
  "厳": 2643,
  "僚": 2644,
  "▁アジア": 2645,
  "レー": 2646,
  "ーズ": 2647,
  "▁徴": 2648,
  "▁牧": 2649,
  "▁※": 2650,
  "▁出版": 2651,
  "▁鶴": 2652,
  "▁なさ": 2653,
  "デ": 2654,
  "イン": 2655,
  "▁作者": 2656,
  "▁テ": 2657,
  "▁煮": 2658,
  "▁叡": 2659,
  "▁ロ": 2660,
  "韓": 2661,
  "▁ぼ": 2662,
  "▁銘": 2663,
  "却": 2664,
  "▁圧": 2665,
  "▁本山": 2666,
  "▁波": 2667,
  "板": 2668,
  "孝": 2669,
  "▁小野": 2670,
  "▁閉": 2671,
  "▁醤油": 2672,
  "普": 2673,
  "階": 2674,
  "▁文章": 2675,
  "▁千葉": 2676,
  "▁向け": 2677,
  "▁庶民": 2678,
  "▁離": 2679,
  "▁油": 2680,
  "庫": 2681,
  "▁追放": 2682,
  "▁少将": 2683,
  "▁性格": 2684,
  "しろ": 2685,
  "▁わか": 2686,
  "▁侍従": 2687,
  "▁供養": 2688,
  "▁逃れ": 2689,
  "T": 2690,
  "▁簡": 2691,
  "衙": 2692,
  "▁蝦夷": 2693,
  "▁名乗": 2694,
  "▁温": 2695,
  "▁行為": 2696,
  "▁しゅ": 2697,
  "▁鹿児": 2698,
  "▁功績": 2699,
  "▁監": 2700,
  "丹": 2701,
  "▁畠": 2702,
  "▁六角": 2703,
  "返し": 2704,
  "▁姉": 2705,
  "▁家老": 2706,
  "請": 2707,
  "▁堺": 2708,
  "▁亀": 2709,
  "▁地蔵": 2710,
  "▁会議": 2711,
  "▁任ぜ": 2712,
  "▁皮": 2713,
  "父": 2714,
  "▁ヲ": 2715,
  "▁狭": 2716,
  "駒": 2717,
  "▁当たる": 2718,
  "▁刺": 2719,
  "▁箱": 2720,
  "▁技": 2721,
  "▁かみ": 2722,
  "資": 2723,
  "災": 2724,
  "▁賢": 2725,
  "否": 2726,
  "▁ころ": 2727,
  "十郎": 2728,
  "ヴ": 2729,
  "▁命令": 2730,
  "ボ": 2731,
  "▁人気": 2732,
  "▁夢": 2733,
  "▁讃": 2734,
  "▁もう": 2735,
  "▁ケ": 2736,
  "▁寛文": 2737,
  "二": 2738,
  "▁懐": 2739,
  "▁攻": 2740,
  "▁平城": 2741,
  "E": 2742,
  "后": 2743,
  "連": 2744,
  "▁過ぎ": 2745,
  "▁浦": 2746,
  "▁しばし": 2747,
  "慮": 2748,
  "▁危": 2749,
  "▁撰": 2750,
  "予": 2751,
  "▁生き": 2752,
  "▁ちょう": 2753,
  "▁左右": 2754,
  "▁就": 2755,
  "▁岩倉": 2756,
  "侍": 2757,
  "▁右京": 2758,
  "▁地名": 2759,
  "▁洛": 2760,
  "▁義満": 2761,
  "▁団体": 2762,
  "▁濃": 2763,
  "▁級": 2764,
  "撤": 2765,
  "ふ": 2766,
  "▁恋": 2767,
  "▁往": 2768,
  "▁争い": 2769,
  "管": 2770,
  "マン": 2771,
  "▁車両": 2772,
  "▁大師": 2773,
  "破": 2774,
  "ハ": 2775,
  "▁流行": 2776,
  "港": 2777,
  "▁鞍": 2778,
  "%": 2779,
  "▁斯": 2780,
  "弘": 2781,
  "▁案": 2782,
  "▁戦死": 2783,
  "▁追討": 2784,
  "▁000": 2785,
  "やか": 2786,
  "▁常陸": 2787,
  "▁拠点": 2788,
  "▁見える": 2789,
  "▁造り": 2790,
  "叡": 2791,
  "ユ": 2792,
  "▁概要": 2793,
  "▁加賀": 2794,
  "▁所有": 2795,
  "▁軒": 2796,
  "交": 2797,
  "▁まだ": 2798,
  "▁使者": 2799,
  "▁出土": 2800,
  "▁惟": 2801,
  "▁山田": 2802,
  "則": 2803,
  "▁須": 2804,
  "▁顔": 2805,
  "▁加わ": 2806,
  "▁録": 2807,
  "▁劇": 2808,
  "▁処": 2809,
  "▁原因": 2810,
  "尉": 2811,
  "▁生涯": 2812,
  "▁街": 2813,
  "▁数え": 2814,
  "▁被": 2815,
  "▁昌": 2816,
  "栄": 2817,
  "額": 2818,
  "▁小さ": 2819,
  "▁雨": 2820,
  "詣": 2821,
  "▁C": 2822,
  "▁関わ": 2823,
  "▁ボ": 2824,
  "▁畿内": 2825,
  "▁センター": 2826,
  "▁応じ": 2827,
  "▁可": 2828,
  "塚": 2829,
  "ーム": 2830,
  "▁名乗る": 2831,
  "季": 2832,
  "▁由": 2833,
  "速": 2834,
  "▁)-": 2835,
  "校": 2836,
  "▁開設": 2837,
  "▁始まる": 2838,
  "▁句": 2839,
  "▁○": 2840,
  "敷": 2841,
  "▁水戸": 2842,
  "▁肉": 2843,
  "▁天王": 2844,
  "▁移転": 2845,
  "露": 2846,
  "▁提出": 2847,
  "▁地頭": 2848,
  "▁2005": 2849,
  "▁せい": 2850,
  "▁邦": 2851,
  "▁岡山": 2852,
  "▁市川": 2853,
  "ーク": 2854,
  "▁インド": 2855,
  "▁葬": 2856,
  "末": 2857,
  "▁べ": 2858,
  "▁樹": 2859,
  "▁晩年": 2860,
  "▁学問": 2861,
  "▁大蔵": 2862,
  "▁登録": 2863,
  "▁苦": 2864,
  "▁不動": 2865,
  "▁終わ": 2866,
  "▁惣": 2867,
  "▁囲": 2868,
  "▁だい": 2869,
  "っとも": 2870,
  "すで": 2871,
  "▁商人": 2872,
  "▁峠": 2873,
  "▁東北": 2874,
  "彩": 2875,
  "▁男子": 2876,
  "▁律": 2877,
  "ョ": 2878,
  "▁焼失": 2879,
  "▁農民": 2880,
  "坊": 2881,
  "▁慈": 2882,
  "O": 2883,
  "▁端": 2884,
  "▁刊行": 2885,
  "▁著し": 2886,
  "▁詔": 2887,
  "旦": 2888,
  "節": 2889,
  "豆": 2890,
  "▁代わ": 2891,
  "▁古い": 2892,
  "▁び": 2893,
  "▁ライ": 2894,
  "▁祭神": 2895,
  "▁陶": 2896,
  "▁ごろ": 2897,
  "▁写本": 2898,
  "▁公開": 2899,
  "▁練": 2900,
  "▁是": 2901,
  "番": 2902,
  "▁役者": 2903,
  "▁陽": 2904,
  "▁即": 2905,
  "がっ": 2906,
  "竹": 2907,
  "▁師範": 2908,
  "▁蒲": 2909,
  "▁仮名": 2910,
  "▁吹": 2911,
  "▁結成": 2912,
  "▁静": 2913,
  "県": 2914,
  "▁茶道": 2915,
  "悲": 2916,
  "▁文献": 2917,
  "▁恵": 2918,
  "釈": 2919,
  "那": 2920,
  "▁情報": 2921,
  "▁信玄": 2922,
  "▁電鉄": 2923,
  "▁薨去": 2924,
  "爵": 2925,
  "入り": 2926,
  "▁別名": 2927,
  "除": 2928,
  "▁伊賀": 2929,
  "▁照": 2930,
  "▁衰退": 2931,
  "バー": 2932,
  "▁和泉": 2933,
  "▁粉": 2934,
  "雷": 2935,
  "六": 2936,
  "▁直後": 2937,
  "▁作る": 2938,
  "▁内裏": 2939,
  "禅": 2940,
  "▁才": 2941,
  "▁思い": 2942,
  "▁菓子": 2943,
  "陀": 2944,
  "▁否定": 2945,
  "▁大神": 2946,
  "▁激し": 2947,
  "塾": 2948,
  "▁祇園": 2949,
  "▁無く": 2950,
  "▁薩": 2951,
  "▁策": 2952,
  "▁元服": 2953,
  "判": 2954,
  "▁圏": 2955,
  "切り": 2956,
  "h": 2957,
  "▁系図": 2958,
  "▁墓所": 2959,
  "▁女子": 2960,
  "閣": 2961,
  "録": 2962,
  "▁すれ": 2963,
  "浴": 2964,
  "▁同盟": 2965,
  "▁件": 2966,
  "▁吾妻": 2967,
  "▁岐": 2968,
  "▁2000": 2969,
  "▁刻": 2970,
  "享": 2971,
  "▁貞観": 2972,
  "▁停": 2973,
  "▁狂言": 2974,
  "▁尽": 2975,
  "▁制作": 2976,
  "▁師事": 2977,
  "▁奇": 2978,
  "十": 2979,
  "致": 2980,
  "▁次い": 2981,
  "▁2008": 2982,
  "妻": 2983,
  "▁東国": 2984,
  "▁指し": 2985,
  "▁衛": 2986,
  "▁あげ": 2987,
  "▁越": 2988,
  "▁南部": 2989,
  "▁外交": 2990,
  "象": 2991,
  "▁蒸": 2992,
  "▁分離": 2993,
  "込ま": 2994,
  "▁様子": 2995,
  "？": 2996,
  "隈": 2997,
  "▁果": 2998,
  "▁始まり": 2999,
  "千": 3000,
  "▁露": 3001,
  "▁比べ": 3002,
  "▁契": 3003,
  "▁祀る": 3004,
  "イス": 3005,
  "▁価値": 3006,
  "洲": 3007,
  "▁条件": 3008,
  "▁着用": 3009,
  "▁税": 3010,
  "▁杉": 3011,
  "▁イギリス": 3012,
  "▁流通": 3013,
  "▁果たし": 3014,
  "▁伝える": 3015,
  "▁あれ": 3016,
  "▁紹介": 3017,
  "ソ": 3018,
  "▁筑": 3019,
  "譜": 3020,
  "▁伝来": 3021,
  "▁復活": 3022,
  "▁設定": 3023,
  "桓": 3024,
  "▁復興": 3025,
  "ひ": 3026,
  "▁許可": 3027,
  "▁所蔵": 3028,
  "?": 3029,
  "▁掛け": 3030,
  "▁去": 3031,
  "▁額": 3032,
  "▁機能": 3033,
  "▁箏": 3034,
  "襲": 3035,
  "答": 3036,
  "▁裁判": 3037,
  "▁天守": 3038,
  "▁浄": 3039,
  "積": 3040,
  "▁展開": 3041,
  "▁編入": 3042,
  "▁天神": 3043,
  "▁遷": 3044,
  "庵": 3045,
  "▁偽": 3046,
  "葬": 3047,
  "史": 3048,
  "▁歴代": 3049,
  "▁方向": 3050,
  "▁起き": 3051,
  "貫": 3052,
  "▁かなり": 3053,
  "四郎": 3054,
  "邸": 3055,
  "▁老中": 3056,
  "▁長者": 3057,
  "▁郎": 3058,
  "森": 3059,
  "▁弱": 3060,
  "▁わず": 3061,
  "▁ます": 3062,
  "▁キャ": 3063,
  "ンゴ": 3064,
  "待": 3065,
  "▁高倉": 3066,
  "▁掛": 3067,
  "▁算": 3068,
  "▁卒業": 3069,
  "▁空海": 3070,
  "互": 3071,
  "▁違": 3072,
  "曜": 3073,
  "▁属す": 3074,
  "息": 3075,
  "タン": 3076,
  "▁敗": 3077,
  "▁協力": 3078,
  "きり": 3079,
  "▁めぐ": 3080,
  "倍": 3081,
  "▁冊": 3082,
  "績": 3083,
  "▁使い": 3084,
  "▁我": 3085,
  "▁斬": 3086,
  "▁フランス": 3087,
  "▁得る": 3088,
  "▁清水": 3089,
  "▁宋": 3090,
  "▁張": 3091,
  "鼓": 3092,
  "▁髪": 3093,
  "▁大宮": 3094,
  "▁ロシア": 3095,
  "▁恒": 3096,
  "ード": 3097,
  "己": 3098,
  "奈": 3099,
  "▁よい": 3100,
  "▁銃": 3101,
  "▁住宅": 3102,
  "真": 3103,
  "そも": 3104,
  "▁貨幣": 3105,
  "▁亡": 3106,
  "セ": 3107,
  "ーン": 3108,
  "▁世襲": 3109,
  "▁もち": 3110,
  "担": 3111,
  "▁餅": 3112,
  "弁": 3113,
  "▁サン": 3114,
  "容": 3115,
  "替え": 3116,
  "▁極め": 3117,
  "聞": 3118,
  "▁交流": 3119,
  "▁キリス": 3120,
  "▁つき": 3121,
  "▁床": 3122,
  "刊": 3123,
  "▁ぞ": 3124,
  "▁責": 3125,
  "▁奥州": 3126,
  "▁陰": 3127,
  "▁那": 3128,
  "▁創設": 3129,
  "麗": 3130,
  "▁減": 3131,
  "▁報告": 3132,
  "▁テレビ": 3133,
  "▁勇": 3134,
  "▁曼荼羅": 3135,
  "▁目指": 3136,
  "▁穴": 3137,
  "まざま": 3138,
  "▁星": 3139,
  "▁三重": 3140,
  "▁亡くな": 3141,
  "▁若狭": 3142,
  "▁確": 3143,
  "▁騒動": 3144,
  "衛": 3145,
  "▁建造": 3146,
  "▁州": 3147,
  "▁陥": 3148,
  "▁買": 3149,
  "▁席": 3150,
  "電": 3151,
  "▁国鉄": 3152,
  "▁三位": 3153,
  "▁垂": 3154,
  "百": 3155,
  "▁K": 3156,
  "▁運営": 3157,
  "▁説明": 3158,
  "測": 3159,
  "▁辞任": 3160,
  "▁坐像": 3161,
  "唐": 3162,
  "▁推測": 3163,
  "▁抜": 3164,
  "▁重ね": 3165,
  "▁方針": 3166,
  "謡": 3167,
  "▁嵐山": 3168,
  "▁落語": 3169,
  "▁堅": 3170,
  "握": 3171,
  "▁科学": 3172,
  "▁韓国": 3173,
  "恵": 3174,
  "▁写": 3175,
  "▁伊豆": 3176,
  "D": 3177,
  "▁復帰": 3178,
  "▁長岡": 3179,
  "▁稲荷": 3180,
  "▁屋根": 3181,
  "▁笠": 3182,
  "焼き": 3183,
  "▁染": 3184,
  "▁費": 3185,
  "▁演じ": 3186,
  "▁管": 3187,
  "▁側近": 3188,
  "漢": 3189,
  "▁事情": 3190,
  "呂": 3191,
  "▁儀": 3192,
  "好み": 3193,
  "▁併": 3194,
  "▁妖怪": 3195,
  "▁曾": 3196,
  "▁配置": 3197,
  "▁五十": 3198,
  "▁処分": 3199,
  "鹿": 3200,
  "無": 3201,
  "宣": 3202,
  "砲": 3203,
  "▁富士": 3204,
  "▁しも": 3205,
  "▁おか": 3206,
  "▁儒": 3207,
  "▁ソ": 3208,
  "▁年度": 3209,
  "▁蕎麦": 3210,
  "▁良い": 3211,
  "薬": 3212,
  "フィ": 3213,
  "▁上方": 3214,
  "幕": 3215,
  "飯": 3216,
  "▁長官": 3217,
  "▁混乱": 3218,
  "▁諸説": 3219,
  "▁菩": 3220,
  "▁援": 3221,
  "▁位階": 3222,
  "▁絵画": 3223,
  "▁誓": 3224,
  "▁竜": 3225,
  "▁大石": 3226,
  "邪": 3227,
  "▁速": 3228,
  "べく": 3229,
  "▁嫁": 3230,
  "▁大戦": 3231,
  "ファ": 3232,
  "▁巻き": 3233,
  "▁人口": 3234,
  "▁醸": 3235,
  "■": 3236,
  "列": 3237,
  "スタ": 3238,
  "▁海外": 3239,
  "▁降伏": 3240,
  "▁タイ": 3241,
  "▁胤": 3242,
  "から": 3243,
  "▁主人": 3244,
  "禰": 3245,
  "▁つなが": 3246,
  "婿": 3247,
  "▁家系": 3248,
  "▁辺": 3249,
  "k": 3250,
  "衰": 3251,
  "ほ": 3252,
  "鏡": 3253,
  "▁ロー": 3254,
  "▁原則": 3255,
  "▁放送": 3256,
  "罪": 3257,
  "▁兼ね": 3258,
  "首": 3259,
  "雨": 3260,
  "▁警察": 3261,
  "葺": 3262,
  "▁小笠": 3263,
  "▁づ": 3264,
  "▁於": 3265,
  "▁増え": 3266,
  "籠": 3267,
  "取り": 3268,
  "▁序": 3269,
  "▁則": 3270,
  "▁長い": 3271,
  "▁羅": 3272,
  "崩": 3273,
  "▁網": 3274,
  "載": 3275,
  "転": 3276,
  "▁逸話": 3277,
  "▁祭祀": 3278,
  "▁峰": 3279,
  "ブル": 3280,
  "▁衛門": 3281,
  "麦": 3282,
  "▁こそ": 3283,
  "▁深い": 3284,
  "返": 3285,
  "▁輝": 3286,
  "▁占め": 3287,
  "▁華族": 3288,
  "▁皇太后": 3289,
  "円": 3290,
  "▁北部": 3291,
  "▁侵攻": 3292,
  "訴": 3293,
  "▁綾": 3294,
  "レン": 3295,
  "▁将門": 3296,
  "▁始": 3297,
  "▁人形": 3298,
  "▁公方": 3299,
  "▁押し": 3300,
  "▁抱": 3301,
  "▁増加": 3302,
  "▁諱": 3303,
  "▁箇所": 3304,
  "昌": 3305,
  "▁演奏": 3306,
  "▁用語": 3307,
  "毒": 3308,
  "▁胡": 3309,
  "▁還": 3310,
  "▁授け": 3311,
  "▁取っ": 3312,
  "▁出る": 3313,
  "査": 3314,
  "▁謀反": 3315,
  "骨": 3316,
  "▁転じ": 3317,
  "▁東寺": 3318,
  "ヒ": 3319,
  "残": 3320,
  "帝": 3321,
  "▁甥": 3322,
  "▁芳": 3323,
  "▁鳴": 3324,
  "がり": 3325,
  "▁宗派": 3326,
  "銅": 3327,
  "▁根拠": 3328,
  "▁形状": 3329,
  "豊": 3330,
  "▁法律": 3331,
  "▁田中": 3332,
  "ゴ": 3333,
  "▁称号": 3334,
  "n": 3335,
  "▁意識": 3336,
  "曽": 3337,
  "▁削": 3338,
  "▁戦闘": 3339,
  "鎖": 3340,
  "▁A": 3341,
  "▁李": 3342,
  "▁祭り": 3343,
  "▁太鼓": 3344,
  "▁法名": 3345,
  "▁静岡": 3346,
  "舟": 3347,
  "避": 3348,
  "▁其": 3349,
  "▁衝": 3350,
  "俊": 3351,
  "▁楽器": 3352,
  "▁始ま": 3353,
  "R": 3354,
  "▁黒田": 3355,
  "▁高速": 3356,
  "”": 3357,
  "▁づけ": 3358,
  "▁滝": 3359,
  "▁著名": 3360,
  "▁追い": 3361,
  "▁文庫": 3362,
  "▁明王": 3363,
  "髪": 3364,
  "▁乙": 3365,
  "▁出羽": 3366,
  "▁どの": 3367,
  "▁絵巻": 3368,
  "▁うどん": 3369,
  "沼": 3370,
  "辰": 3371,
  "敗": 3372,
  "▁漁": 3373,
  "▁昼": 3374,
  "▁坂本": 3375,
  "継ぎ": 3376,
  "▁洗": 3377,
  "報": 3378,
  "▁磐": 3379,
  "▁亀山": 3380,
  "▁決め": 3381,
  "▁柔": 3382,
  "胤": 3383,
  "▁詳し": 3384,
  "▁逃げ": 3385,
  "稚": 3386,
  "▁切腹": 3387,
  "▁所属": 3388,
  "阜": 3389,
  "ルト": 3390,
  "策": 3391,
  "染": 3392,
  "▁正平": 3393,
  "▁転任": 3394,
  "均": 3395,
  "▁授": 3396,
  "▁ドラマ": 3397,
  "▁除く": 3398,
  "括": 3399,
  "▁和歌山": 3400,
  "▁考える": 3401,
  "▁縄": 3402,
  "▁誤": 3403,
  "▁延長": 3404,
  "筒": 3405,
  "▁やす": 3406,
  "▁利休": 3407,
  "▁探": 3408,
  "▁持た": 3409,
  "病": 3410,
  "▁催": 3411,
  "▁執権": 3412,
  "▁感じ": 3413,
  "▁いち": 3414,
  "継ぐ": 3415,
  "▁一切": 3416,
  "壊": 3417,
  "せる": 3418,
  "▁恐れ": 3419,
  "軽": 3420,
  "▁桐": 3421,
  "▁渋": 3422,
  "▁義昭": 3423,
  "毘": 3424,
  "▁仏像": 3425,
  "▁扱い": 3426,
  "▁ゴ": 3427,
  "▁秩": 3428,
  "負": 3429,
  "粉": 3430,
  "▁益": 3431,
  "整": 3432,
  "▁段階": 3433,
  "▁S": 3434,
  "リン": 3435,
  "素": 3436,
  "▁五条": 3437,
  "▁差し": 3438,
  "異": 3439,
  "▁失敗": 3440,
  "特": 3441,
  "▁女御": 3442,
  "ずる": 3443,
  "脈": 3444,
  "ゅ": 3445,
  "耕": 3446,
  "▁革": 3447,
  "▁祐": 3448,
  "▁攘": 3449,
  "▁申し": 3450,
  "干": 3451,
  "笑": 3452,
  "▁まとめ": 3453,
  "▁石山": 3454,
  "▁備え": 3455,
  "▁政務": 3456,
  "▁酒造": 3457,
  "▁准": 3458,
  "撲": 3459,
  "▁丹": 3460,
  "泊": 3461,
  "▁瓦": 3462,
  "富": 3463,
  "▁表す": 3464,
  "▁経典": 3465,
  "唱": 3466,
  "▁基礎": 3467,
  "宰": 3468,
  "▁もつ": 3469,
  "▁審": 3470,
  "▁征伐": 3471,
  "ォ": 3472,
  "参": 3473,
  "防": 3474,
  "▁工業": 3475,
  "▁通し": 3476,
  "▁支え": 3477,
  "なっ": 3478,
  "▁下り": 3479,
  "▁振": 3480,
  "還": 3481,
  "▁塗": 3482,
  "▁そば": 3483,
  "▁実現": 3484,
  "ショ": 3485,
  "▁もたら": 3486,
  "▁寄進": 3487,
  "▁避け": 3488,
  "▁三成": 3489,
  "▁まつ": 3490,
  "宿": 3491,
  "戒": 3492,
  "▁忌": 3493,
  "闘": 3494,
  "媛": 3495,
  "▁閏": 3496,
  "▁T": 3497,
  "▁沙": 3498,
  "▁叔父": 3499,
  "▁学び": 3500,
  "▁本文": 3501,
  "▁留学": 3502,
  "▁みや": 3503,
  "▁氏族": 3504,
  "▁効果": 3505,
  "▁産業": 3506,
  "▁中山": 3507,
  "▁昔": 3508,
  "▁要素": 3509,
  "▁作業": 3510,
  "▁率": 3511,
  "▁襲": 3512,
  "▁縁起": 3513,
  "窓": 3514,
  "▁反乱": 3515,
  "▁ばかり": 3516,
  "▁輔": 3517,
  "▁嫌": 3518,
  "▁威": 3519,
  "C": 3520,
  "▁愛宕": 3521,
  "▁発掘": 3522,
  "演": 3523,
  "そう": 3524,
  "▁國": 3525,
  "▁史跡": 3526,
  "▁北陸": 3527,
  "▁租": 3528,
  "▁念": 3529,
  "賊": 3530,
  "▁支援": 3531,
  "▁駆": 3532,
  "▁古典": 3533,
  "征": 3534,
  "▁東宮": 3535,
  "▁篠": 3536,
  "▁国造": 3537,
  "迎": 3538,
  "▁納め": 3539,
  "▁皇帝": 3540,
  "幅": 3541,
  "▁淳": 3542,
  "▁訓": 3543,
  "湯": 3544,
  "▁イン": 3545,
  "▁補任": 3546,
  "▁嘉永": 3547,
  "▁予定": 3548,
  "弦": 3549,
  "索": 3550,
  "▁概念": 3551,
  "▁融": 3552,
  "▁重臣": 3553,
  "▁まさ": 3554,
  "▁糸": 3555,
  "畑": 3556,
  "▁太郎": 3557,
  "▁委員": 3558,
  "y": 3559,
  "▁金堂": 3560,
  "虫": 3561,
  "▁薬師": 3562,
  "▁ヨーロッパ": 3563,
  "▁勤め": 3564,
  "▁重視": 3565,
  "順": 3566,
  "決": 3567,
  "▁嗣": 3568,
  "▁系譜": 3569,
  "▁P": 3570,
  "鬼": 3571,
  "▁卵": 3572,
  "▁灯": 3573,
  "▁小田": 3574,
  "締": 3575,
  "▁対抗": 3576,
  "▁権限": 3577,
  "▁たとえ": 3578,
  "▁筋": 3579,
  "▁小倉": 3580,
  "弓": 3581,
  "▁壁": 3582,
  "郵": 3583,
  "声": 3584,
  "▁やすい": 3585,
  "難": 3586,
  "俗": 3587,
  "▁福井": 3588,
  "▁議": 3589,
  "▁乗車": 3590,
  "帥": 3591,
  "劇": 3592,
  "▁知る": 3593,
  "▁ざる": 3594,
  "―": 3595,
  "▁了": 3596,
  "委": 3597,
  "▁ヤマト": 3598,
  "艦": 3599,
  "▁難波": 3600,
  "▁ふじわら": 3601,
  "P": 3602,
  "▁せん": 3603,
  "▁住職": 3604,
  "▁取り入れ": 3605,
  "潮": 3606,
  "らく": 3607,
  "▁芸能": 3608,
  "▁寿司": 3609,
  "▁送り": 3610,
  "問": 3611,
  "編": 3612,
  "▁砂": 3613,
  "▁技法": 3614,
  "▁暴": 3615,
  "似": 3616,
  "▁排": 3617,
  "▁2004": 3618,
  "▁山崎": 3619,
  "▁犯": 3620,
  "わり": 3621,
  "▁珠": 3622,
  "▁いん": 3623,
  "棄": 3624,
  "▁北朝": 3625,
  "早": 3626,
  "▁下車": 3627,
  "▁券": 3628,
  "環": 3629,
  "欧": 3630,
  "▁秋田": 3631,
  "▁下向": 3632,
  "▁秀忠": 3633,
  "▁朝臣": 3634,
  "歩": 3635,
  "▁定着": 3636,
  "▁書道": 3637,
  "▁楠": 3638,
  "尚": 3639,
  "▁学ぶ": 3640,
  "項": 3641,
  "▁籠": 3642,
  "砂": 3643,
  "のう": 3644,
  "寄": 3645,
  "卑": 3646,
  "規": 3647,
  "▁撃": 3648,
  "強": 3649,
  "an": 3650,
  "波羅": 3651,
  "▁あと": 3652,
  "▁碑": 3653,
  "▁争": 3654,
  "▁知っ": 3655,
  "旬": 3656,
  "▁後円": 3657,
  "▁田辺": 3658,
  "▁厳し": 3659,
  "▁基準": 3660,
  "揚": 3661,
  "思": 3662,
  "寧": 3663,
  "▁経緯": 3664,
  "▁折り": 3665,
  "歴": 3666,
  "▁寒": 3667,
  "▁おこな": 3668,
  "▁袖": 3669,
  "丼": 3670,
  "黒": 3671,
  "賞": 3672,
  "▁女王": 3673,
  "▁数多": 3674,
  "遠": 3675,
  "▁象徴": 3676,
  "盟": 3677,
  "預": 3678,
  "▁旨": 3679,
  "暮": 3680,
  "▁山陰": 3681,
  "▁酸": 3682,
  "▁統合": 3683,
  "ゆ": 3684,
  "程": 3685,
  "散": 3686,
  "▁駐": 3687,
  "云": 3688,
  "▁悟": 3689,
  "放": 3690,
  "▁行く": 3691,
  "▁隣": 3692,
  "▁扶": 3693,
  "▁到着": 3694,
  "街": 3695,
  "商": 3696,
  "▁愛知": 3697,
  "▁長野": 3698,
  "▁したが": 3699,
  "▁乾": 3700,
  "減": 3701,
  "ちら": 3702,
  "▁総督": 3703,
  "▁民俗": 3704,
  "▁山内": 3705,
  "魔": 3706,
  "▁夕": 3707,
  "ぬ": 3708,
  "小": 3709,
  "▁シテ": 3710,
  "▁親し": 3711,
  "▁表示": 3712,
  "▁想": 3713,
  "詳": 3714,
  "穀": 3715,
  "罰": 3716,
  "▁工芸": 3717,
  "▁大路": 3718,
  "毛": 3719,
  "▁上人": 3720,
  "▁漆": 3721,
  "仙": 3722,
  "腕": 3723,
  "下げ": 3724,
  "▁附": 3725,
  "▁移り": 3726,
  "▁要請": 3727,
  "▁変え": 3728,
  "▁オー": 3729,
  "▁右衛門": 3730,
  "苑": 3731,
  "▁範囲": 3732,
  "▁共同": 3733,
  "届": 3734,
  "▁談": 3735,
  "▁文治": 3736,
  "▁困難": 3737,
  "▁進出": 3738,
  "海人": 3739,
  "潟": 3740,
  "鉢": 3741,
  "▁鉱": 3742,
  "▁佐々木": 3743,
  "▁展示": 3744,
  "▁役職": 3745,
  "▁親鸞": 3746,
  "▁虎": 3747,
  "隅": 3748,
  "▁怪": 3749,
  "▁付き": 3750,
  "狗": 3751,
  "▁医学": 3752,
  "▁死亡": 3753,
  "▁緩": 3754,
  "▁慣": 3755,
  "距": 3756,
  "評": 3757,
  "▁置く": 3758,
  "▁うえ": 3759,
  "▁議会": 3760,
  "怒": 3761,
  "▁前半": 3762,
  "ニュー": 3763,
  "敬": 3764,
  "▁プラ": 3765,
  "▁与える": 3766,
  "▁恩": 3767,
  "▁訴": 3768,
  "ホ": 3769,
  "雑": 3770,
  "序": 3771,
  "▁すぎ": 3772,
  "▁紅": 3773,
  "詰め": 3774,
  "▁断絶": 3775,
  "▁嫡流": 3776,
  "▁隆盛": 3777,
  "励": 3778,
  "龍": 3779,
  "▁共通": 3780,
  "▁装束": 3781,
  "▁かわ": 3782,
  "▁説話": 3783,
  "▁書院": 3784,
  "▁改名": 3785,
  "▁宇多": 3786,
  "H": 3787,
  "侯": 3788,
  "▁茶屋": 3789,
  "許": 3790,
  "▁労": 3791,
  "療": 3792,
  "▁はず": 3793,
  "ぱ": 3794,
  "▁環境": 3795,
  "▁見解": 3796,
  "戊": 3797,
  "▁広が": 3798,
  "魂": 3799,
  "▁美し": 3800,
  "▁平治": 3801,
  "▁献上": 3802,
  "▁移動": 3803,
  "▁側室": 3804,
  "▁督": 3805,
  "▁直通": 3806,
  "▁入れる": 3807,
  "率": 3808,
  "練": 3809,
  "壺": 3810,
  "ヌ": 3811,
  "閥": 3812,
  "▁今出": 3813,
  "▁鉄砲": 3814,
  "こう": 3815,
  "加": 3816,
  "区": 3817,
  "▁充": 3818,
  "就": 3819,
  "大寺": 3820,
  "▁M": 3821,
  "読": 3822,
  "捕": 3823,
  "▁知事": 3824,
  "▁調理": 3825,
  "▁食品": 3826,
  "▁政変": 3827,
  "▁農業": 3828,
  "▁行幸": 3829,
  "▁抵": 3830,
  "▁まし": 3831,
  "▁頂": 3832,
  "▁かかわ": 3833,
  "ィ": 3834,
  "▁味噌": 3835,
  "▁鐘": 3836,
  "▁道真": 3837,
  "▁ドイツ": 3838,
  "詰": 3839,
  "▁受領": 3840,
  "▁展": 3841,
  "▁確保": 3842,
  "▁縦": 3843,
  "輔": 3844,
  "▁淡": 3845,
  "▁瀬": 3846,
  "運": 3847,
  "▁関与": 3848,
  "▁迫": 3849,
  "須": 3850,
  "▁務める": 3851,
  "▁ヘ": 3852,
  "▁敏": 3853,
  "▁出来る": 3854,
  "▁選ば": 3855,
  "▁術": 3856,
  "紋": 3857,
  "ずつ": 3858,
  "▁代官": 3859,
  "スク": 3860,
  "込む": 3861,
  "▁軌": 3862,
  "枝": 3863,
  "▁譜代": 3864,
  "▁沖": 3865,
  "▁修理": 3866,
  "▁太夫": 3867,
  "慎": 3868,
  "▁習": 3869,
  "▁消滅": 3870,
  "▁程": 3871,
  "▁処刑": 3872,
  "境": 3873,
  "▁亭": 3874,
  "酵": 3875,
  "訳": 3876,
  "▁後述": 3877,
  "▁辛": 3878,
  "虎": 3879,
  "綿": 3880,
  "▁いき": 3881,
  "恩": 3882,
  "▁させ": 3883,
  "▁午": 3884,
  "弥": 3885,
  "▁僧正": 3886,
  "▁花山": 3887,
  "▁筆頭": 3888,
  "▁出仕": 3889,
  "L": 3890,
  "▁茨": 3891,
  "燈": 3892,
  "▁但し": 3893,
  "▁柴": 3894,
  "▁宇都": 3895,
  "▁飾": 3896,
  "▁出陣": 3897,
  "律": 3898,
  "K": 3899,
  "隔": 3900,
  "▁寵": 3901,
  "▁商品": 3902,
  "▁停止": 3903,
  "向き": 3904,
  "▁漢字": 3905,
  "融": 3906,
  "▁相模": 3907,
  "▁滅ぼ": 3908,
  "▁刃": 3909,
  "裏": 3910,
  "▁勧修寺": 3911,
  "携": 3912,
  "▁女房": 3913,
  "▁鎮守": 3914,
  "▁淀川": 3915,
  "▁｢": 3916,
  "効": 3917,
  "▁柏": 3918,
  "▁精神": 3919,
  "▁献": 3920,
  "とう": 3921,
  "▁上げ": 3922,
  "▁腰": 3923,
  "▁くら": 3924,
  "▁賀": 3925,
  "補": 3926,
  "▁失脚": 3927,
  "織": 3928,
  "屯": 3929,
  "謙": 3930,
  "▁しょ": 3931,
  "▁腹": 3932,
  "亭": 3933,
  "▁合流": 3934,
  "▁題": 3935,
  "▁篤": 3936,
  "▁和田": 3937,
  "▁中華": 3938,
  "筋": 3939,
  "堀": 3940,
  "▁構え": 3941,
  "▁やや": 3942,
  "▁健": 3943,
  "▁置き": 3944,
  "〔": 3945,
  "▁当た": 3946,
  "▁屏風": 3947,
  "▁誇": 3948,
  "▁｣": 3949,
  "▁麻": 3950,
  "▁神祇": 3951,
  "▁長政": 3952,
  "益": 3953,
  "軸": 3954,
  "▁坂上": 3955,
  "▁畳": 3956,
  "▁分家": 3957,
  "▁出兵": 3958,
  "▁禅宗": 3959,
  "▁〕": 3960,
  "▁伽藍": 3961,
  "▁論争": 3962,
  "▁見え": 3963,
  "▁注意": 3964,
  "獄": 3965,
  "吏": 3966,
  "▁しゃ": 3967,
  "▁坐": 3968,
  "果": 3969,
  "／": 3970,
  "▁呪": 3971,
  "▁逸": 3972,
  "▁上下": 3973,
  "射": 3974,
  "没": 3975,
  "▁つか": 3976,
  "▁署": 3977,
  "茂": 3978,
  "▁亀岡": 3979,
  "▁集落": 3980,
  "▁結び": 3981,
  "▁養女": 3982,
  "▁家光": 3983,
  "援": 3984,
  "▁実子": 3985,
  "▁著書": 3986,
  "深草": 3987,
  "▁規": 3988,
  "▁障": 3989,
  "駄": 3990,
  "菜": 3991,
  "▁西軍": 3992,
  "反": 3993,
  "▁面積": 3994,
  "▁炭": 3995,
  "▁桑": 3996,
  "▁検非違使": 3997,
  "純": 3998,
  "▁祈願": 3999,
  "窮": 4000,
  "▁収め": 4001,
  "▁居住": 4002,
  "築": 4003,
  "透": 4004,
  "▁有する": 4005,
  "▁徐": 4006,
  "▁強化": 4007,
  "吾": 4008,
  "▁大輔": 4009,
  "▁法令": 4010,
  "▁神事": 4011,
  "備中": 4012,
  "廃": 4013,
  "▁いつ": 4014,
  "▁盗": 4015,
  "ぞ": 4016,
  "合わせ": 4017,
  "▁著作": 4018,
  "▁いか": 4019,
  "認": 4020,
  "▁横浜": 4021,
  "▁区分": 4022,
  "▁四国": 4023,
  "▁欧米": 4024,
  "違": 4025,
  "▁連絡": 4026,
  "▁分割": 4027,
  "▁滞在": 4028,
  "かす": 4029,
  "掘": 4030,
  "▁役所": 4031,
  "▁済": 4032,
  "遭": 4033,
  "烏": 4034,
  "召": 4035,
  "▁装飾": 4036,
  "▁桃": 4037,
  "▁三郎": 4038,
  "▁嘆": 4039,
  "“": 4040,
  "▁越え": 4041,
  "▁葬儀": 4042,
  "▁武者": 4043,
  "▁汁": 4044,
  "▁徒": 4045,
  "▁沖縄": 4046,
  "▁骨": 4047,
  "▁材料": 4048,
  "▁おく": 4049,
  "▁袴": 4050,
  "▁翁": 4051,
  "▁けん": 4052,
  "▁渡り": 4053,
  "▁童子": 4054,
  "2003": 4055,
  "▁薫": 4056,
  "▁家紋": 4057,
  "▁繰り返": 4058,
  "▁架": 4059,
  "表": 4060,
  "▁河原": 4061,
  "▁辞職": 4062,
  "▁壇": 4063,
  "▁高麗": 4064,
  "▁幾": 4065,
  "剣": 4066,
  "▁過程": 4067,
  "▁制限": 4068,
  "▁安芸": 4069,
  "▁氷": 4070,
  "▁柄": 4071,
  "▁ひめ": 4072,
  "貴": 4073,
  "▁整理": 4074,
  "▁解説": 4075,
  "▁あい": 4076,
  "▁試験": 4077,
  "陵": 4078,
  "▁管轄": 4079,
  "ウン": 4080,
  "▁政宗": 4081,
  "▁上演": 4082,
  "▁連れ": 4083,
  "限": 4084,
  "遊": 4085,
  "▁B": 4086,
  "▁あくま": 4087,
  "▁J": 4088,
  "▁つとめ": 4089,
  "▁写真": 4090,
  "▁障子": 4091,
  "▁仁和": 4092,
  "喜多": 4093,
  "▁湾": 4094,
  "一郎": 4095,
  "▁開拓": 4096,
  "▁火災": 4097,
  "チャ": 4098,
  "▁崩壊": 4099,
  "▁側面": 4100,
  "▁傍": 4101,
  "棚": 4102,
  "▁改易": 4103,
  "▁虚": 4104,
  "▁りょう": 4105,
  "▁長谷": 4106,
  "▁奴": 4107,
  "突": 4108,
  "▁探題": 4109,
  "▁物部": 4110,
  "感": 4111,
  "▁検校": 4112,
  "眼": 4113,
  "▁戦前": 4114,
  "促": 4115,
  "▁笛": 4116,
  "▁阿波": 4117,
  "▁司令": 4118,
  "▁浄瑠璃": 4119,
  "B": 4120,
  "▁法然": 4121,
  "▁舎": 4122,
  "▁ぜ": 4123,
  "奪": 4124,
  "▁学者": 4125,
  "▁食事": 4126,
  "輿": 4127,
  "▁仕える": 4128,
  "▁使節": 4129,
  "er": 4130,
  "笠": 4131,
  "▁受賞": 4132,
  "F": 4133,
  "研": 4134,
  "▁尋": 4135,
  "▁結びつ": 4136,
  "▁\"": 4137,
  "▁捕らえ": 4138,
  "がる": 4139,
  "▁引き継": 4140,
  "荘": 4141,
  "▁病死": 4142,
  "▁準備": 4143,
  "▁襲撃": 4144,
  "▁スル": 4145,
  "▁とおり": 4146,
  "▁劣": 4147,
  "▁大原": 4148,
  "▁猿": 4149,
  "▁カラ": 4150,
  "▁知識": 4151,
  "▁示": 4152,
  "▁助け": 4153,
  "裁": 4154,
  "▁緑": 4155,
  "▁槍": 4156,
  "▁判断": 4157,
  "▁市場": 4158,
  "▁カレー": 4159,
  "▁試み": 4160,
  "▁正三": 4161,
  "ランド": 4162,
  "▁名乗り": 4163,
  "範": 4164,
  "▁瑞": 4165,
  "▁御前": 4166,
  "▁平定": 4167,
  "▁鳥居": 4168,
  "▁ダイヤ": 4169,
  "梨": 4170,
  "▁眼": 4171,
  "訟": 4172,
  "▁皆": 4173,
  "盾": 4174,
  "▁処理": 4175,
  "▁連歌": 4176,
  "▁創立": 4177,
  "亜": 4178,
  "▁釜": 4179,
  "▁収録": 4180,
  "紛": 4181,
  "▁イメージ": 4182,
  "▁英語": 4183,
  "▁鍋": 4184,
  "▁五郎": 4185,
  "郭": 4186,
  "稿": 4187,
  "灰": 4188,
  "ぽ": 4189,
  "宜": 4190,
  "折": 4191,
  "▁植物": 4192,
  "▁佐賀": 4193,
  "駅": 4194,
  "▁義家": 4195,
  "▁体系": 4196,
  "掌": 4197,
  "▁萬": 4198,
  "▁丈": 4199,
  "▁酵母": 4200,
  "▁場面": 4201,
  "▁製法": 4202,
  "▁栗": 4203,
  "樹": 4204,
  "▁掲げ": 4205,
  "誰": 4206,
  "▁徹": 4207,
  "背": 4208,
  "▁裁": 4209,
  "遷": 4210,
  "▁概": 4211,
  "周": 4212,
  "▁豆": 4213,
  "▁門下": 4214,
  "▁神楽": 4215,
  "▁遷都": 4216,
  "▁減少": 4217,
  "違い": 4218,
  "▁漫画": 4219,
  "▁暗": 4220,
  "▁受け入れ": 4221,
  "敵": 4222,
  "▁宮城": 4223,
  "▁此": 4224,
  "争": 4225,
  "▁邸宅": 4226,
  "▁オランダ": 4227,
  "▁政所": 4228,
  "訓": 4229,
  "▁麹": 4230,
  "▁カード": 4231,
  "拝": 4232,
  "ゼ": 4233,
  "▁紀伊": 4234,
  "M": 4235,
  "▁汲": 4236,
  "▁北野": 4237,
  "▁亮": 4238,
  "▁部隊": 4239,
  "▁出現": 4240,
  "▁獲得": 4241,
  "▁不足": 4242,
  "▁閣": 4243,
  "▁丁目": 4244,
  "條": 4245,
  "▁しゅう": 4246,
  "▁鯨": 4247,
  "▁道場": 4248,
  "▁ぶり": 4249,
  "繁": 4250,
  "▁逃亡": 4251,
  "畠": 4252,
  "煙": 4253,
  "▁じゅ": 4254,
  "▁年齢": 4255,
  "▁配流": 4256,
  "▁限り": 4257,
  "▁超": 4258,
  "▁儒教": 4259,
  "豪": 4260,
  "閑": 4261,
  "▁決ま": 4262,
  "▁興行": 4263,
  "允": 4264,
  "▁辻": 4265,
  "▁煎": 4266,
  "▁雅楽": 4267,
  "労": 4268,
  "刑": 4269,
  "▁あわせ": 4270,
  "挟": 4271,
  "▁飾り": 4272,
  "郡": 4273,
  "▁総裁": 4274,
  "▁磯": 4275,
  "祥": 4276,
  "▁書物": 4277,
  "忌": 4278,
  "固": 4279,
  "▁紀元": 4280,
  "蓋": 4281,
  "▁少し": 4282,
  "▁､": 4283,
  "▁俳優": 4284,
  "▁おう": 4285,
  "▁高松": 4286,
  "▁祈": 4287,
  "宋": 4288,
  "▁秦": 4289,
  "尹": 4290,
  "▁棒": 4291,
  "▁夫人": 4292,
  "緒": 4293,
  "▁進み": 4294,
  "▁芝": 4295,
  "たび": 4296,
  "▁豆腐": 4297,
  "▁田村": 4298,
  "蹴": 4299,
  "▁総理": 4300,
  "▁和服": 4301,
  "回り": 4302,
  "ロー": 4303,
  "▁一番": 4304,
  "宇": 4305,
  "▁さえ": 4306,
  "▁昭": 4307,
  "▁宴": 4308,
  "▁楽し": 4309,
  "▁認定": 4310,
  "▁義務": 4311,
  "▁新設": 4312,
  "▁河原町": 4313,
  "▁げん": 4314,
  "b": 4315,
  "箇": 4316,
  "▁井伊": 4317,
  "▁蘭": 4318,
  "▁働き": 4319,
  "▁浸": 4320,
  "峰": 4321,
  "▁本殿": 4322,
  "▁締結": 4323,
  "▁也": 4324,
  "▁庇": 4325,
  "悪": 4326,
  "▁被害": 4327,
  "▁法師": 4328,
  "いに": 4329,
  "枢": 4330,
  "▁千代": 4331,
  "▁引用": 4332,
  "▁鈴木": 4333,
  "注": 4334,
  "スター": 4335,
  "柳": 4336,
  "▁習慣": 4337,
  "▁珍し": 4338,
  "▁格式": 4339,
  "▁後藤": 4340,
  "▁漢詩": 4341,
  "シャ": 4342,
  "▁覆": 4343,
  "▁資格": 4344,
  "▁貸": 4345,
  "炉": 4346,
  "▁呉": 4347,
  "▁内蔵": 4348,
  "英": 4349,
  "▁あん": 4350,
  "麻": 4351,
  "▁長慶": 4352,
  "切れ": 4353,
  "伯": 4354,
  "▁サー": 4355,
  "兼": 4356,
  "▁卒": 4357,
  "▁渡辺": 4358,
  "▁分野": 4359,
  "▁加増": 4360,
  "淵": 4361,
  "珠": 4362,
  "婆": 4363,
  "▁疑問": 4364,
  "▁例外": 4365,
  "▁並び": 4366,
  "▁頻": 4367,
  "分け": 4368,
  "▁発足": 4369,
  "鎌": 4370,
  "▁･": 4371,
  "写": 4372,
  "▁盆": 4373,
  "鶏": 4374,
  "麓": 4375,
  "▁提供": 4376,
  "▁一覧": 4377,
  "打": 4378,
  "掛け": 4379,
  "▁貨物": 4380,
  "菱": 4381,
  "しょう": 4382,
  "▁参考": 4383,
  "▁家族": 4384,
  "▁組み": 4385,
  "践": 4386,
  "▁払": 4387,
  "やく": 4388,
  "殖": 4389,
  "G": 4390,
  "▁博多": 4391,
  "▁袋": 4392,
  "▁取る": 4393,
  "焼": 4394,
  "▁敗北": 4395,
  "▁旗": 4396,
  "▁かね": 4397,
  "▁築城": 4398,
  "▁穂": 4399,
  "▁野村": 4400,
  "雪": 4401,
  "▁ソー": 4402,
  "▁耳": 4403,
  "訪": 4404,
  "▁最澄": 4405,
  "▁苦し": 4406,
  "庸": 4407,
  "候": 4408,
  "▁砂糖": 4409,
  "▁訴え": 4410,
  "▁流罪": 4411,
  "▁h": 4412,
  "▁若い": 4413,
  "▁義教": 4414,
  "▁豊後": 4415,
  "▁倍": 4416,
  "▁家元": 4417,
  "▁剣術": 4418,
  "▁本家": 4419,
  "▁賛": 4420,
  "▁願い": 4421,
  "簡": 4422,
  "▁努め": 4423,
  "▁王子": 4424,
  "▁議論": 4425,
  "秋": 4426,
  "九郎": 4427,
  "フェ": 4428,
  "▁日付": 4429,
  "▁正親町": 4430,
  "▁初頭": 4431,
  "猛": 4432,
  "縛": 4433,
  "齢": 4434,
  "▁開通": 4435,
  "匁": 4436,
  "▁猪": 4437,
  "▁職人": 4438,
  "▁吟": 4439,
  "らす": 4440,
  "ャ": 4441,
  "▁風習": 4442,
  "▁奉納": 4443,
  "標": 4444,
  "▁定家": 4445,
  "▁歌合": 4446,
  "▁設計": 4447,
  "▁権利": 4448,
  "二郎": 4449,
  "▁対策": 4450,
  "▁改元": 4451,
  "▁詞": 4452,
  "▁誠": 4453,
  "▁べし": 4454,
  "▁競技": 4455,
  "▁履": 4456,
  "っと": 4457,
  "▁居城": 4458,
  "▁弥生": 4459,
  "▁弁当": 4460,
  "▁婦": 4461,
  "▁琉": 4462,
  "▁侵": 4463,
  "▁1990": 4464,
  "該": 4465,
  "▁依頼": 4466,
  "▁成人": 4467,
  "▁止め": 4468,
  "▁象": 4469,
  "▁栽培": 4470,
  "▁企業": 4471,
  "▁通過": 4472,
  "▁大河": 4473,
  "才": 4474,
  "▁愚": 4475,
  "▁息": 4476,
  "▁曹": 4477,
  "▁魂": 4478,
  "乏": 4479,
  "占": 4480,
  "驚": 4481,
  "▁商業": 4482,
  "鉄": 4483,
  "▁病院": 4484,
  "▁作法": 4485,
  "▁きん": 4486,
  "▁遂": 4487,
  "▁入内": 4488,
  "廊": 4489,
  "▁明石": 4490,
  "▁マキノ": 4491,
  "▁2002": 4492,
  "▁快": 4493,
  "捨": 4494,
  "▁貧": 4495,
  "雅": 4496,
  "▁幹": 4497,
  "▁琴": 4498,
  "▁潜": 4499,
  "▁舟": 4500,
  "択": 4501,
  "▁乗せ": 4502,
  "▁掌握": 4503,
  "銀": 4504,
  "▁沈": 4505,
  "▁生地": 4506,
  "技": 4507,
  "▁拾遺": 4508,
  "▁秀次": 4509,
  "小松": 4510,
  "迫": 4511,
  "晴": 4512,
  "燃": 4513,
  "▁致": 4514,
  "▁入学": 4515,
  "▁判官": 4516,
  "碁": 4517,
  "▁法要": 4518,
  "▁翻訳": 4519,
  "▁きっかけ": 4520,
  "▁固め": 4521,
  "消": 4522,
  "径": 4523,
  "▁上り": 4524,
  "唄": 4525,
  "▁乾燥": 4526,
  "▁おも": 4527,
  "開": 4528,
  "倫": 4529,
  "▁六条": 4530,
  "▁損": 4531,
  "▁発祥": 4532,
  "激": 4533,
  "▁貝": 4534,
  "宸": 4535,
  "▁分か": 4536,
  "▁竹田": 4537,
  "▁勃発": 4538,
  "▁長女": 4539,
  "▁丞": 4540,
  "裕": 4541,
  "▁出発": 4542,
  "▁大陸": 4543,
  "戯": 4544,
  "▁勧め": 4545,
  "▁載せ": 4546,
  "蜂": 4547,
  "麿": 4548,
  "▁1600": 4549,
  "▁綱吉": 4550,
  "厨": 4551,
  "裔": 4552,
  "▁地上": 4553,
  "粋": 4554,
  "受け": 4555,
  "▁枝": 4556,
  "仲": 4557,
  "▁日間": 4558,
  "免": 4559,
  "▁歯": 4560,
  "糸": 4561,
  "▁ホテル": 4562,
  "▁駅前": 4563,
  "▁長尾": 4564,
  "▁主体": 4565,
  "▁くれ": 4566,
  "▁少年": 4567,
  "▁聞き": 4568,
  "▁遅": 4569,
  "▁番号": 4570,
  "ar": 4571,
  "洞": 4572,
  "▁利益": 4573,
  "ぷ": 4574,
  "▁異説": 4575,
  "ラー": 4576,
  "▁始める": 4577,
  "▁解散": 4578,
  "柴": 4579,
  "▁試": 4580,
  "▁襲名": 4581,
  "▁重文": 4582,
  "▁超え": 4583,
  "▁出自": 4584,
  "▁門人": 4585,
  "堤": 4586,
  "▁着物": 4587,
  "弐": 4588,
  "梵": 4589,
  "▁沼": 4590,
  "▁1997": 4591,
  "蓮": 4592,
  "▁移し": 4593,
  "▁作曲": 4594,
  "▁遠江": 4595,
  "▁能力": 4596,
  "▁利家": 4597,
  "▁拍": 4598,
  "▁詮": 4599,
  "謝": 4600,
  "▁難し": 4601,
  "▁廻": 4602,
  "▁懸": 4603,
  "▁当て": 4604,
  "尻": 4605,
  "揚げ": 4606,
  "▁伝授": 4607,
  "魚": 4608,
  "酒屋": 4609,
  "▁公事": 4610,
  "▁番線": 4611,
  "▁太陽": 4612,
  "▁国府": 4613,
  "▁神奈川": 4614,
  "顕": 4615,
  "▁動物": 4616,
  "▁来る": 4617,
  "▁乳母": 4618,
  "▁大宰府": 4619,
  "▁出演": 4620,
  "遣": 4621,
  "かん": 4622,
  "▁りゅう": 4623,
  "著": 4624,
  "▁灌頂": 4625,
  "ワー": 4626,
  "▁ケース": 4627,
  "▁トンネル": 4628,
  "▁会員": 4629,
  "▁機構": 4630,
  "▁専攻": 4631,
  "▁仕事": 4632,
  "▁縫": 4633,
  "▁ルート": 4634,
  "▁太刀": 4635,
  "▁兵力": 4636,
  "▁選挙": 4637,
  "よそ": 4638,
  "たい": 4639,
  "▁辰": 4640,
  "▁堀川": 4641,
  "▁揚げ": 4642,
  "滋": 4643,
  "▁大半": 4644,
  "▁鈴": 4645,
  "▁売り": 4646,
  "▁町人": 4647,
  "▁洞": 4648,
  "伺": 4649,
  "▁発売": 4650,
  "▁書状": 4651,
  "医": 4652,
  "▁獅子": 4653,
  "▁山陽": 4654,
  "▁年寄": 4655,
  "▁アルコール": 4656,
  "▁触れ": 4657,
  "▁しまい": 4658,
  "賛": 4659,
  "▁禁じ": 4660,
  "蒙": 4661,
  "飾": 4662,
  "▁投げ": 4663,
  "▁但馬": 4664,
  "▁橋本": 4665,
  "鶴": 4666,
  "▁蘭学": 4667,
  "▁乃": 4668,
  "訂": 4669,
  "▁謙信": 4670,
  "▁桜井": 4671,
  "熱": 4672,
  "▁交換": 4673,
  "▁コース": 4674,
  "伽": 4675,
  "始": 4676,
  "▁喪": 4677,
  "ヒメ": 4678,
  "三条": 4679,
  "嘗": 4680,
  "指": 4681,
  "聚": 4682,
  "▁般若": 4683,
  "▁シャ": 4684,
  "▁延宝": 4685,
  "泥": 4686,
  "抜き": 4687,
  "悦": 4688,
  "▁混ぜ": 4689,
  "慧": 4690,
  "▁事例": 4691,
  "拡": 4692,
  "▁茶碗": 4693,
  "寇": 4694,
  "▁嵯峨野": 4695,
  "稙": 4696,
  "公": 4697,
  "なり": 4698,
  "革": 4699,
  "壮": 4700,
  "失": 4701,
  "▁傘": 4702,
  "▁看": 4703,
  "▁頼家": 4704,
  "▁部屋": 4705,
  "▁吉備": 4706,
  "▁東海": 4707,
  "▁参拝": 4708,
  "▁四十": 4709,
  "▁ほん": 4710,
  "矩": 4711,
  "▁留ま": 4712,
  "隋": 4713,
  "▁振る": 4714,
  "▁野菜": 4715,
  "へ": 4716,
  "▁掲載": 4717,
  "符": 4718,
  "▁紐": 4719,
  "▁山中": 4720,
  "▁買い": 4721,
  "▁改良": 4722,
  "現": 4723,
  "ダー": 4724,
  "直し": 4725,
  "烈": 4726,
  "恨": 4727,
  "▁元治": 4728,
  "▁評定": 4729,
  "租": 4730,
  "▁品種": 4731,
  "尼": 4732,
  "▁違う": 4733,
  "巧": 4734,
  "▁配下": 4735,
  "矛": 4736,
  "旋": 4737,
  "▁店舗": 4738,
  "奔": 4739,
  "▁値": 4740,
  "寛": 4741,
  "▁つれ": 4742,
  "▁振り": 4743,
  "展": 4744,
  "▁脱出": 4745,
  "▁記す": 4746,
  "▁機会": 4747,
  "▁本社": 4748,
  "on": 4749,
  "▁姉妹": 4750,
  "▁寄せ": 4751,
  "▁小山": 4752,
  "▁斎宮": 4753,
  "▁叙爵": 4754,
  "▁残り": 4755,
  "受": 4756,
  "▁効": 4757,
  "▁購入": 4758,
  "弱": 4759,
  "▁復元": 4760,
  "▁余り": 4761,
  "▁峯": 4762,
  "じょう": 4763,
  "鳩": 4764,
  "▁作家": 4765,
  "渓": 4766,
  "▁人衆": 4767,
  "▁茶室": 4768,
  "▁叙任": 4769,
  "▁松井": 4770,
  "妙": 4771,
  "▁下級": 4772,
  "袋": 4773,
  "▁鳳": 4774,
  "▁符": 4775,
  "▁疎": 4776,
  "糧": 4777,
  "▁脚": 4778,
  "温": 4779,
  "▁硬": 4780,
  "▁大宰": 4781,
  "▁一行": 4782,
  "▁明神": 4783,
  "▁化粧": 4784,
  "▁熟": 4785,
  "扉": 4786,
  "▁飛び": 4787,
  "▁中止": 4788,
  "▁櫓": 4789,
  "▁稲葉": 4790,
  "▁こん": 4791,
  "▁答え": 4792,
  "▁珍": 4793,
  "瓶": 4794,
  "▁一体": 4795,
  "矢": 4796,
  "▁信じ": 4797,
  "▁住む": 4798,
  "▁わかる": 4799,
  "▁乗っ": 4800,
  "宛": 4801,
  "▁職務": 4802,
  "▁名所": 4803,
  "▁工場": 4804,
  "抜け": 4805,
  "▁朝日": 4806,
  "▁ぎょう": 4807,
  "▁併せ": 4808,
  "▁埼": 4809,
  "勾": 4810,
  "植": 4811,
  "誅": 4812,
  "▁演目": 4813,
  "▁くに": 4814,
  "縣": 4815,
  "ビス": 4816,
  "▁酢": 4817,
  "▁枕": 4818,
  "▁ごく": 4819,
  "）": 4820,
  "▁儀礼": 4821,
  "▁しばら": 4822,
  "▁定員": 4823,
  "▁隣接": 4824,
  "▁麺": 4825,
  "抜": 4826,
  "▁--": 4827,
  "V": 4828,
  "晋": 4829,
  "▁書写": 4830,
  "▁じゅう": 4831,
  "▁定義": 4832,
  "▁つける": 4833,
  "縄": 4834,
  "邦": 4835,
  "▁敷地": 4836,
  "▁翌日": 4837,
  "▁日向": 4838,
  "▁〜": 4839,
  "▁松竹": 4840,
  "▁分裂": 4841,
  "涼": 4842,
  "▁淡路": 4843,
  "▁捨て": 4844,
  "▁アル": 4845,
  "耐": 4846,
  "▁いけ": 4847,
  "襖": 4848,
  "▁案内": 4849,
  "▁みこ": 4850,
  "▁じゃ": 4851,
  "億": 4852,
  "▁かかる": 4853,
  "▁高山": 4854,
  "当たり": 4855,
  "諭": 4856,
  "触": 4857,
  "▁排除": 4858,
  "▁所司": 4859,
  "▁区域": 4860,
  "▁旅団": 4861,
  "構": 4862,
  "▁欲": 4863,
  "凡": 4864,
  "企": 4865,
  "貼": 4866,
  "庄": 4867,
  "▁受け継": 4868,
  "▁目録": 4869,
  "蛇": 4870,
  "▁梶": 4871,
  "▁怒り": 4872,
  "▁正成": 4873,
  "苗": 4874,
  "掛": 4875,
  "▁すけ": 4876,
  "休": 4877,
  "悩": 4878,
  "▁開祖": 4879,
  "▁微": 4880,
  "▁ぞう": 4881,
  "塞": 4882,
  "挿": 4883,
  "▁アイ": 4884,
  "▁こく": 4885,
  "▁小判": 4886,
  "溶": 4887,
  "▁義時": 4888,
  "▁経歴": 4889,
  "菌": 4890,
  "▁剥": 4891,
  "碑": 4892,
  "ナー": 4893,
  "▁みる": 4894,
  "▁実家": 4895,
  "▁叙位": 4896,
  "▁俵": 4897,
  "▁玉葉": 4898,
  "▁武道": 4899,
  "▁義輝": 4900,
  "▁周防": 4901,
  "▁狂": 4902,
  "▁ひろ": 4903,
  "▁肩": 4904,
  "▁楼": 4905,
  "鑑": 4906,
  "▁男女": 4907,
  "噂": 4908,
  "▁猶子": 4909,
  "▁緒": 4910,
  "▁会館": 4911,
  "ウェ": 4912,
  "▁討ち取": 4913,
  "▁方式": 4914,
  "可": 4915,
  "▁モデル": 4916,
  "粟": 4917,
  "ァ": 4918,
  "▁環": 4919,
  "▁誘": 4920,
  "▁スサノオ": 4921,
  "▁漬け": 4922,
  "▁嶋": 4923,
  "▁奉公": 4924,
  "滑": 4925,
  "▁文武": 4926,
  "版": 4927,
  "篭": 4928,
  "▁切っ": 4929,
  "峯": 4930,
  "▁太田": 4931,
  "攻": 4932,
  "▁栄え": 4933,
  "▁膳": 4934,
  "▁普請": 4935,
  "▁わたり": 4936,
  "▁みょう": 4937,
  "及": 4938,
  "▁添": 4939,
  "▁奮": 4940,
  "梅": 4941,
  "斗": 4942,
  "苔": 4943,
  "エン": 4944,
  "▁諡": 4945,
  "▁特色": 4946,
  "▁孔": 4947,
  "▁遺構": 4948,
  "▁葵": 4949,
  "▁奨": 4950,
  "▁通信": 4951,
  "▁芹": 4952,
  "▁褌": 4953,
  "▁遍": 4954,
  "黙": 4955,
  "▁移行": 4956,
  "どり": 4957,
  "▁互い": 4958,
  "監": 4959,
  "並": 4960,
  "餡": 4961,
  "▁越中": 4962,
  "翼": 4963,
  "皮": 4964,
  "▁東側": 4965,
  "▁西側": 4966,
  "▁炊": 4967,
  "閉": 4968,
  "迷": 4969,
  "▁教義": 4970,
  "en": 4971,
  "棲": 4972,
  "▁輩出": 4973,
  "▁和睦": 4974,
  "財": 4975,
  "▁囃子": 4976,
  "▁諏訪": 4977,
  "▁絵師": 4978,
  "▁東洋": 4979,
  "扱": 4980,
  "兄弟": 4981,
  "▁土器": 4982,
  "▁発着": 4983,
  "▁布教": 4984,
  "依": 4985,
  "勒": 4986,
  "騒": 4987,
  "▁一帯": 4988,
  "▁方形": 4989,
  "▁終え": 4990,
  "U": 4991,
  "▁子爵": 4992,
  "贈": 4993,
  "腹": 4994,
  "▁貢献": 4995,
  "▁危険": 4996,
  "廉": 4997,
  "▁花園": 4998,
  "▁埋葬": 4999,
  "▁比売": 5000,
  "建": 5001,
  "▁消息": 5002,
  "ズム": 5003,
  "核": 5004,
  "▁絶え": 5005,
  "▁或": 5006,
  "▁司法": 5007,
  "▁うま": 5008,
  "桶": 5009,
  "はり": 5010,
  "▁高槻": 5011,
  "▁天長": 5012,
  "▁移住": 5013,
  "▁弔": 5014,
  "▁天慶": 5015,
  "▁倒れ": 5016,
  "▁芝居": 5017,
  "童": 5018,
  "▁趣": 5019,
  "▁荷": 5020,
  "▁加茂": 5021,
  "▁募": 5022,
  "獣": 5023,
  "▁まち": 5024,
  "▁離宮": 5025,
  "逃": 5026,
  "▁おき": 5027,
  "▁盆地": 5028,
  "▁童": 5029,
  "×": 5030,
  "禁": 5031,
  "鮮": 5032,
  "穴": 5033,
  "兆": 5034,
  "▁寂": 5035,
  "孤": 5036,
  "▁借": 5037,
  "▁宝亀": 5038,
  "▁題材": 5039,
  "▁宗盛": 5040,
  "辻": 5041,
  "▁中務": 5042,
  "▁班": 5043,
  "▁朽": 5044,
  "（": 5045,
  "▁語源": 5046,
  "▁捉え": 5047,
  "▁彫": 5048,
  "払": 5049,
  "▁御殿": 5050,
  "弼": 5051,
  "▁大橋": 5052,
  "▁組合": 5053,
  "▁大化": 5054,
  "▁神名": 5055,
  "▁運賃": 5056,
  "▁駅舎": 5057,
  "紹": 5058,
  "▁原型": 5059,
  "ha": 5060,
  "シア": 5061,
  "▁取り上げ": 5062,
  "▁夫婦": 5063,
  "in": 5064,
  "▁縮": 5065,
  "偏": 5066,
  "鼻": 5067,
  "祚": 5068,
  "▁瀬戸": 5069,
  "▁箸": 5070,
  "若": 5071,
  "▁先立": 5072,
  "倣": 5073,
  "独": 5074,
  "▁彫刻": 5075,
  "▁すら": 5076,
  "▁彰": 5077,
  "▁台頭": 5078,
  "恐": 5079,
  "▁描写": 5080,
  "ッチ": 5081,
  "▁忠臣": 5082,
  "▁高島": 5083,
  "▁糖": 5084,
  "▁政元": 5085,
  "▁動員": 5086,
  "▁紀伊国": 5087,
  "檀": 5088,
  "▁立つ": 5089,
  "惑": 5090,
  "▁名跡": 5091,
  "▁到": 5092,
  "▁けい": 5093,
  "v": 5094,
  "▁遂げ": 5095,
  "▁巫女": 5096,
  "▁皇居": 5097,
  "▁かける": 5098,
  "▁終了": 5099,
  "▁従軍": 5100,
  "笛": 5101,
  "▁頼通": 5102,
  "髷": 5103,
  "楼": 5104,
  "揮": 5105,
  "▁住居": 5106,
  "▁戻る": 5107,
  "▁顧問": 5108,
  "▁権守": 5109,
  "▁産地": 5110,
  "▁府道": 5111,
  "▁廟": 5112,
  "疏": 5113,
  "▁大日": 5114,
  "▁ゆく": 5115,
  "掃": 5116,
  "▁少輔": 5117,
  "▁電化": 5118,
  "▁恭": 5119,
  "▁肖像": 5120,
  "▁教会": 5121,
  "▁権現": 5122,
  "拾": 5123,
  "▁修験": 5124,
  "仕": 5125,
  "▁北山": 5126,
  "▁参戦": 5127,
  "▁続き": 5128,
  "▁安堵": 5129,
  "洞院": 5130,
  "鍛": 5131,
  "▁先代": 5132,
  "▁木戸": 5133,
  "▁皇統": 5134,
  "▁あて": 5135,
  "▁魏": 5136,
  "▁壁画": 5137,
  "▁院号": 5138,
  "▁坪": 5139,
  "蕉": 5140,
  "▁支給": 5141,
  "f": 5142,
  "▁連盟": 5143,
  "丁": 5144,
  "邇": 5145,
  "▁山水": 5146,
  "▁死者": 5147,
  "▁どこ": 5148,
  "▁規制": 5149,
  "鎮": 5150,
  "枠": 5151,
  "こと": 5152,
  "滞": 5153,
  "▁グループ": 5154,
  "妃": 5155,
  "▁恩賞": 5156,
  "▁緊": 5157,
  "▁こちら": 5158,
  "▁尽く": 5159,
  "▁ゆえ": 5160,
  "▁えき": 5161,
  "吸": 5162,
  "▁取引": 5163,
  "▁石室": 5164,
  "▁ICOCA": 5165,
  "▁京田辺": 5166,
  "▁選定": 5167,
  "▁1987": 5168,
  "厚": 5169,
  "穏": 5170,
  "▁好ま": 5171,
  "▁時宗": 5172,
  "テン": 5173,
  "▁張り": 5174,
  "▁胴": 5175,
  "書き": 5176,
  "▁狙": 5177,
  "▁中川": 5178,
  "謹": 5179,
  "▁龍馬": 5180,
  "▁脚本": 5181,
  "▁入門": 5182,
  "▁三千": 5183,
  "▁勅使": 5184,
  "斉": 5185,
  "ない": 5186,
  "帳": 5187,
  "▁繊": 5188,
  "▁措置": 5189,
  "戚": 5190,
  "共": 5191,
  "活": 5192,
  "斜": 5193,
  "▁旅行": 5194,
  "▁宣言": 5195,
  "▁確か": 5196,
  "▁実行": 5197,
  "炎": 5198,
  "▁そん": 5199,
  "▁果た": 5200,
  "▁執事": 5201,
  "ども": 5202,
  "▁開き": 5203,
  "▁太秦": 5204,
  "朗": 5205,
  "▁頼政": 5206,
  "檜": 5207,
  "▁一家": 5208,
  "▁遅れ": 5209,
  "▁文様": 5210,
  "▁鵜": 5211,
  "▁男爵": 5212,
  "▁猿楽": 5213,
  "▁移る": 5214,
  "骸": 5215,
  "▁岡崎": 5216,
  "水尾": 5217,
  "擬": 5218,
  "▁操": 5219,
  "▁倒幕": 5220,
  "▁萩": 5221,
  "了": 5222,
  "▁有栖川": 5223,
  "揃": 5224,
  "▁溝": 5225,
  "▁高国": 5226,
  "▁甚": 5227,
  "▁守り": 5228,
  "▁抱え": 5229,
  "蓄": 5230,
  "麺": 5231,
  "釣": 5232,
  "▁育て": 5233,
  "▁デザイン": 5234,
  "の子": 5235,
  "▁地歌": 5236,
  "粒": 5237,
  "▁遺産": 5238,
  "▁しかも": 5239,
  "▁行列": 5240,
  "▁強め": 5241,
  "▁社長": 5242,
  "舎人": 5243,
  "▁塔頭": 5244,
  "▁下賜": 5245,
  "▁哲学": 5246,
  "▁おそ": 5247,
  "薦": 5248,
  "▁1910": 5249,
  "▁低下": 5250,
  "▁1907": 5251,
  "▁乗り入れ": 5252,
  "創": 5253,
  "▁追い込": 5254,
  "杵": 5255,
  "▁テー": 5256,
  "▁南都": 5257,
  "呈": 5258,
  "▁過ご": 5259,
  "▁乳": 5260,
  "▁決し": 5261,
  "▁久秀": 5262,
  "▁成分": 5263,
  "▁細か": 5264,
  "▁ちゅう": 5265,
  "踊": 5266,
  "▁大会": 5267,
  "▁馬子": 5268,
  "巣": 5269,
  "俳": 5270,
  "逝": 5271,
  "▁繋が": 5272,
  "▁屈": 5273,
  "▁八条": 5274,
  "▁警備": 5275,
  "▁蒸し": 5276,
  "▁主演": 5277,
  "汰": 5278,
  "▁僧都": 5279,
  "玄": 5280,
  "巌": 5281,
  "▁紅葉": 5282,
  "▁香り": 5283,
  "▁弓道": 5284,
  "NH": 5285,
  "聴": 5286,
  "▁訪問": 5287,
  "w": 5288,
  "▁別れ": 5289,
  "▁一派": 5290,
  "▁佐久": 5291,
  "勇": 5292,
  "▁システム": 5293,
  "棺": 5294,
  "押": 5295,
  "▁忘れ": 5296,
  "降": 5297,
  "針": 5298,
  "▁八十": 5299,
  "▁職業": 5300,
  "▁創始": 5301,
  "▁知り": 5302,
  "鬘": 5303,
  "辛": 5304,
  "▁告げ": 5305,
  "▁素材": 5306,
  "啓": 5307,
  "▁方丈": 5308,
  "聖": 5309,
  "▁青年": 5310,
  "▁移築": 5311,
  "祀": 5312,
  "▁兼務": 5313,
  "謁": 5314,
  "▁歴": 5315,
  "▁出産": 5316,
  "▁不可": 5317,
  "▁医師": 5318,
  "ろん": 5319,
  "怨": 5320,
  "▁授与": 5321,
  "▁現象": 5322,
  "串": 5323,
  "▁主催": 5324,
  "▁賦": 5325,
  "星": 5326,
  "墾": 5327,
  "▁城郭": 5328,
  "▁IC": 5329,
  "▁弓矢": 5330,
  "▁翻": 5331,
  "▁遺言": 5332,
  "▁ゆう": 5333,
  "▁奉還": 5334,
  "▁構想": 5335,
  "▁まつり": 5336,
  "液": 5337,
  "▁神職": 5338,
  "▁備後": 5339,
  "豚": 5340,
  "郊": 5341,
  "▁附属": 5342,
  "▁吉宗": 5343,
  "▁製品": 5344,
  "▁官制": 5345,
  "▁仰": 5346,
  "▁エピソード": 5347,
  "▁交わ": 5348,
  "浄": 5349,
  "▁慣習": 5350,
  "▁軍人": 5351,
  "▁掌": 5352,
  "痛": 5353,
  "▁最中": 5354,
  "▁舞踊": 5355,
  "▁ゆかり": 5356,
  "帽": 5357,
  "まえ": 5358,
  "▁条例": 5359,
  "▁小川": 5360,
  "▁閑院": 5361,
  "械": 5362,
  "▁景時": 5363,
  "▁劇場": 5364,
  "▁薬師寺": 5365,
  "モン": 5366,
  "▁介入": 5367,
  "廻": 5368,
  "▁部門": 5369,
  "▁筑紫": 5370,
  "▁白川": 5371,
  "▁升": 5372,
  "▁草子": 5373,
  "▁武術": 5374,
  "▁解決": 5375,
  "▁光源氏": 5376,
  "デン": 5377,
  "杖": 5378,
  "▁組み合わせ": 5379,
  "▁戻り": 5380,
  "▁伯爵": 5381,
  "昭": 5382,
  "▁奉仕": 5383,
  "陰": 5384,
  "▁プロダク": 5385,
  "▁描く": 5386,
  "▁寛平": 5387,
  "▁中間": 5388,
  "餅": 5389,
  "x": 5390,
  "凶": 5391,
  "▁抑え": 5392,
  "▁保管": 5393,
  "甲": 5394,
  "患": 5395,
  "▁養父": 5396,
  "▁落とし": 5397,
  "哲": 5398,
  "▁踊り": 5399,
  "浪": 5400,
  "揺": 5401,
  "▁欽": 5402,
  "▁杜氏": 5403,
  "貌": 5404,
  "▁晩": 5405,
  "寮": 5406,
  "塩": 5407,
  "▁インターチェンジ": 5408,
  "▁芸妓": 5409,
  "▁佛": 5410,
  "▁遣わ": 5411,
  "栃": 5412,
  "脂": 5413,
  "穢": 5414,
  "繰": 5415,
  "▁遊女": 5416,
  "▁1999": 5417,
  "皿": 5418,
  "▁外戚": 5419,
  "吹": 5420,
  "▁再開": 5421,
  "▁みつ": 5422,
  "▁重んじ": 5423,
  "▁渡る": 5424,
  "▁敗戦": 5425,
  "▁稀": 5426,
  "膳": 5427,
  "▁1900": 5428,
  "刃": 5429,
  "▁試合": 5430,
  "▁構内": 5431,
  "▁五山": 5432,
  "▁あき": 5433,
  "止め": 5434,
  "▁困": 5435,
  "臨": 5436,
  "柿": 5437,
  "▁斬り": 5438,
  "▁八木": 5439,
  "ネマ": 5440,
  "▁のりば": 5441,
  "▁祭礼": 5442,
  "▁じん": 5443,
  "倶": 5444,
  "床": 5445,
  "▁阻": 5446,
  "維": 5447,
  "磁": 5448,
  "▁みち": 5449,
  "琴": 5450,
  "▁学習": 5451,
  "▁経路": 5452,
  "壱": 5453,
  "▁離脱": 5454,
  "▁隠れ": 5455,
  "▁天暦": 5456,
  "匂": 5457,
  "▁橿": 5458,
  "▁風俗": 5459,
  "牟": 5460,
  "▁かな": 5461,
  "片": 5462,
  "▁見な": 5463,
  "▁追加": 5464,
  "曳": 5465,
  "胸": 5466,
  "償": 5467,
  "▁手法": 5468,
  "▁饅頭": 5469,
  "▁検討": 5470,
  "▁人事": 5471,
  "▁社殿": 5472,
  "耆": 5473,
  "篆": 5474,
  "農": 5475,
  "▁天津": 5476,
  "▁戦う": 5477,
  "墨": 5478,
  "沙": 5479,
  "累": 5480,
  "▁祈祷": 5481,
  "朋": 5482,
  "▁携わ": 5483,
  "褒": 5484,
  "んじゃ": 5485,
  "▁後ろ": 5486,
  "▁嵐": 5487,
  "▁披露": 5488,
  "旗": 5489,
  "泰": 5490,
  "▁編集": 5491,
  "熙": 5492,
  "署": 5493,
  "戻": 5494,
  "▁預け": 5495,
  "▁役目": 5496,
  "▁雇": 5497,
  "飼": 5498,
  "▁祓": 5499,
  "▁ラーメン": 5500,
  "X": 5501,
  "槃": 5502,
  "▁往来": 5503,
  "灯": 5504,
  "▁金銀": 5505,
  "▁1996": 5506,
  "▁突き": 5507,
  "逮": 5508,
  "▁陳": 5509,
  "槻": 5510,
  "控": 5511,
  "▁地震": 5512,
  "▁どお": 5513,
  "▁弁官": 5514,
  "▁空手": 5515,
  "▁衆生": 5516,
  "▁ひら": 5517,
  "▁手紙": 5518,
  "▁北方": 5519,
  "▁凝": 5520,
  "ウス": 5521,
  "▁キリシタン": 5522,
  "▁貞享": 5523,
  "▁信忠": 5524,
  "蛮": 5525,
  "▁引き続": 5526,
  "妓": 5527,
  "▁稽古": 5528,
  "酸": 5529,
  "▁添え": 5530,
  "▁法主": 5531,
  "▁実態": 5532,
  "▁習合": 5533,
  "蘇": 5534,
  "▁近隣": 5535,
  "セン": 5536,
  "▁うる": 5537,
  "件": 5538,
  "▁命名": 5539,
  "▁殺し": 5540,
  "▁寺町": 5541,
  "▁弘化": 5542,
  "ーフ": 5543,
  "▁降下": 5544,
  "鐘": 5545,
  "▁破壊": 5546,
  "▁まい": 5547,
  "▁晴元": 5548,
  "▁奉じ": 5549,
  "省": 5550,
  "▁汚": 5551,
  "▁四方": 5552,
  "▁天王寺": 5553,
  "▁元慶": 5554,
  "症": 5555,
  "由": 5556,
  "▁八代": 5557,
  "▁宮家": 5558,
  "▁住持": 5559,
  "，": 5560,
  "▁終わり": 5561,
  "▁ゆき": 5562,
  "▁うけ": 5563,
  "▁旭": 5564,
  "▁アン": 5565,
  "哀": 5566,
  "▁抗争": 5567,
  "蕃": 5568,
  "▁雁": 5569,
  "狩": 5570,
  "▁官司": 5571,
  "▁名付け": 5572,
  "▁ふく": 5573,
  "al": 5574,
  "▁地獄": 5575,
  "▁歓": 5576,
  "▁講堂": 5577,
  "▁せよ": 5578,
  "寄せ": 5579,
  "鉾": 5580,
  "▁みず": 5581,
  "─": 5582,
  "▁往復": 5583,
  "▁語り": 5584,
  "▁先祖": 5585,
  "▁育成": 5586,
  "▁戦場": 5587,
  "▁鵜飼": 5588,
  "▁我が": 5589,
  "▁連携": 5590,
  "腐": 5591,
  "猫": 5592,
  "▁創業": 5593,
  "峨": 5594,
  "▁パン": 5595,
  "▁摂家": 5596,
  "▁並べ": 5597,
  "▁確定": 5598,
  "▁容易": 5599,
  "▁安達": 5600,
  "▁焼酎": 5601,
  "▁史実": 5602,
  "▁安全": 5603,
  "▁希": 5604,
  "▁王国": 5605,
  "▁東大": 5606,
  "綴": 5607,
  "▁残す": 5608,
  "▁厩": 5609,
  "▁長屋": 5610,
  "漬け": 5611,
  "▁陵墓": 5612,
  "輩": 5613,
  "▁法度": 5614,
  "▁宝塚": 5615,
  "▁向上": 5616,
  "▁除き": 5617,
  "細": 5618,
  "▁同族": 5619,
  "▁ご飯": 5620,
  "．": 5621,
  "▁車庫": 5622,
  "▁勝家": 5623,
  "冠": 5624,
  "▁来日": 5625,
  "飢": 5626,
  "▁帰還": 5627,
  "靖": 5628,
  "おう": 5629,
  "ッド": 5630,
  "▁センチ": 5631,
  "▁衣装": 5632,
  "▁跡地": 5633,
  "週": 5634,
  "脳": 5635,
  "芭": 5636,
  "狐": 5637,
  "▁タクシー": 5638,
  "慕": 5639,
  "or": 5640,
  "胎": 5641,
  "▁構築": 5642,
  "塵": 5643,
  "▁追わ": 5644,
  "▁布告": 5645,
  "▁由良": 5646,
  "縮": 5647,
  "葦": 5648,
  "▁手段": 5649,
  "▁殆": 5650,
  "▁名物": 5651,
  "▁一緒": 5652,
  "▁国史": 5653,
  "▁係": 5654,
  "▁にくい": 5655,
  "喫": 5656,
  "窯": 5657,
  "▁三宮": 5658,
  "▁召し": 5659,
  "▁語ら": 5660,
  "七": 5661,
  "▁需要": 5662,
  "▁コーヒー": 5663,
  "▁生み出": 5664,
  "涅": 5665,
  "▁荒木": 5666,
  "埋": 5667,
  "▁紛争": 5668,
  "▁神々": 5669,
  "どう": 5670,
  "▁送る": 5671,
  "▁番組": 5672,
  "▁小姓": 5673,
  "叩": 5674,
  "俣": 5675,
  "冶": 5676,
  "▁情勢": 5677,
  "仇": 5678,
  "慰": 5679,
  "猟": 5680,
  "滝": 5681,
  "▁防衛": 5682,
  "牌": 5683,
  "ヘ": 5684,
  "▁埋め": 5685,
  "湊": 5686,
  "▁趣味": 5687,
  "▁神器": 5688,
  "▁どん": 5689,
  "▁養成": 5690,
  "冒": 5691,
  "▁執行": 5692,
  "▁津田": 5693,
  "▁小浜": 5694,
  "叛": 5695,
  "震": 5696,
  "▁隠岐": 5697,
  "▁海岸": 5698,
  "▁典範": 5699,
  "▁うかが": 5700,
  "▁健康": 5701,
  "▁招き": 5702,
  "午": 5703,
  "枯": 5704,
  "▁桐壺": 5705,
  "▁分布": 5706,
  "▁屋号": 5707,
  "▁團十郎": 5708,
  "▁作戦": 5709,
  "▁とどま": 5710,
  "▁きみ": 5711,
  "濠": 5712,
  "▁印刷": 5713,
  "課": 5714,
  "▁規則": 5715,
  "袖": 5716,
  "▁出生": 5717,
  "▁公布": 5718,
  "▁佐渡": 5719,
  "抑": 5720,
  "▁市内": 5721,
  "▁大炊": 5722,
  "▁梅若": 5723,
  "妾": 5724,
  "暁": 5725,
  "努": 5726,
  "▁沿岸": 5727,
  "▁挙げる": 5728,
  "▁起こす": 5729,
  "▁議長": 5730,
  "▁処罰": 5731,
  "▁筒井": 5732,
  "余": 5733,
  "▁輸出": 5734,
  "彌": 5735,
  "処": 5736,
  "▁ぶん": 5737,
  "▁強調": 5738,
  "湿": 5739,
  "▁割り": 5740,
  "考": 5741,
  "▁世代": 5742,
  "▁教員": 5743,
  "▁オオ": 5744,
  "▁艦隊": 5745,
  "▁俳句": 5746,
  "▁勝頼": 5747,
  "▁食材": 5748,
  "もり": 5749,
  "▁-）": 5750,
  "▁整え": 5751,
  "▁むら": 5752,
  "詮": 5753,
  "▁合奏": 5754,
  "▁名神": 5755,
  "▁直政": 5756,
  "▁番頭": 5757,
  "▁始祖": 5758,
  "▁居士": 5759,
  "▁えん": 5760,
  "隠": 5761,
  "寅": 5762,
  "▁衣服": 5763,
  "▁季節": 5764,
  "賤": 5765,
  "渉": 5766,
  "▁アクセス": 5767,
  "儲": 5768,
  "▁希望": 5769,
  "藻": 5770,
  "柵": 5771,
  "榎": 5772,
  "▁樺太": 5773,
  "頓": 5774,
  "▁親族": 5775,
  "▁持ち帰": 5776,
  "▁如意": 5777,
  "▁浅草": 5778,
  "▁正宗": 5779,
  "ゥ": 5780,
  "▁遊び": 5781,
  "囚": 5782,
  "箔": 5783,
  "泣": 5784,
  "辞": 5785,
  "なか": 5786,
  "丈": 5787,
  "▁子女": 5788,
  "▁被官": 5789,
  "▁義弘": 5790,
  "▁尊像": 5791,
  "赦": 5792,
  "▁能登": 5793,
  "タル": 5794,
  "▁中興": 5795,
  "憂": 5796,
  "潔": 5797,
  "▁締め": 5798,
  "鞠": 5799,
  "穫": 5800,
  "九": 5801,
  "翰": 5802,
  "▁企画": 5803,
  "至": 5804,
  "▁三昧": 5805,
  "▁観念": 5806,
  "偶": 5807,
  "輝": 5808,
  "チャー": 5809,
  "▁山頂": 5810,
  "柱": 5811,
  "▁非難": 5812,
  "▁弁慶": 5813,
  "▁料金": 5814,
  "▁時忠": 5815,
  "▁阿倍": 5816,
  "▁陣屋": 5817,
  "▁昆布": 5818,
  "▁列強": 5819,
  "楊": 5820,
  "▁赦免": 5821,
  "▁五百": 5822,
  "巳": 5823,
  "芋": 5824,
  "鴎": 5825,
  "▁議定": 5826,
  "▁設備": 5827,
  "審": 5828,
  "▁化学": 5829,
  "▁講談": 5830,
  "▁理事": 5831,
  "▁吸収": 5832,
  "▁性質": 5833,
  "▁俳諧": 5834,
  "▁実父": 5835,
  "蔭": 5836,
  "▁財団": 5837,
  "▁多賀": 5838,
  "▁うた": 5839,
  "▁夕霧": 5840,
  "▁経過": 5841,
  "悔": 5842,
  "▁立てる": 5843,
  "杯": 5844,
  "櫛": 5845,
  "▁直轄": 5846,
  "饗": 5847,
  "▁エリア": 5848,
  "▁全長": 5849,
  "卵": 5850,
  "バネ": 5851,
  "▁推挙": 5852,
  "▁アー": 5853,
  "サー": 5854,
  "障": 5855,
  "隷": 5856,
  "▁事故": 5857,
  "▁くだ": 5858,
  "▁接続": 5859,
  "▁ヶ所": 5860,
  "▁提案": 5861,
  "▁武芸": 5862,
  "▁全線": 5863,
  "▁小袖": 5864,
  "▁定める": 5865,
  "施": 5866,
  "▁史書": 5867,
  "▁仕立て": 5868,
  "夕": 5869,
  "▁春秋": 5870,
  "架": 5871,
  "▁美作": 5872,
  "削": 5873,
  "▁続ける": 5874,
  "▁門前": 5875,
  "顔": 5876,
  "１": 5877,
  "洪": 5878,
  "▁吹き": 5879,
  "▁家集": 5880,
  "ごと": 5881,
  "傑": 5882,
  "立つ": 5883,
  "茅": 5884,
  "綬": 5885,
  "W": 5886,
  "▁団地": 5887,
  "▁昇殿": 5888,
  "克": 5889,
  "▁信者": 5890,
  "▁婚姻": 5891,
  "▁振興": 5892,
  "支": 5893,
  "▁つくら": 5894,
  "鎧": 5895,
  "脅": 5896,
  "汁": 5897,
  "▁借り": 5898,
  "▁ビル": 5899,
  "▁河川": 5900,
  "▁内侍": 5901,
  "▁竣工": 5902,
  "枡": 5903,
  "▁落城": 5904,
  "▁政友": 5905,
  "迹": 5906,
  "錬": 5907,
  "芽": 5908,
  "▁宮殿": 5909,
  "▁イベント": 5910,
  "▁適用": 5911,
  "▁ワキ": 5912,
  "▁大使": 5913,
  "▁宮司": 5914,
  "鋒": 5915,
  "▁雑賀": 5916,
  "漏": 5917,
  "▁向かい": 5918,
  "況": 5919,
  "粗": 5920,
  "酷": 5921,
  "▁著者": 5922,
  "▁西京": 5923,
  "▁勝手": 5924,
  "▁恵まれ": 5925,
  "閤": 5926,
  "▁ハイ": 5927,
  "按": 5928,
  "▁討死": 5929,
  "▁会所": 5930,
  "ンス": 5931,
  "▁宝塔": 5932,
  "▁下旬": 5933,
  "▁ブーム": 5934,
  "幹": 5935,
  "▁力士": 5936,
  "▁付ける": 5937,
  "▁隠し": 5938,
  "響": 5939,
  "漬": 5940,
  "惜": 5941,
  "▁寛弘": 5942,
  "漉": 5943,
  "醸": 5944,
  "胆": 5945,
  "▁公認": 5946,
  "耶": 5947,
  "▁勅許": 5948,
  "剃": 5949,
  "▁握り": 5950,
  "膨": 5951,
  "▁かぶ": 5952,
  "▁会長": 5953,
  "彰": 5954,
  "▁比定": 5955,
  "▁与謝": 5956,
  "▁発布": 5957,
  "▁地理": 5958,
  "債": 5959,
  "篇": 5960,
  "▁職員": 5961,
  "▁旅館": 5962,
  "暖": 5963,
  "▁勲章": 5964,
  "▁橋立": 5965,
  "▁舎利": 5966,
  "▁降り": 5967,
  "ニア": 5968,
  "▁画像": 5969,
  "▁宇佐": 5970,
  "逐": 5971,
  "咲": 5972,
  "▁制圧": 5973,
  "どころ": 5974,
  "▁商店": 5975,
  "▁列島": 5976,
  "芦": 5977,
  "▁出汁": 5978,
  "▁きゅう": 5979,
  "▁住み": 5980,
  "▁全般": 5981,
  "ガン": 5982,
  "▁論じ": 5983,
  "▁山梨": 5984,
  "呼": 5985,
  "▁上陸": 5986,
  "▁味付け": 5987,
  "▁関わる": 5988,
  "▁道隆": 5989,
  "逢": 5990,
  "▁明法": 5991,
  "▁工程": 5992,
  "▁家茂": 5993,
  "【": 5994,
  "】": 5995,
  "▁吉祥": 5996,
  "▁取ら": 5997,
  "拳": 5998,
  "粛": 5999,
  "須賀": 6000,
  "もの": 6001,
  "爆": 6002,
  "琳": 6003,
  "篠": 6004,
  "呑": 6005,
  "樫": 6006,
  "▁後裔": 6007,
  "▁公演": 6008,
  "▁埴輪": 6009,
  "▁為義": 6010,
  "▁誤り": 6011,
  "頂": 6012,
  "▁宝生": 6013,
  "憑": 6014,
  "▁引退": 6015,
  "蘭": 6016,
  "邑": 6017,
  "左": 6018,
  "▁支払": 6019,
  "▁勤務": 6020,
  "単": 6021,
  "▁比企": 6022,
  "缶": 6023,
  "▁屋台": 6024,
  "雛": 6025,
  "團": 6026,
  "優": 6027,
  "諾": 6028,
  "譲": 6029,
  "粥": 6030,
  "煕": 6031,
  "臼": 6032,
  "躍": 6033,
  "也": 6034,
  "獲": 6035,
  "裾": 6036,
  "泡": 6037,
  "妥": 6038,
  "昔": 6039,
  "乳": 6040,
  "拘": 6041,
  "肝": 6042,
  "叔": 6043,
  "裂": 6044,
  "＞": 6045,
  "妨": 6046,
  "+": 6047,
  "錯": 6048,
  "圀": 6049,
  "僅": 6050,
  "刈": 6051,
  "牽": 6052,
  "牧": 6053,
  "涙": 6054,
  "盲": 6055,
  "禎": 6056,
  "卓": 6057,
  "帰": 6058,
  "割": 6059,
  "臭": 6060,
  "慢": 6061,
  "檗": 6062,
  "嵯": 6063,
  "買": 6064,
  "尺": 6065,
  "鴨": 6066,
  "凍": 6067,
  "匹": 6068,
  "過": 6069,
  "鷲": 6070,
  "卜": 6071,
  "稲": 6072,
  "畝": 6073,
  "亨": 6074,
  "駆": 6075,
  "嶽": 6076,
  "騨": 6077,
  "逸": 6078,
  "覇": 6079,
  "群": 6080,
  "棋": 6081,
  "闇": 6082,
  "鋭": 6083,
  "祟": 6084,
  "勉": 6085,
  "絡": 6086,
  "薙": 6087,
  "販": 6088,
  "祇": 6089,
  "把": 6090,
  "析": 6091,
  "蒔": 6092,
  "冬": 6093,
  "憤": 6094,
  "酔": 6095,
  "抹": 6096,
  "粘": 6097,
  "巾": 6098,
  "撫": 6099,
  "曇": 6100,
  "蹟": 6101,
  "〈": 6102,
  "裳": 6103,
  "「": 6104,
  "拓": 6105,
  "隻": 6106,
  "怖": 6107,
  "亡": 6108,
  "据": 6109,
  "授": 6110,
  "挑": 6111,
  "桜": 6112,
  "堵": 6113,
  "洛": 6114,
  "脇": 6115,
  "函": 6116,
  "嶋": 6117,
  "註": 6118,
  "喰": 6119,
  "飴": 6120,
  "毅": 6121,
  "勅": 6122,
  "岩": 6123,
  "扇": 6124,
  "険": 6125,
  "塁": 6126,
  "喧": 6127,
  "峡": 6128,
  "陸": 6129,
  "涌": 6130,
  "増": 6131,
  "弾": 6132,
  "＜": 6133,
  "〉": 6134,
  "蜜": 6135,
  "はや": 6136,
  "遡": 6137,
  "甫": 6138,
  "蚕": 6139,
  "墓": 6140,
  "摺": 6141,
  "殉": 6142,
  "偈": 6143,
  "潤": 6144,
  "茎": 6145,
  "纏": 6146,
  "嶺": 6147,
  "潰": 6148,
  "顧": 6149,
  "泳": 6150,
  "姿": 6151,
  "眠": 6152,
  "肌": 6153,
  "栗": 6154,
  "笹": 6155,
  "虜": 6156,
  "荷": 6157,
  "蝶": 6158,
  "逆": 6159,
  "嘉": 6160,
  "微": 6161,
  "ぢ": 6162,
  "厄": 6163,
  "遁": 6164,
  "診": 6165,
  "万": 6166,
  "婦": 6167,
  "而": 6168,
  "饉": 6169,
  "静": 6170,
  "血": 6171,
  "捜": 6172,
  "珍": 6173,
  "牙": 6174,
  "振": 6175,
  "某": 6176,
  "璽": 6177,
  "噺": 6178,
  "奉": 6179,
  "燕": 6180,
  "疫": 6181,
  "横": 6182,
  "欲": 6183,
  "阪": 6184,
  "丞": 6185,
  "乞": 6186,
  "ゾ": 6187,
  "鳴": 6188,
  "ヂ": 6189,
  "黄": 6190,
  "娘": 6191,
  "礎": 6192,
  "芳": 6193,
  "夭": 6194,
  "竜": 6195,
  "軟": 6196,
  "昧": 6197,
  "樋": 6198,
  "嫁": 6199,
  "掾": 6200,
  "Y": 6201,
  "簿": 6202,
  "朴": 6203,
  "鴻": 6204,
  "璋": 6205,
  "添": 6206,
  "樽": 6207,
  "敏": 6208,
  "故": 6209,
  "塗": 6210,
  "銘": 6211,
  "鰹": 6212,
  "漫": 6213,
  "冷": 6214,
  "帆": 6215,
  "恥": 6216,
  "闍": 6217,
  "癒": 6218,
  "讒": 6219,
  "欠": 6220,
  "搬": 6221,
  "粕": 6222,
  "刺": 6223,
  "衝": 6224,
  "眉": 6225,
  "剛": 6226,
  "冥": 6227,
  "熟": 6228,
  "爾": 6229,
  "牡": 6230,
  "殻": 6231,
  "票": 6232,
  "恭": 6233,
  "餓": 6234,
  "漂": 6235,
  "祐": 6236,
  "曹": 6237,
  "熾": 6238,
  "％": 6239,
  "俘": 6240,
  "國": 6241,
  "誠": 6242,
  "懇": 6243,
  "硬": 6244,
  "塀": 6245,
  "祠": 6246,
  "叢": 6247,
  "遵": 6248,
  "莫": 6249,
  "幻": 6250,
  "箱": 6251,
  "且": 6252,
  "絞": 6253,
  "膝": 6254,
  "吐": 6255,
  "脚": 6256,
  "晶": 6257,
  "荻": 6258,
  "糾": 6259,
  "蘆": 6260,
  "鰻": 6261,
  "抽": 6262,
  "究": 6263,
  "賓": 6264,
  "斥": 6265,
  "瓊": 6266,
  "傳": 6267,
  "圓": 6268,
  "斑": 6269,
  "仮": 6270,
  "!": 6271,
  "砦": 6272,
  "遼": 6273,
  "舒": 6274,
  "霞": 6275,
  "刷": 6276,
  "卯": 6277,
  "哉": 6278,
  "霧": 6279,
  "貯": 6280,
  "曰": 6281,
  "刹": 6282,
  "酉": 6283,
  "爪": 6284,
  "講": 6285,
  "袍": 6286,
  "窟": 6287,
  "桐": 6288,
  "麟": 6289,
  "２": 6290,
  "勲": 6291,
  "個": 6292,
  "舌": 6293,
  "匿": 6294,
  "焉": 6295,
  "j": 6296,
  "為": 6297,
  "壽": 6298,
  "循": 6299,
  "雰": 6300,
  "學": 6301,
  "掲": 6302,
  "隼": 6303,
  "ヅ": 6304,
  "襟": 6305,
  "伎": 6306,
  "瓦": 6307,
  "陪": 6308,
  "以": 6309,
  "詠": 6310,
  "妊": 6311,
  "窪": 6312,
  "馨": 6313,
  "翁": 6314,
  "緑": 6315,
  "紗": 6316,
  "悟": 6317,
  "兜": 6318,
  "亥": 6319,
  "朔": 6320,
  "撥": 6321,
  "庚": 6322,
  "損": 6323,
  "狭": 6324,
  "剤": 6325,
  "裸": 6326,
  "！": 6327,
  "挽": 6328,
  "徽": 6329,
  "歳": 6330,
  "鏑": 6331,
  "狼": 6332,
  "燗": 6333,
  "綸": 6334,
  "盧": 6335,
  "謂": 6336,
  "遥": 6337,
  "藍": 6338,
  "昇": 6339,
  "廓": 6340,
  "桑": 6341,
  "魁": 6342,
  "宴": 6343,
  "誕": 6344,
  "暫": 6345,
  "栖": 6346,
  "擢": 6347,
  "采": 6348,
  "娶": 6349,
  "‐": 6350,
  "騰": 6351,
  "崖": 6352,
  "輸": 6353,
  "半": 6354,
  "丑": 6355,
  "幌": 6356,
  "應": 6357,
  "懲": 6358,
  "鋼": 6359,
  "憶": 6360,
  "窺": 6361,
  "博": 6362,
  "牒": 6363,
  "棟": 6364,
  "耳": 6365,
  "擾": 6366,
  "茹": 6367,
  "罷": 6368,
  "；": 6369,
  "壷": 6370,
  "妹": 6371,
  "欄": 6372,
  "蟄": 6373,
  ">": 6374,
  "嘩": 6375,
  "股": 6376,
  "執": 6377,
  "暴": 6378,
  "盆": 6379,
  "快": 6380,
  "篤": 6381,
  "疲": 6382,
  "溜": 6383,
  ":": 6384,
  "秤": 6385,
  "叫": 6386,
  "魅": 6387,
  "弊": 6388,
  "隙": 6389,
  "–": 6390,
  "榊": 6391,
  "鯉": 6392,
  "鈔": 6393,
  "吊": 6394,
  "垂": 6395,
  "淳": 6396,
  "馳": 6397,
  "惨": 6398,
  "狛": 6399,
  "随": 6400,
  "盗": 6401,
  "曾": 6402,
  "ぺ": 6403,
  "誦": 6404,
  "瀧": 6405,
  "聘": 6406,
  "忍": 6407,
  "凰": 6408,
  "娯": 6409,
  "韻": 6410,
  "牢": 6411,
  "賃": 6412,
  "鍬": 6413,
  "鞆": 6414,
  "禍": 6415,
  "羊": 6416,
  "桟": 6417,
  "髭": 6418,
  "竪": 6419,
  "芝": 6420,
  "迭": 6421,
  "遂": 6422,
  "煩": 6423,
  "ヵ": 6424,
  "炒": 6425,
  "譚": 6426,
  "椿": 6427,
  "漱": 6428,
  "晒": 6429,
  "浩": 6430,
  "≒": 6431,
  "協": 6432,
  "楯": 6433,
  "箕": 6434,
  "肥": 6435,
  "賑": 6436,
  "畜": 6437,
  "稽": 6438,
  "舗": 6439,
  "何": 6440,
  "鳶": 6441,
  "膠": 6442,
  "謎": 6443,
  "夏": 6444,
  "検": 6445,
  "閻": 6446,
  "灌": 6447,
  "菟": 6448,
  "巴": 6449,
  "椎": 6450,
  "稼": 6451,
  "截": 6452,
  "捧": 6453,
  "偽": 6454,
  "臓": 6455,
  "廿": 6456,
  "瞬": 6457,
  "墳": 6458,
  "藁": 6459,
  "峙": 6460,
  "宙": 6461,
  "叉": 6462,
  "竺": 6463,
  "寸": 6464,
  "曖": 6465,
  "馴": 6466,
  "芥": 6467,
  "繍": 6468,
  "碧": 6469,
  "釘": 6470,
  "峻": 6471,
  "恒": 6472,
  "臈": 6473,
  "臂": 6474,
  "遮": 6475,
  "鷺": 6476,
  "漆": 6477,
  "贋": 6478,
  "焦": 6479,
  "喬": 6480,
  "槌": 6481,
  "賄": 6482,
  "讃": 6483,
  "低": 6484,
  "咎": 6485,
  "姪": 6486,
  "杓": 6487,
  "油": 6488,
  "甕": 6489,
  "沸": 6490,
  "傀": 6491,
  "儡": 6492,
  "婢": 6493,
  "聡": 6494,
  "睦": 6495,
  "脩": 6496,
  "鍋": 6497,
  "椀": 6498,
  "借": 6499,
  "渤": 6500,
  "湛": 6501,
  "畏": 6502,
  "辱": 6503,
  "祉": 6504,
  "喩": 6505,
  "繋": 6506,
  "霜": 6507,
  "濁": 6508,
  "斐": 6509,
  "停": 6510,
  "嫡": 6511,
  "摘": 6512,
  "簾": 6513,
  "痘": 6514,
  "z": 6515,
  "完": 6516,
  "戴": 6517,
  "鳳": 6518,
  "姉": 6519,
  "畔": 6520,
  "氷": 6521,
  "薪": 6522,
  "瓜": 6523,
  "廣": 6524,
  "鍵": 6525,
  "岑": 6526,
  "採": 6527,
  "糖": 6528,
  "鞘": 6529,
  "妬": 6530,
  "煮": 6531,
  "杏": 6532,
  "紫": 6533,
  "隣": 6534,
  "皐": 6535,
  "眺": 6536,
  "暇": 6537,
  "實": 6538,
  "竈": 6539,
  "洒": 6540,
  "寳": 6541,
  "漸": 6542,
  "砕": 6543,
  "硯": 6544,
  "･": 6545,
  "毀": 6546,
  "嗜": 6547,
  "移": 6548,
  "煉": 6549,
  "憐": 6550,
  "鼠": 6551,
  "批": 6552,
  "央": 6553,
  "闕": 6554,
  "駕": 6555,
  "兎": 6556,
  "券": 6557,
  "簪": 6558,
  "諱": 6559,
  "挫": 6560,
  "ゝ": 6561,
  "五": 6562,
  "諫": 6563,
  "晦": 6564,
  "奇": 6565,
  "臥": 6566,
  "、": 6567,
  "痕": 6568,
  "麩": 6569,
  "藝": 6570,
  "絃": 6571,
  "奴": 6572,
  "糠": 6573,
  "尽": 6574,
  "當": 6575,
  "焚": 6576,
  "匡": 6577,
  "岬": 6578,
  "ぴ": 6579,
  "彫": 6580,
  "〒": 6581,
  "募": 6582,
  "堪": 6583,
  "唆": 6584,
  "叶": 6585,
  "賭": 6586,
  "抱": 6587,
  "惧": 6588,
  "拙": 6589,
  "寂": 6590,
  "亘": 6591,
  "堯": 6592,
  "悉": 6593,
  "諦": 6594,
  "奨": 6595,
  "鈴": 6596,
  "硫": 6597,
  "舅": 6598,
  "紺": 6599,
  "縫": 6600,
  "帛": 6601,
  "値": 6602,
  "蜘": 6603,
  "鴈": 6604,
  "攘": 6605,
  "牛": 6606,
  "鐸": 6607,
  "椋": 6608,
  "饌": 6609,
  "℃": 6610,
  "咫": 6611,
  "犯": 6612,
  "責": 6613,
  "懸": 6614,
  "凌": 6615,
  "堰": 6616,
  "嘆": 6617,
  "諮": 6618,
  "ｍ": 6619,
  "湖": 6620,
  "旧": 6621,
  "犠": 6622,
  "牲": 6623,
  "壌": 6624,
  "蛛": 6625,
  "諌": 6626,
  "廬": 6627,
  "劉": 6628,
  "拭": 6629,
  "疾": 6630,
  "俵": 6631,
  "鯨": 6632,
  "深": 6633,
  "灘": 6634,
  "謳": 6635,
  "畷": 6636,
  "帷": 6637,
  "裟": 6638,
  "湧": 6639,
  "敢": 6640,
  "鮎": 6641,
  "朱": 6642,
  "舶": 6643,
  "遽": 6644,
  "J": 6645,
  "紅": 6646,
  "幟": 6647,
  "揉": 6648,
  "鯛": 6649,
  "袈": 6650,
  "播": 6651,
  "熊": 6652,
  "傍": 6653,
  "叱": 6654,
  "蓬": 6655,
  "斡": 6656,
  "零": 6657,
  "傅": 6658,
  "閲": 6659,
  "虐": 6660,
  "酛": 6661,
  "劫": 6662,
  "衷": 6663,
  "杜": 6664,
  "肯": 6665,
  "彬": 6666,
  "紐": 6667,
  "艶": 6668,
  "肴": 6669,
  "賠": 6670,
  "淑": 6671,
  "趣": 6672,
  "什": 6673,
  "脱": 6674,
  "棒": 6675,
  "頑": 6676,
  "稜": 6677,
  "悼": 6678,
  "株": 6679,
  "緯": 6680,
  "伍": 6681,
  "碩": 6682,
  "昆": 6683,
  "瑞": 6684,
  "冑": 6685,
  "嫉": 6686,
  "３": 6687,
  "桃": 6688,
  "桁": 6689,
  "苛": 6690,
  "躯": 6691,
  "苦": 6692,
  "ā": 6693,
  "挨": 6694,
  "拶": 6695,
  "猶": 6696,
  "遍": 6697,
  "眞": 6698,
  "適": 6699,
  "鏃": 6700,
  "訶": 6701,
  "腰": 6702,
  "斧": 6703,
  "佳": 6704,
  "廟": 6705,
  "擦": 6706,
  "溺": 6707,
  "釜": 6708,
  "卷": 6709,
  "慌": 6710,
  "俸": 6711,
  "宏": 6712,
  "噛": 6713,
  "袱": 6714,
  "綻": 6715,
  "濫": 6716,
  "樟": 6717,
  "笙": 6718,
  "籬": 6719,
  "健": 6720,
  "般": 6721,
  "樂": 6722,
  "悠": 6723,
  "秘": 6724,
  "磐": 6725,
  "薩": 6726,
  "昨": 6727,
  "沐": 6728,
  "洗": 6729,
  "憎": 6730,
  "伊": 6731,
  "逓": 6732,
  "懐": 6733,
  "舜": 6734,
  "玩": 6735,
  "卿": 6736,
  "癖": 6737,
  "□": 6738,
  "艘": 6739,
  "櫻": 6740,
  "藉": 6741,
  "謗": 6742,
  "是": 6743,
  "坦": 6744,
  "芯": 6745,
  "萱": 6746,
  "與": 6747,
  "偵": 6748,
  "鉦": 6749,
  "蔑": 6750,
  "醜": 6751,
  "枕": 6752,
  "嵌": 6753,
  "蚊": 6754,
  "糊": 6755,
  "藪": 6756,
  "佃": 6757,
  "貰": 6758,
  "嘱": 6759,
  "４": 6760,
  "勿": 6761,
  "羹": 6762,
  "侘": 6763,
  "貝": 6764,
  "充": 6765,
  "偉": 6766,
  "罵": 6767,
  "跨": 6768,
  "雉": 6769,
  "槐": 6770,
  "翫": 6771,
  "ゐ": 6772,
  "供": 6773,
  "櫃": 6774,
  "滴": 6775,
  "媒": 6776,
  "蕪": 6777,
  "偲": 6778,
  "汽": 6779,
  "芙": 6780,
  "炭": 6781,
  "厘": 6782,
  "頒": 6783,
  "椒": 6784,
  "袴": 6785,
  "椅": 6786,
  "披": 6787,
  "翠": 6788,
  "吟": 6789,
  "蛍": 6790,
  "冊": 6791,
  "葛": 6792,
  "暑": 6793,
  "腸": 6794,
  "尖": 6795,
  "醪": 6796,
  "迄": 6797,
  "曼": 6798,
  "蜷": 6799,
  "帖": 6800,
  "董": 6801,
  "蓑": 6802,
  "釉": 6803,
  "溝": 6804,
  "雌": 6805,
  "鄭": 6806,
  "薄": 6807,
  "怠": 6808,
  "鉛": 6809,
  "銕": 6810,
  "駐": 6811,
  "杭": 6812,
  "非": 6813,
  "浅": 6814,
  "毬": 6815,
  "禊": 6816,
  "柚": 6817,
  "繕": 6818,
  "珂": 6819,
  "蓉": 6820,
  "奢": 6821,
  "桂": 6822,
  "紡": 6823,
  "湾": 6824,
  "猩": 6825,
  "胃": 6826,
  "叟": 6827,
  "荼": 6828,
  "溢": 6829,
  "鉱": 6830,
  "賽": 6831,
  "撒": 6832,
  "絹": 6833,
  "梓": 6834,
  "犬": 6835,
  "肺": 6836,
  "孟": 6837,
  "綺": 6838,
  "逼": 6839,
  "抄": 6840,
  "瓢": 6841,
  "飛": 6842,
  "蝉": 6843,
  "堕": 6844,
  "螺": 6845,
  "倹": 6846,
  "款": 6847,
  "剰": 6848,
  "侠": 6849,
  "姻": 6850,
  "酢": 6851,
  "只": 6852,
  "慈": 6853,
  "奘": 6854,
  "厭": 6855,
  "ゑ": 6856,
  "漠": 6857,
  "緻": 6858,
  "妖": 6859,
  "筈": 6860,
  "槽": 6861,
  "舘": 6862,
  "巫": 6863,
  "凱": 6864,
  "爲": 6865,
  "贅": 6866,
  "軒": 6867,
  "辿": 6868,
  "樺": 6869,
  "濾": 6870,
  "筅": 6871,
  "囃": 6872,
  "醗": 6873,
  "總": 6874,
  "塑": 6875,
  "寡": 6876,
  "遙": 6877,
  "卸": 6878,
  "棹": 6879,
  "梗": 6880,
  "&": 6881,
  "崇": 6882,
  "亦": 6883,
  "萌": 6884,
  "墜": 6885,
  "飽": 6886,
  "但": 6887,
  "盂": 6888,
  "磯": 6889,
  "禮": 6890,
  "渟": 6891,
  "逍": 6892,
  "躬": 6893,
  "狂": 6894,
  "跏": 6895,
  "姦": 6896,
  "菩": 6897,
  "拷": 6898,
  "籤": 6899,
  "蒲": 6900,
  "詩": 6901,
  "徴": 6902,
  "汝": 6903,
  "兌": 6904,
  "青": 6905,
  "沓": 6906,
  "覆": 6907,
  "寒": 6908,
  "両": 6909,
  "譽": 6910,
  "髄": 6911,
  "歯": 6912,
  "覗": 6913,
  "秒": 6914,
  "鯖": 6915,
  "乎": 6916,
  "掟": 6917,
  "鈿": 6918,
  "噴": 6919,
  "宵": 6920,
  "砥": 6921,
  "菊": 6922,
  "鵄": 6923,
  "斤": 6924,
  "鸞": 6925,
  "晃": 6926,
  "含": 6927,
  "跋": 6928,
  "竿": 6929,
  "捻": 6930,
  "號": 6931,
  "漁": 6932,
  "靴": 6933,
  "焙": 6934,
  "乃": 6935,
  "包": 6936,
  "弄": 6937,
  "圭": 6938,
  "托": 6939,
  "概": 6940,
  "｡": 6941,
  "瘡": 6942,
  "炊": 6943,
  "崋": 6944,
  "篥": 6945,
  "梟": 6946,
  "幽": 6947,
  "濡": 6948,
  "緋": 6949,
  "梯": 6950,
  "稗": 6951,
  "嫌": 6952,
  "腋": 6953,
  "麹": 6954,
  "簒": 6955,
  "揖": 6956,
  "欣": 6957,
  "柘": 6958,
  "笥": 6959,
  "葱": 6960,
  "尿": 6961,
  "胡": 6962,
  "篳": 6963,
  "培": 6964,
  "坑": 6965,
  "需": 6966,
  "揄": 6967,
  "魯": 6968,
  "茄": 6969,
  "袿": 6970,
  "搾": 6971,
  "璃": 6972,
  "蛤": 6973,
  "寶": 6974,
  "憧": 6975,
  "揶": 6976,
  "尭": 6977,
  "穣": 6978,
  "菓": 6979,
  "賜": 6980,
  "砧": 6981,
  "掻": 6982,
  "剖": 6983,
  "騙": 6984,
  "盃": 6985,
  "彙": 6986,
  "訛": 6987,
  "醒": 6988,
  "袢": 6989,
  "疋": 6990,
  "陛": 6991,
  "奄": 6992,
  "網": 6993,
  "徹": 6994,
  "祗": 6995,
  "已": 6996,
  "猷": 6997,
  "宍": 6998,
  "祢": 6999,
  "騎": 7000,
  "慨": 7001,
  "朕": 7002,
  "笏": 7003,
  "徂": 7004,
  "鍔": 7005,
  "娼": 7006,
  "佛": 7007,
  "榜": 7008,
  "經": 7009,
  "耽": 7010,
  "罹": 7011,
  "顛": 7012,
  "僊": 7013,
  "賎": 7014,
  "奠": 7015,
  "弧": 7016,
  "菖": 7017,
  "嬉": 7018,
  "搗": 7019,
  "徠": 7020,
  "茲": 7021,
  "綏": 7022,
  "Q": 7023,
  "栽": 7024,
  "楕": 7025,
  "碓": 7026,
  "豎": 7027,
  "凉": 7028,
  "蟹": 7029,
  "朽": 7030,
  "丙": 7031,
  "肩": 7032,
  "柔": 7033,
  "玖": 7034,
  "抵": 7035,
  "尋": 7036,
  "侮": 7037,
  "渦": 7038,
  "迂": 7039,
  "槍": 7040,
  "稔": 7041,
  "堆": 7042,
  "詛": 7043,
  "朧": 7044,
  "熈": 7045,
  "歎": 7046,
  "歿": 7047,
  "鈷": 7048,
  "柏": 7049,
  "扮": 7050,
  "毫": 7051,
  "扁": 7052,
  "燭": 7053,
  "棗": 7054,
  "羲": 7055,
  "址": 7056,
  "▁広ま": 7057,
  "槇": 7058,
  "右": 7059,
  "鞭": 7060,
  "贄": 7061,
  "凹": 7062,
  "褐": 7063,
  "蜻": 7064,
  "乙": 7065,
  "覺": 7066,
  "趙": 7067,
  "欺": 7068,
  "⇒": 7069,
  "卒": 7070,
  "汗": 7071,
  "喚": 7072,
  "蝋": 7073,
  "鶯": 7074,
  "７": 7075,
  "熨": 7076,
  "衿": 7077,
  "蛉": 7078,
  "宥": 7079,
  "衍": 7080,
  "綜": 7081,
  "篋": 7082,
  "錫": 7083,
  "疇": 7084,
  "Z": 7085,
  "喝": 7086,
  "葭": 7087,
  "銃": 7088,
  "襄": 7089,
  "珎": 7090,
  "煎": 7091,
  "柑": 7092,
  "讐": 7093,
  "韶": 7094,
  "＋": 7095,
  "會": 7096,
  "轄": 7097,
  "第": 7098,
  "咋": 7099,
  "袁": 7100,
  "蛸": 7101,
  "蕨": 7102,
  "漑": 7103,
  "未": 7104,
  "袂": 7105,
  "桔": 7106,
  "ヲ": 7107,
  "肪": 7108,
  "藏": 7109,
  "禿": 7110,
  "戌": 7111,
  "恕": 7112,
  "鈍": 7113,
  "雖": 7114,
  "嗚": 7115,
  "臺": 7116,
  "靡": 7117,
  "到": 7118,
  "㎡": 7119,
  "佩": 7120,
  "鵺": 7121,
  "髻": 7122,
  "劣": 7123,
  "填": 7124,
  "踏": 7125,
  "殷": 7126,
  "箭": 7127,
  "禧": 7128,
  "埴": 7129,
  "机": 7130,
  "鋳": 7131,
  "篁": 7132,
  "濃": 7133,
  "濱": 7134,
  "憩": 7135,
  "廠": 7136,
  "鐵": 7137,
  "鯰": 7138,
  "俀": 7139,
  "鑁": 7140,
  "瑠": 7141,
  "懺": 7142,
  "濯": 7143,
  "詐": 7144,
  "淡": 7145,
  "葡": 7146,
  "塊": 7147,
  "鱗": 7148,
  "湘": 7149,
  "佑": 7150,
  "并": 7151,
  "履": 7152,
  "璧": 7153,
  "迅": 7154,
  "跳": 7155,
  "←": 7156,
  "姜": 7157,
  "酬": 7158,
  "誹": 7159,
  "軌": 7160,
  "嚆": 7161,
  "頬": 7162,
  "翔": 7163,
  "咸": 7164,
  "脆": 7165,
  "双": 7166,
  "勘": 7167,
  "凸": 7168,
  "蒐": 7169,
  "臚": 7170,
  "鮑": 7171,
  "襦": 7172,
  "苧": 7173,
  "蔚": 7174,
  "班": 7175,
  "楷": 7176,
  "羂": 7177,
  "魏": 7178,
  "顗": 7179,
  "饒": 7180,
  "汎": 7181,
  "姥": 7182,
  "撞": 7183,
  "睡": 7184,
  "頁": 7185,
  "詫": 7186,
  ",": 7187,
  "莱": 7188,
  "衾": 7189,
  "巷": 7190,
  "粮": 7191,
  "阿": 7192,
  "屠": 7193,
  "５": 7194,
  "超": 7195,
  "忘": 7196,
  "憚": 7197,
  "飲": 7198,
  "勃": 7199,
  "荒": 7200,
  "祝": 7201,
  "帚": 7202,
  "嵐": 7203,
  "處": 7204,
  "喪": 7205,
  "廂": 7206,
  "穿": 7207,
  "籾": 7208,
  "銚": 7209,
  "壹": 7210,
  "胞": 7211,
  "坐": 7212,
  "精": 7213,
  "夢": 7214,
  "羨": 7215,
  "《": 7216,
  "》": 7217,
  "陶": 7218,
  "邊": 7219,
  "紬": 7220,
  "膜": 7221,
  "冨": 7222,
  "嘘": 7223,
  "他": 7224,
  "屏": 7225,
  "喉": 7226,
  "雙": 7227,
  "鉤": 7228,
  "耀": 7229,
  "癌": 7230,
  "僕": 7231,
  "郁": 7232,
  "笄": 7233,
  "醤": 7234,
  "畿": 7235,
  "曙": 7236,
  "嬢": 7237,
  "眷": 7238,
  "惹": 7239,
  "屈": 7240,
  "琢": 7241,
  "凄": 7242,
  "鼎": 7243,
  "礫": 7244,
  "几": 7245,
  "斯": 7246,
  "娠": 7247,
  "瞭": 7248,
  "鰭": 7249,
  "爛": 7250,
  "゙": 7251,
  "戔": 7252,
  "妍": 7253,
  "奸": 7254,
  "賣": 7255,
  "鐐": 7256,
  "桧": 7257,
  "頌": 7258,
  "暢": 7259,
  "羯": 7260,
  "枳": 7261,
  "赤": 7262,
  "暗": 7263,
  "蕩": 7264,
  "纂": 7265,
  "蔀": 7266,
  "膾": 7267,
  "楓": 7268,
  "阮": 7269,
  "薨": 7270,
  "橘": 7271,
  "瑜": 7272,
  "衞": 7273,
  "煽": 7274,
  "劾": 7275,
  "忙": 7276,
  "逗": 7277,
  "鵬": 7278,
  "鮨": 7279,
  "酌": 7280,
  "楚": 7281,
  "誡": 7282,
  "竟": 7283,
  "痴": 7284,
  "釧": 7285,
  "痩": 7286,
  "妄": 7287,
  "軋": 7288,
  "轢": 7289,
  "膚": 7290,
  "鍾": 7291,
  "碗": 7292,
  "贔": 7293,
  "屓": 7294,
  "轟": 7295,
  "賂": 7296,
  "陞": 7297,
  "~": 7298,
  "楠": 7299,
  "筥": 7300,
  "耗": 7301,
  "徭": 7302,
  "錐": 7303,
  "燻": 7304,
  "這": 7305,
  "堅": 7306,
  "蛙": 7307,
  "畳": 7308,
  "麾": 7309,
  "榛": 7310,
  "蠣": 7311,
  "私": 7312,
  "苅": 7313,
  "晁": 7314,
  "寝": 7315,
  "雍": 7316,
  "惚": 7317,
  "礁": 7318,
  "寓": 7319,
  "糟": 7320,
  "<": 7321,
  "捺": 7322,
  "搭": 7323,
  "描": 7324,
  "套": 7325,
  "熹": 7326,
  "闢": 7327,
  "餘": 7328,
  "菴": 7329,
  "祁": 7330,
  "箸": 7331,
  "緬": 7332,
  "裃": 7333,
  "閔": 7334,
  "蕎": 7335,
  "崗": 7336,
  "旺": 7337,
  "諺": 7338,
  "焔": 7339,
  "蔓": 7340,
  "誄": 7341,
  "孚": 7342,
  "操": 7343,
  "箪": 7344,
  "尤": 7345,
  "炮": 7346,
  "訊": 7347,
  "拵": 7348,
  "楢": 7349,
  "搦": 7350,
  "氾": 7351,
  "茸": 7352,
  "滓": 7353,
  "疱": 7354,
  "斬": 7355,
  "絣": 7356,
  "齋": 7357,
  "鬱": 7358,
  "鑰": 7359,
  "咒": 7360,
  "浙": 7361,
  "娑": 7362,
  "」": 7363,
  "涯": 7364,
  "塙": 7365,
  "癸": 7366,
  "唇": 7367,
  "惺": 7368,
  "瀕": 7369,
  "掠": 7370,
  "炙": 7371,
  "蒼": 7372,
  "鷹": 7373,
  "旛": 7374,
  "鬚": 7375,
  "登": 7376,
  "晩": 7377,
  "訥": 7378,
  "咄": 7379,
  "惟": 7380,
  "决": 7381,
  "梧": 7382,
  "渇": 7383,
  "于": 7384,
  "彭": 7385,
  "諜": 7386,
  "狸": 7387,
  "嶼": 7388,
  "愚": 7389,
  "掴": 7390,
  "韮": 7391,
  "恋": 7392,
  "腫": 7393,
  "肘": 7394,
  "簀": 7395,
  "磔": 7396,
  "倭": 7397,
  "蛋": 7398,
  "纓": 7399,
  "證": 7400,
  "瞑": 7401,
  "弛": 7402,
  "虹": 7403,
  "做": 7404,
  "｢": 7405,
  "狄": 7406,
  "殯": 7407,
  "杣": 7408,
  "汐": 7409,
  "崑": 7410,
  "玲": 7411,
  "楮": 7412,
  "困": 7413,
  "鑓": 7414,
  "鵯": 7415,
  "諍": 7416,
  "嵩": 7417,
  "韋": 7418,
  "冲": 7419,
  "渾": 7420,
  "昂": 7421,
  "剋": 7422,
  "溪": 7423,
  "嘲": 7424,
  "縞": 7425,
  "旅": 7426,
  "祓": 7427,
  "鎬": 7428,
  "硝": 7429,
  "綽": 7430,
  "德": 7431,
  "＊": 7432,
  "埼": 7433,
  "更": 7434,
  "襴": 7435,
  "愕": 7436,
  "怪": 7437,
  "儺": 7438,
  "烹": 7439,
  "餌": 7440,
  "糞": 7441,
  "侈": 7442,
  "沈": 7443,
  "俺": 7444,
  "鑽": 7445,
  "頸": 7446,
  "０": 7447,
  "萄": 7448,
  "擲": 7449,
  "媚": 7450,
  "匙": 7451,
  "撮": 7452,
  "蔦": 7453,
  "愁": 7454,
  "錦": 7455,
  "傭": 7456,
  "哨": 7457,
  "跪": 7458,
  "譬": 7459,
  "卍": 7460,
  "煌": 7461,
  "惠": 7462,
  "辨": 7463,
  "誤": 7464,
  "蟇": 7465,
  "婁": 7466,
  "緩": 7467,
  "拉": 7468,
  "冤": 7469,
  "驕": 7470,
  "蟻": 7471,
  "乖": 7472,
  "框": 7473,
  "刳": 7474,
  "篷": 7475,
  "爺": 7476,
  "纒": 7477,
  "q": 7478,
  "鮭": 7479,
  "貪": 7480,
  "改": 7481,
  "灸": 7482,
  "躰": 7483,
  "芒": 7484,
  "—": 7485,
  "爽": 7486,
  "殴": 7487,
  "皺": 7488,
  "衽": 7489,
  "弉": 7490,
  ")": 7491,
  "亮": 7492,
  "舂": 7493,
  "珪": 7494,
  "訣": 7495,
  "戎": 7496,
  "蜀": 7497,
  "附": 7498,
  "誘": 7499,
  "遅": 7500,
  "坡": 7501,
  "薗": 7502,
  "忽": 7503,
  "來": 7504,
  "短": 7505,
  "谿": 7506,
  "諸": 7507,
  "櫓": 7508,
  "鮫": 7509,
  "鍮": 7510,
  "窩": 7511,
  "俄": 7512,
  "埵": 7513,
  "麁": 7514,
  "畢": 7515,
  "葩": 7516,
  "試": 7517,
  "淨": 7518,
  "濤": 7519,
  "啄": 7520,
  "遜": 7521,
  "鍼": 7522,
  "錠": 7523,
  "巡": 7524,
  "榮": 7525,
  "脊": 7526,
  "絢": 7527,
  "煤": 7528,
  "鬢": 7529,
  "盈": 7530,
  "庖": 7531,
  "誼": 7532,
  "鮪": 7533,
  "嚢": 7534,
  "奎": 7535,
  "貶": 7536,
  "犀": 7537,
  "又": 7538,
  "栂": 7539,
  "杮": 7540,
  "黎": 7541,
  "聯": 7542,
  "鞋": 7543,
  "鋸": 7544,
  "鰯": 7545,
  "漿": 7546,
  "漕": 7547,
  "］": 7548,
  "關": 7549,
  "假": 7550,
  "孔": 7551,
  "掬": 7552,
  "坪": 7553,
  "蛭": 7554,
  "挺": 7555,
  "怡": 7556,
  "錆": 7557,
  "鸚": 7558,
  "を": 7559,
  "篝": 7560,
  "糺": 7561,
  "殲": 7562,
  "肆": 7563,
  "升": 7564,
  "垢": 7565,
  "獅": 7566,
  "睨": 7567,
  "仔": 7568,
  "榴": 7569,
  "捏": 7570,
  "娍": 7571,
  "怯": 7572,
  "虚": 7573,
  "禽": 7574,
  "痺": 7575,
  "８": 7576,
  "]": 7577,
  "［": 7578,
  "臆": 7579,
  "穆": 7580,
  "泗": 7581,
  "疎": 7582,
  "捌": 7583,
  "鋤": 7584,
  "鼈": 7585,
  "氣": 7586,
  "肢": 7587,
  "醇": 7588,
  "烙": 7589,
  "鮓": 7590,
  "幢": 7591,
  "紳": 7592,
  "圃": 7593,
  "蒹": 7594,
  "駈": 7595,
  "鵞": 7596,
  "膏": 7597,
  "肇": 7598,
  "雇": 7599,
  "較": 7600,
  "埠": 7601,
  "站": 7602,
  "礒": 7603,
  "傲": 7604,
  "顎": 7605,
  "燼": 7606,
  "瑩": 7607,
  "辟": 7608,
  "弗": 7609,
  "讀": 7610,
  "[": 7611,
  "餐": 7612,
  "游": 7613,
  "薮": 7614,
  "槨": 7615,
  "坤": 7616,
  "荏": 7617,
  "麝": 7618,
  "〇": 7619,
  "屍": 7620,
  "悌": 7621,
  "輯": 7622,
  "呰": 7623,
  "砺": 7624,
  "淫": 7625,
  "叙": 7626,
  "髏": 7627,
  "懿": 7628,
  "虞": 7629,
  "歪": 7630,
  "洩": 7631,
  "筵": 7632,
  "屑": 7633,
  "姑": 7634,
  "贖": 7635,
  "邁": 7636,
  "滸": 7637,
  "投": 7638,
  "槙": 7639,
  "盞": 7640,
  "鍍": 7641,
  "躊": 7642,
  "契": 7643,
  "渋": 7644,
  "被": 7645,
  "蹄": 7646,
  "舁": 7647,
  "諒": 7648,
  "鐚": 7649,
  "窃": 7650,
  "濟": 7651,
  "准": 7652,
  "訌": 7653,
  "淆": 7654,
  "劔": 7655,
  "髑": 7656,
  "ぁ": 7657,
  "黌": 7658,
  "裡": 7659,
  "鰐": 7660,
  "詔": 7661,
  "。": 7662,
  "炬": 7663,
  "箋": 7664,
  "婉": 7665,
  "浚": 7666,
  "躇": 7667,
  "窒": 7668,
  "桝": 7669,
  "戈": 7670,
  "將": 7671,
  "仍": 7672,
  "嚇": 7673,
  "幼": 7674,
  "襷": 7675,
  "儒": 7676,
  "剪": 7677,
  "盥": 7678,
  "ぇ": 7679,
  "沖": 7680,
  "尸": 7681,
  "猥": 7682,
  "脛": 7683,
  "献": 7684,
  "蔽": 7685,
  "ゞ": 7686,
  "魄": 7687,
  "煬": 7688,
  "樵": 7689,
  "潅": 7690,
  "蝦": 7691,
  "聲": 7692,
  "其": 7693,
  "縹": 7694,
  "拗": 7695,
  "幾": 7696,
  "艇": 7697,
  "瀟": 7698,
  "箏": 7699,
  "亟": 7700,
  "凋": 7701,
  "竄": 7702,
  "籐": 7703,
  "筐": 7704,
  "瘍": 7705,
  "尓": 7706,
  "胝": 7707,
  "櫟": 7708,
  "晟": 7709,
  "笈": 7710,
  "戟": 7711,
  "楳": 7712,
  "●": 7713,
  "柾": 7714,
  "諷": 7715,
  "潭": 7716,
  "飫": 7717,
  "絲": 7718,
  "摂": 7719,
  "傘": 7720,
  "翳": 7721,
  "渠": 7722,
  "攪": 7723,
  "踞": 7724,
  "珥": 7725,
  "鮒": 7726,
  "唾": 7727,
  "６": 7728,
  "淤": 7729,
  "菘": 7730,
  "仗": 7731,
  "渕": 7732,
  "栲": 7733,
  "閨": 7734,
  "釋": 7735,
  "巨": 7736,
  "逞": 7737,
  "僭": 7738,
  "乾": 7739,
  "渚": 7740,
  "范": 7741,
  "崔": 7742,
  "駁": 7743,
  "獨": 7744,
  "對": 7745,
  "栓": 7746,
  "彷": 7747,
  "擂": 7748,
  "迪": 7749,
  "冗": 7750,
  "杼": 7751,
  "矣": 7752,
  "弽": 7753,
  "α": 7754,
  "些": 7755,
  "峠": 7756,
  "遺": 7757,
  "弖": 7758,
  "閇": 7759,
  "荃": 7760,
  "筑": 7761,
  "杲": 7762,
  "瀉": 7763,
  "佚": 7764,
  "佶": 7765,
  "絆": 7766,
  "艮": 7767,
  "旱": 7768,
  "淇": 7769,
  "鐙": 7770,
  "鴫": 7771,
  "橙": 7772,
  "蕭": 7773,
  "曝": 7774,
  "追": 7775,
  "齟": 7776,
  "齬": 7777,
  "汀": 7778,
  "｣": 7779,
  "枚": 7780,
  "鱈": 7781,
  "沽": 7782,
  "櫨": 7783,
  "淀": 7784,
  "軾": 7785,
  "趨": 7786,
  "撓": 7787,
  "\"": 7788,
  "萩": 7789,
  "掖": 7790,
  "宦": 7791,
  "鈕": 7792,
  "鹵": 7793,
  "豫": 7794,
  "闡": 7795,
  "讚": 7796,
  "昏": 7797,
  "筏": 7798,
  "俎": 7799,
  "沌": 7800,
  "萬": 7801,
  "櫂": 7802,
  "猿": 7803,
  "讖": 7804,
  "陋": 7805,
  "旻": 7806,
  "痢": 7807,
  "恣": 7808,
  "裴": 7809,
  "俟": 7810,
  "雁": 7811,
  "淸": 7812,
  "邨": 7813,
  "四": 7814,
  "貸": 7815,
  "専": 7816,
  "巽": 7817,
  "茜": 7818,
  "厩": 7819,
  "聟": 7820,
  "堡": 7821,
  "壕": 7822,
  "澪": 7823,
  "閏": 7824,
  "臀": 7825,
  "毎": 7826,
  "咩": 7827,
  "无": 7828,
  "咳": 7829,
  "萎": 7830,
  "鞄": 7831,
  "涛": 7832,
  "△": 7833,
  "杢": 7834,
  "偃": 7835,
  "卦": 7836,
  "茗": 7837,
  "購": 7838,
  "肖": 7839,
  "模": 7840,
  "刎": 7841,
  "麒": 7842,
  "舊": 7843,
  "斃": 7844,
  "蹲": 7845,
  "嬬": 7846,
  "柊": 7847,
  "錮": 7848,
  "腎": 7849,
  "泌": 7850,
  "辣": 7851,
  "檮": 7852,
  "憾": 7853,
  "勺": 7854,
  "權": 7855,
  "楞": 7856,
  "ī": 7857,
  "蹊": 7858,
  "恰": 7859,
  "酥": 7860,
  "淘": 7861,
  "輦": 7862,
  "渥": 7863,
  "悶": 7864,
  "陥": 7865,
  "皓": 7866,
  "鄙": 7867,
  "呵": 7868,
  "儚": 7869,
  "稷": 7870,
  "靫": 7871,
  "鄰": 7872,
  "慣": 7873,
  "é": 7874,
  "燵": 7875,
  "碕": 7876,
  "隘": 7877,
  "壙": 7878,
  "頤": 7879,
  "澱": 7880,
  "褄": 7881,
  "闊": 7882,
  "鋲": 7883,
  "袷": 7884,
  "醂": 7885,
  "拮": 7886,
  "喀": 7887,
  "探": 7888,
  "敲": 7889,
  "兒": 7890,
  "鷦鷯": 7891,
  "輌": 7892,
  "ぃ": 7893,
  "蘊": 7894,
  "倦": 7895,
  "矯": 7896,
  "蔡": 7897,
  "齎": 7898,
  "捗": 7899,
  "昉": 7900,
  "²": 7901,
  "薊": 7902,
  "禦": 7903,
  "扈": 7904,
  "葵": 7905,
  "@": 7906,
  "鵠": 7907,
  "粂": 7908,
  "呆": 7909,
  "薺": 7910,
  "詢": 7911,
  "☆": 7912,
  "⇔": 7913,
  "匣": 7914,
  "〘": 7915,
  "〙": 7916,
  "樓": 7917,
  "閦": 7918,
  "浮": 7919,
  "忿": 7920,
  "體": 7921,
  "僑": 7922,
  "從": 7923,
  "冴": 7924,
  "疆": 7925,
  "蘂": 7926,
  "暹": 7927,
  "綾": 7928,
  "韜": 7929,
  "拐": 7930,
  "措": 7931,
  "痔": 7932,
  "貧": 7933,
  "瀛": 7934,
  "９": 7935,
  "笞": 7936,
  "謨": 7937,
  "孵": 7938,
  "蓼": 7939,
  "趾": 7940,
  "ヰ": 7941,
  "涵": 7942,
  "鶉": 7943,
  "瑪瑙": 7944,
  "靱": 7945,
  "〆": 7946,
  "箒": 7947,
  "滲": 7948,
  "襞": 7949,
  "−": 7950,
  "淹": 7951,
  "吃": 7952,
  "檻": 7953,
  "憫": 7954,
  "謬": 7955,
  "於": 7956,
  "雞": 7957,
  "絁": 7958,
  "瑤": 7959,
  "刪": 7960,
  "聰": 7961,
  "喘": 7962,
  "摸": 7963,
  "捉": 7964,
  "辯": 7965,
  "髙": 7966,
  "晨": 7967,
  "暉": 7968,
  "愈": 7969,
  "棘": 7970,
  "稱": 7971,
  "雫": 7972,
  "祷": 7973,
  "淮": 7974,
  "巖": 7975,
  "龕": 7976,
  "紆": 7977,
  "淋": 7978,
  "霰": 7979,
  "汲": 7980,
  "卉": 7981,
  "埒": 7982,
  "厠": 7983,
  "圏": 7984,
  "旭": 7985,
  "估": 7986,
  "胴": 7987,
  "胚": 7988,
  "惣": 7989,
  "稈": 7990,
  "弭": 7991,
  "鏨": 7992,
  "苫": 7993,
  "崙": 7994,
  "祺": 7995,
  "檄": 7996,
  "誣": 7997,
  "禖": 7998,
  "莬": 7999,
  "埿": 8000,
  "堺": 8001,
  "虔": 8002,
  "鸕": 8003
}