{
  "<pad>": 0,
  "<bos>": 1,
  "<eos>": 2,
  "<unk>": 3,
  "▁the": 4,
  ",": 5,
  "▁of": 6,
  ".": 7,
  "▁and": 8,
  "▁in": 9,
  "s": 10,
  "▁(": 11,
  "▁to": 12,
  "▁a": 13,
  "-": 14,
  "▁was": 15,
  ")": 16,
  "▁is": 17,
  "▁as": 18,
  "'": 19,
  "▁he": 20,
  "▁that": 21,
  "▁by": 22,
  "▁": 23,
  "▁on": 24,
  "▁no": 25,
  "▁it": 26,
  "▁for": 27,
  "▁his": 28,
  "▁with": 29,
  "ing": 30,
  "▁'": 31,
  "▁from": 32,
  "ed": 33,
  "a": 34,
  "),": 35,
  "▁\"": 36,
  ").": 37,
  "▁at": 38,
  "▁were": 39,
  "▁which": 40,
  "▁who": 41,
  "\"": 42,
  "the": 43,
  "ji": 44,
  "▁an": 45,
  "▁this": 46,
  "▁are": 47,
  "▁period": 48,
  "▁be": 49,
  "▁or": 50,
  "d": 51,
  "▁emperor": 52,
  "▁family": 53,
  "▁temple": 54,
  "e": 55,
  ":": 56,
  "▁after": 57,
  "in": 58,
  "o": 59,
  "▁but": 60,
  "▁also": 61,
  "▁had": 62,
  "▁not": 63,
  "ko": 64,
  "i": 65,
  "▁kyoto": 66,
  "▁imperial": 67,
  "▁clan": 68,
  "no": 69,
  "▁there": 70,
  "▁province": 71,
  "▁so": 72,
  "ly": 73,
  "shi": 74,
  "▁one": 75,
  "▁when": 76,
  "▁city": 77,
  "▁called": 78,
  "▁japan": 79,
  "t": 80,
  "▁became": 81,
  "▁name": 82,
  "to": 83,
  "jo": 84,
  "▁such": 85,
  "▁station": 86,
  "▁prefecture": 87,
  "▁been": 88,
  "▁japanese": 89,
  "▁however": 90,
  "▁they": 91,
  "▁used": 92,
  "do": 93,
  "sho": 94,
  "ri": 95,
  "▁have": 96,
  "▁during": 97,
  ";": 98,
  "c": 99,
  "▁-": 100,
  "▁time": 101,
  "▁ko": 102,
  "▁o": 103,
  "mi": 104,
  "▁their": 105,
  "▁son": 106,
  "▁other": 107,
  "▁first": 108,
  "ki": 109,
  "▁rank": 110,
  "▁government": 111,
  "se": 112,
  "th": 113,
  "▁court": 114,
  "er": 115,
  "r": 116,
  "▁into": 117,
  "▁shrine": 118,
  "▁has": 119,
  "go": 120,
  "ra": 121,
  "▁made": 122,
  "▁edo": 123,
  "al": 124,
  "▁its": 125,
  "y": 126,
  "▁people": 127,
  "▁line": 128,
  "n": 129,
  "▁because": 130,
  "▁prince": 131,
  "re": 132,
  "cho": 133,
  "▁school": 134,
  "▁said": 135,
  "▁castle": 136,
  "▁year": 137,
  "ya": 138,
  "▁some": 139,
  "u": 140,
  "or": 141,
  "▁under": 142,
  "ka": 143,
  "shu": 144,
  "an": 145,
  "▁sho": 146,
  "ku": 147,
  "da": 148,
  "ta": 149,
  "▁later": 150,
  "m": 151,
  "▁war": 152,
  "▁between": 153,
  "▁go": 154,
  "▁fujiwara": 155,
  ".'": 156,
  "▁her": 157,
  "▁head": 158,
  "ro": 159,
  "▁many": 160,
  "▁system": 161,
  "gi": 162,
  "▁domain": 163,
  "▁she": 164,
  "▁only": 165,
  "te": 166,
  "p": 167,
  "▁same": 168,
  "g": 169,
  "en": 170,
  "▁two": 171,
  "so": 172,
  "f": 173,
  "bu": 174,
  "kan": 175,
  "ru": 176,
  "▁since": 177,
  "▁about": 178,
  "ma": 179,
  "ation": 180,
  "▁out": 181,
  "▁over": 182,
  "ho": 183,
  "▁re": 184,
  "▁up": 185,
  "▁died": 186,
  "▁years": 187,
  "es": 188,
  "yama": 189,
  "tsu": 190,
  "▁then": 191,
  "▁second": 192,
  "st": 193,
  "kyo": 194,
  "▁all": 195,
  "me": 196,
  "chi": 197,
  "ga": 198,
  "fu": 199,
  "▁can": 200,
  "▁16": 201,
  "shin": 202,
  "▁him": 203,
  "yo": 204,
  "▁established": 205,
  "▁three": 206,
  "▁new": 207,
  "▁shin": 208,
  "▁while": 209,
  "▁them": 210,
  "▁army": 211,
  "▁bakufu": 212,
  "▁i": 213,
  "▁shogun": 214,
  "▁order": 215,
  "dai": 216,
  "▁do": 217,
  "▁old": 218,
  "mon": 219,
  "na": 220,
  "▁father": 221,
  "▁well": 222,
  "▁where": 223,
  "▁15": 224,
  "▁part": 225,
  "▁e": 226,
  "▁death": 227,
  "ke": 228,
  "be": 229,
  "▁battle": 230,
  "▁position": 231,
  "▁shi": 232,
  "▁known": 233,
  "▁taka": 234,
  "b": 235,
  "▁ho": 236,
  "▁being": 237,
  "▁written": 238,
  "▁area": 239,
  "▁these": 240,
  "▁san": 241,
  "▁palace": 242,
  "▁daughter": 243,
  "▁around": 244,
  "▁than": 245,
  "▁buddhist": 246,
  "▁those": 247,
  "ion": 248,
  "▁sect": 249,
  "de": 250,
  "ne": 251,
  "▁appointed": 252,
  "▁left": 253,
  "gu": 254,
  "ba": 255,
  "▁kami": 256,
  "k": 257,
  "wa": 258,
  "▁held": 259,
  "▁style": 260,
  "ment": 261,
  "le": 262,
  "ten": 263,
  "▁according": 264,
  "▁minamoto": 265,
  "sen": 266,
  "l": 267,
  "▁including": 268,
  "▁main": 269,
  "▁end": 270,
  "kai": 271,
  "zu": 272,
  "▁17": 273,
  "▁although": 274,
  "▁kamakura": 275,
  "▁national": 276,
  "▁ki": 277,
  "▁ka": 278,
  "ge": 279,
  "▁11": 280,
  "▁age": 281,
  "bi": 282,
  "▁rice": 283,
  "▁de": 284,
  "▁military": 285,
  "su": 286,
  "▁through": 287,
  "▁ten": 288,
  "▁served": 289,
  "gawa": 290,
  "▁side": 291,
  "▁may": 292,
  "▁post": 293,
  "▁lord": 294,
  "▁following": 295,
  "▁due": 296,
  "japanese": 297,
  "▁came": 298,
  "▁tokugawa": 299,
  "den": 300,
  "▁before": 301,
  "▁even": 302,
  "zo": 303,
  "▁jo": 304,
  "sei": 305,
  ",\"": 306,
  "▁kan": 307,
  "▁each": 308,
  "▁given": 309,
  "bo": 310,
  "▁located": 311,
  "san": 312,
  "ll": 313,
  "▁land": 314,
  "▁priest": 315,
  "▁more": 316,
  "▁day": 317,
  "▁nara": 318,
  "/": 319,
  "▁en": 320,
  "▁like": 321,
  "▁fu": 322,
  "li": 323,
  "▁hall": 324,
  "▁meiji": 325,
  "▁early": 326,
  "▁based": 327,
  "it": 328,
  "▁third": 329,
  "▁osaka": 330,
  "▁dai": 331,
  "▁high": 332,
  "ha": 333,
  "▁took": 334,
  "▁un": 335,
  "▁among": 336,
  "ju": 337,
  "▁12": 338,
  "▁various": 339,
  "▁18": 340,
  "▁mi": 341,
  "▁down": 342,
  "▁[": 343,
  "▁official": 344,
  "ni": 345,
  "▁10": 346,
  "▁c": 347,
  "▁heian": 348,
  "ic": 349,
  "▁7": 350,
  "▁did": 351,
  "▁place": 352,
  "mo": 353,
  "w": 354,
  "sha": 355,
  "jinja": 356,
  "▁power": 357,
  "▁history": 358,
  "▁region": 359,
  "▁ward": 360,
  "sai": 361,
  "▁considered": 362,
  "▁take": 363,
  "▁state": 364,
  "▁brother": 365,
  "▁co": 366,
  "▁office": 367,
  "▁wife": 368,
  "ryo": 369,
  "▁local": 370,
  "▁house": 371,
  "▁use": 372,
  "▁back": 373,
  "▁chinese": 374,
  "▁era": 375,
  "▁theory": 376,
  "▁ancient": 377,
  "▁samurai": 378,
  "▁shu": 379,
  "▁su": 380,
  "▁13": 381,
  "▁therefore": 382,
  "gen": 383,
  "▁great": 384,
  "▁right": 385,
  "▁mother": 386,
  "▁would": 387,
  "on": 388,
  "▁against": 389,
  "▁person": 390,
  "▁both": 391,
  "▁taira": 392,
  "▁con": 393,
  "jin": 394,
  "junior": 395,
  "ce": 396,
  "▁tokyo": 397,
  "▁sen": 398,
  "▁yoshi": 399,
  "▁sa": 400,
  "▁started": 401,
  "▁march": 402,
  "▁koku": 403,
  "▁if": 404,
  "▁kai": 405,
  "▁built": 406,
  "▁himself": 407,
  "▁long": 408,
  "yu": 409,
  "▁yu": 410,
  "▁title": 411,
  "▁could": 412,
  "▁book": 413,
  "tai": 414,
  "mu": 415,
  ".\"": 416,
  "▁sei": 417,
  "▁world": 418,
  "▁way": 419,
  "▁cho": 420,
  "▁most": 421,
  "▁river": 422,
  "vi": 423,
  "▁street": 424,
  "ity": 425,
  "▁feudal": 426,
  "▁present": 427,
  "▁number": 428,
  "▁railway": 429,
  "▁born": 430,
  "▁april": 431,
  "▁8": 432,
  "▁ku": 433,
  "mura": 434,
  "yoshi": 435,
  "▁chief": 436,
  "▁fact": 437,
  "▁hi": 438,
  "po": 439,
  "▁general": 440,
  "▁man": 441,
  "▁14": 442,
  "▁group": 443,
  "▁gen": 444,
  "▁times": 445,
  "▁bus": 446,
  "▁went": 447,
  "▁hand": 448,
  "ur": 449,
  "▁ma": 450,
  "▁grade": 451,
  "▁tea": 452,
  "▁ceremony": 453,
  "za": 454,
  "▁important": 455,
  "▁buddhism": 456,
  "▁governor": 457,
  "▁often": 458,
  "▁addition": 459,
  "at": 460,
  "▁ashikaga": 461,
  "▁ya": 462,
  "▁ji": 463,
  "▁lower": 464,
  "▁university": 465,
  "▁china": 466,
  "▁minister": 467,
  "▁kin": 468,
  "▁former": 469,
  "un": 470,
  "▁incident": 471,
  "man": 472,
  "▁adopted": 473,
  "▁above": 474,
  "able": 475,
  "▁cultural": 476,
  "▁january": 477,
  "▁empress": 478,
  "▁tada": 479,
  "▁gon": 480,
  "▁become": 481,
  "▁until": 482,
  "▁different": 483,
  "kawa": 484,
  "▁others": 485,
  "ers": 486,
  "▁1": 487,
  "▁dis": 488,
  "koku": 489,
  "▁set": 490,
  "▁work": 491,
  "▁another": 492,
  "▁mt": 493,
  "mori": 494,
  "dori": 495,
  "▁sake": 496,
  "▁ryo": 497,
  "gaku": 498,
  "he": 499,
  "zan": 500,
  "▁large": 501,
  "hi": 502,
  "ry": 503,
  "▁capital": 504,
  "ci": 505,
  "▁four": 506,
  "tion": 507,
  "▁ken": 508,
  "▁temples": 509,
  "▁mori": 510,
  "▁masa": 511,
  "▁july": 512,
  "▁days": 513,
  "moto": 514,
  "▁west": 515,
  "▁october": 516,
  "▁century": 517,
  "▁shogunate": 518,
  "▁water": 519,
  "kata": 520,
  "▁changed": 521,
  "ted": 522,
  "chu": 523,
  "pp": 524,
  "▁2": 525,
  "▁without": 526,
  "▁along": 527,
  "▁art": 528,
  "▁ta": 529,
  "▁ju": 530,
  "▁se": 531,
  "▁august": 532,
  "▁nobunaga": 533,
  "▁9": 534,
  "▁dynasty": 535,
  "▁section": 536,
  "▁ni": 537,
  "▁st": 538,
  "▁will": 539,
  "▁hideyoshi": 540,
  "▁yo": 541,
  "▁zen": 542,
  "▁february": 543,
  "▁f": 544,
  "▁fifth": 545,
  "▁life": 546,
  "ichi": 547,
  "ated": 548,
  "▁buddha": 549,
  "▁daimyo": 550,
  "taka": 551,
  "▁using": 552,
  "ter": 553,
  "▁kuni": 554,
  "▁ha": 555,
  "▁ex": 556,
  "▁means": 557,
  "▁northern": 558,
  "▁form": 559,
  "▁western": 560,
  "▁child": 561,
  "▁sada": 562,
  "▁residence": 563,
  "▁u": 564,
  "▁began": 565,
  "▁december": 566,
  "▁five": 567,
  "▁make": 568,
  "▁muromachi": 569,
  "▁uji": 570,
  "▁statue": 571,
  "ti": 572,
  "▁september": 573,
  "▁festival": 574,
  "ng": 575,
  "▁yasu": 576,
  "▁birth": 577,
  "▁service": 578,
  "naga": 579,
  "▁moto": 580,
  "▁6": 581,
  "gyo": 582,
  "▁unknown": 583,
  "▁middle": 584,
  "▁should": 585,
  "▁oda": 586,
  "▁fourth": 587,
  "▁promoted": 588,
  "▁east": 589,
  "▁shinto": 590,
  "lo": 591,
  "▁shrines": 592,
  "▁law": 593,
  "machi": 594,
  "▁lived": 595,
  "ch": 596,
  "▁southern": 597,
  "ent": 598,
  "▁trains": 599,
  "▁yamato": 600,
  "▁november": 601,
  "▁having": 602,
  "▁together": 603,
  "▁master": 604,
  "ryu": 605,
  "▁town": 606,
  "▁younger": 607,
  "▁members": 608,
  "▁term": 609,
  "▁families": 610,
  "▁kyo": 611,
  "▁late": 612,
  "ei": 613,
  "ance": 614,
  "▁original": 615,
  "▁historical": 616,
  "masa": 617,
  "▁han": 618,
  "▁june": 619,
  "▁wa": 620,
  "▁public": 621,
  "▁thought": 622,
  "v": 623,
  "▁branch": 624,
  "ive": 625,
  "▁tsu": 626,
  "ken": 627,
  "▁train": 628,
  "▁gate": 629,
  "com": 630,
  "il": 631,
  "▁away": 632,
  "▁mo": 633,
  "literally": 634,
  "el": 635,
  "▁center": 636,
  "▁retired": 637,
  "▁3": 638,
  "▁own": 639,
  "mp": 640,
  "▁member": 641,
  "▁led": 642,
  "▁omi": 643,
  "▁result": 644,
  "ous": 645,
  "co": 646,
  "▁put": 647,
  "▁political": 648,
  "▁company": 649,
  "▁god": 650,
  "suke": 651,
  "▁still": 652,
  "▁believed": 653,
  "shiki": 654,
  "▁naga": 655,
  "as": 656,
  "rin": 657,
  "▁front": 658,
  "min": 659,
  "▁village": 660,
  "▁received": 661,
  "▁calendar": 662,
  "▁route": 663,
  "▁children": 664,
  "▁control": 665,
  "ie": 666,
  "ve": 667,
  "▁building": 668,
  "▁road": 669,
  "▁originally": 670,
  "zen": 671,
  "▁princess": 672,
  "gun": 673,
  "▁shige": 674,
  "▁mitsu": 675,
  "▁chi": 676,
  "▁half": 677,
  "▁today": 678,
  "▁country": 679,
  "▁nishi": 680,
  "ck": 681,
  "▁any": 682,
  "age": 683,
  "2": 684,
  "▁described": 685,
  "ate": 686,
  "▁fire": 687,
  "▁you": 688,
  "▁within": 689,
  "▁affairs": 690,
  "shima": 691,
  "ver": 692,
  "▁common": 693,
  "nin": 694,
  "):": 695,
  "▁small": 696,
  "kaku": 697,
  "mei": 698,
  "ary": 699,
  "▁succeeded": 700,
  "▁ieyasu": 701,
  "▁mountain": 702,
  "▁named": 703,
  "▁moved": 704,
  "▁popular": 705,
  "hira": 706,
  "▁found": 707,
  "▁charge": 708,
  "▁suke": 709,
  "▁division": 710,
  "▁names": 711,
  "▁hiro": 712,
  "▁hojo": 713,
  "tic": 714,
  "▁north": 715,
  "▁pro": 716,
  "▁sent": 717,
  "kuni": 718,
  "▁modern": 719,
  "▁tai": 720,
  "▁collection": 721,
  "▁waka": 722,
  "▁example": 723,
  "kei": 724,
  "▁special": 725,
  "▁music": 726,
  "▁county": 727,
  "myo": 728,
  "hime": 729,
  "▁good": 730,
  "▁killed": 731,
  "▁nobu": 732,
  "▁genji": 733,
  "▁south": 734,
  "senior": 735,
  "▁me": 736,
  "▁yoritomo": 737,
  "▁poems": 738,
  "▁included": 739,
  "roku": 740,
  "▁performed": 741,
  "▁passed": 742,
  "▁off": 743,
  "ban": 744,
  "7": 745,
  "▁books": 746,
  "3": 747,
  "▁areas": 748,
  "▁placed": 749,
  "▁origin": 750,
  "▁bu": 751,
  "▁story": 752,
  "▁ise": 753,
  "▁very": 754,
  "gan": 755,
  "▁gave": 756,
  "▁type": 757,
  "men": 758,
  "hito": 759,
  "▁5": 760,
  "▁works": 761,
  "▁1,": 762,
  "ar": 763,
  "▁next": 764,
  "▁last": 765,
  "nomiya": 766,
  "▁ritsuryo": 767,
  "▁ga": 768,
  "▁sutra": 769,
  "▁returned": 770,
  "▁miya": 771,
  "▁traditional": 772,
  "▁designated": 773,
  "▁now": 774,
  "▁produced": 775,
  "▁toyotomi": 776,
  "▁construction": 777,
  "▁case": 778,
  "ant": 779,
  "▁word": 780,
  "di": 781,
  "▁di": 782,
  "▁sometimes": 783,
  "h": 784,
  "▁created": 785,
  "▁famous": 786,
  "▁seen": 787,
  "▁yori": 788,
  "▁sea": 789,
  "▁naka": 790,
  "day": 791,
  "▁issued": 792,
  "con": 793,
  "oka": 794,
  "▁major": 795,
  "▁paper": 796,
  "▁top": 797,
  "▁express": 798,
  "bun": 799,
  "▁once": 800,
  "ran": 801,
  "▁continued": 802,
  "son": 803,
  "▁states": 804,
  "ect": 805,
  "▁4": 806,
  "▁party": 807,
  "▁referred": 808,
  "▁lost": 809,
  "▁property": 810,
  "▁food": 811,
  "▁real": 812,
  "▁just": 813,
  "▁site": 814,
  "▁mainly": 815,
  "▁refers": 816,
  "▁developed": 817,
  "▁kei": 818,
  "nobu": 819,
  "ness": 820,
  "▁etc": 821,
  "▁home": 822,
  "▁aki": 823,
  "▁entered": 824,
  "▁museum": 825,
  "▁throne": 826,
  "nori": 827,
  "▁gi": 828,
  "▁ro": 829,
  "lu": 830,
  "hara": 831,
  "▁again": 832,
  "▁forces": 833,
  "▁young": 834,
  "▁relationship": 835,
  "▁commander": 836,
  "one": 837,
  "▁culture": 838,
  "▁close": 839,
  "▁sword": 840,
  "mitsu": 841,
  "▁hon": 842,
  "la": 843,
  "▁view": 844,
  "▁making": 845,
  "▁cha": 846,
  "▁poetry": 847,
  "▁noble": 848,
  "▁territory": 849,
  "hon": 850,
  "▁korea": 851,
  "▁guards": 852,
  "yasu": 853,
  "▁bi": 854,
  "▁stop": 855,
  "▁stone": 856,
  "▁role": 857,
  "x": 858,
  "▁headed": 859,
  "▁sai": 860,
  "▁reason": 861,
  "yuki": 862,
  "▁business": 863,
  "ze": 864,
  "▁attack": 865,
  "va": 866,
  "▁district": 867,
  "rs": 868,
  "▁record": 869,
  "▁tomo": 870,
  "▁fuji": 871,
  "▁private": 872,
  "▁class": 873,
  "▁bo": 874,
  "▁characters": 875,
  "▁ministry": 876,
  "▁nobles": 877,
  "▁nan": 878,
  "▁several": 879,
  "ized": 880,
  "led": 881,
  "▁every": 882,
  "nari": 883,
  "▁noh": 884,
  "fi": 885,
  "matsu": 886,
  "bon": 887,
  "mono": 888,
  "cy": 889,
  "▁hosokawa": 890,
  "red": 891,
  "us": 892,
  "ally": 893,
  "pi": 894,
  "guchi": 895,
  "hei": 896,
  "han": 897,
  "▁assumed": 898,
  "00": 899,
  "▁enshrined": 900,
  "kyoto": 901,
  "▁kanto": 902,
  "▁mu": 903,
  "▁troops": 904,
  "ting": 905,
  "▁takeda": 906,
  "▁ichi": 907,
  "▁thus": 908,
  "zai": 909,
  "▁higashi": 910,
  "▁shugo": 911,
  "▁ri": 912,
  "▁pre": 913,
  "▁te": 914,
  "▁chu": 915,
  "▁restoration": 916,
  "▁kita": 917,
  "▁situation": 918,
  "tsugu": 919,
  "▁nori": 920,
  "▁mikoto": 921,
  "▁introduced": 922,
  "▁retainer": 923,
  "▁education": 924,
  "▁hide": 925,
  "▁provinces": 926,
  "▁published": 927,
  "toku": 928,
  "▁central": 929,
  "▁dance": 930,
  "▁men": 931,
  "▁room": 932,
  "michi": 933,
  "▁similar": 934,
  "▁spring": 935,
  "▁force": 936,
  "▁matsu": 937,
  "▁character": 938,
  "▁household": 939,
  "▁retainers": 940,
  "jiro": 941,
  "]": 942,
  "▁tsune": 943,
  "▁played": 944,
  "▁sengoku": 945,
  "▁tale": 946,
  "▁mon": 947,
  "▁soldiers": 948,
  "▁yama": 949,
  "▁records": 950,
  "▁beginning": 951,
  "▁appeared": 952,
  "ist": 953,
  "tsuna": 954,
  "gra": 955,
  "▁instead": 956,
  "▁status": 957,
  "▁stage": 958,
  "saki": 959,
  "])": 960,
  "▁officials": 961,
  "maro": 962,
  "present": 963,
  "▁na": 964,
  "mb": 965,
  "▁strong": 966,
  "ron": 967,
  "dan": 968,
  "▁regarded": 969,
  "ful": 970,
  "▁transferred": 971,
  "gon": 972,
  "bashi": 973,
  "yaku": 974,
  "fusa": 975,
  "▁sha": 976,
  "▁volume": 977,
  "▁study": 978,
  "▁we": 979,
  "▁article": 980,
  "▁ordered": 981,
  "▁date": 982,
  "▁garden": 983,
  "▁department": 984,
  "fuku": 985,
  "ism": 986,
  "▁po": 987,
  "ling": 988,
  "chief": 989,
  "▁keihan": 990,
  "▁women": 991,
  "sh": 992,
  "▁cases": 993,
  "▁crown": 994,
  "▁founded": 995,
  "▁schools": 996,
  "5": 997,
  "ty": 998,
  "▁research": 999,
  "▁meaning": 1000,
  "▁kiyo": 1001,
  "kin": 1002,
  "rai": 1003,
  "▁toshi": 1004,
  "▁body": 1005,
  "▁what": 1006,
  "ical": 1007,
  "minister": 1008,
  "▁upper": 1009,
  "▁foreign": 1010,
  "▁bun": 1011,
  "▁vassal": 1012,
  "▁places": 1013,
  "▁influence": 1014,
  "▁iwa": 1015,
  "▁allowed": 1016,
  "▁wooden": 1017,
  "▁michi": 1018,
  "dera": 1019,
  "butsu": 1020,
  "▁kyushu": 1021,
  "▁den": 1022,
  "kyu": 1023,
  "▁kata": 1024,
  "▁founder": 1025,
  "▁tang": 1026,
  "▁production": 1027,
  "ning": 1028,
  "tei": 1029,
  "▁association": 1030,
  "▁brought": 1031,
  "▁short": 1032,
  "▁joined": 1033,
  "katsu": 1034,
  "▁tax": 1035,
  "▁taken": 1036,
  "ad": 1037,
  "um": 1038,
  "▁act": 1039,
  "▁electric": 1040,
  "▁remains": 1041,
  "▁religious": 1042,
  "▁six": 1043,
  "z": 1044,
  "▁20": 1045,
  "▁image": 1046,
  "pe": 1047,
  "ca": 1048,
  "▁meters": 1049,
  "▁movement": 1050,
  "▁documents": 1051,
  "gai": 1052,
  "▁kabuki": 1053,
  "tsune": 1054,
  "▁related": 1055,
  "▁method": 1056,
  "▁countries": 1057,
  "▁kind": 1058,
  "▁grand": 1059,
  "▁opened": 1060,
  "▁generally": 1061,
  "▁mentioned": 1062,
  "▁current": 1063,
  "rei": 1064,
  "▁p": 1065,
  "▁words": 1066,
  "aki": 1067,
  "▁wrote": 1068,
  "take": 1069,
  "▁literature": 1070,
  "▁myo": 1071,
  "▁ii": 1072,
  "shige": 1073,
  "ating": 1074,
  "rt": 1075,
  "▁completed": 1076,
  "side": 1077,
  "▁inner": 1078,
  "▁sane": 1079,
  "▁upon": 1080,
  "▁jin": 1081,
  "tri": 1082,
  "▁kannon": 1083,
  "▁eight": 1084,
  "▁direct": 1085,
  "▁monk": 1086,
  "▁monogatari": 1087,
  "▁unit": 1088,
  "yori": 1089,
  "▁yuki": 1090,
  "gami": 1091,
  "▁materials": 1092,
  "▁deity": 1093,
  "▁mune": 1094,
  "cha": 1095,
  "▁plan": 1096,
  "▁fought": 1097,
  "▁per": 1098,
  "genji": 1099,
  "tu": 1100,
  "▁generation": 1101,
  "▁sp": 1102,
  "is": 1103,
  "▁operation": 1104,
  "▁councilor": 1105,
  "less": 1106,
  "▁defeated": 1107,
  "▁limited": 1108,
  "▁spread": 1109,
  "kami": 1110,
  "▁pa": 1111,
  "sada": 1112,
  "▁fall": 1113,
  "▁satsuma": 1114,
  "▁constructed": 1115,
  "▁play": 1116,
  "▁decided": 1117,
  "4": 1118,
  "uji": 1119,
  "▁ge": 1120,
  ");": 1121,
  "▁support": 1122,
  "▁though": 1123,
  "▁amount": 1124,
  "▁painting": 1125,
  "▁ei": 1126,
  "▁series": 1127,
  "▁especially": 1128,
  "▁establishment": 1129,
  "che": 1130,
  "style": 1131,
  "ence": 1132,
  "▁red": 1133,
  "▁shape": 1134,
  "et": 1135,
  "▁jun": 1136,
  "▁ne": 1137,
  "tori": 1138,
  "▁vassals": 1139,
  "▁nijo": 1140,
  "tada": 1141,
  "▁development": 1142,
  "▁arts": 1143,
  "▁kane": 1144,
  "▁bank": 1145,
  "▁(\"": 1146,
  "shiro": 1147,
  "▁tried": 1148,
  "▁mid": 1149,
  "▁rule": 1150,
  "▁gun": 1151,
  "▁visit": 1152,
  "▁hot": 1153,
  "▁see": 1154,
  "hiro": 1155,
  "▁married": 1156,
  "▁code": 1157,
  "▁administration": 1158,
  "▁process": 1159,
  "emon": 1160,
  "▁point": 1161,
  "▁reign": 1162,
  "▁fushimi": 1163,
  "▁toki": 1164,
  "seki": 1165,
  "old": 1166,
  "▁jodo": 1167,
  "for": 1168,
  "ren": 1169,
  "also": 1170,
  "▁dainagon": 1171,
  "▁taking": 1172,
  "▁read": 1173,
  "nan": 1174,
  "▁lords": 1175,
  "▁fish": 1176,
  "▁color": 1177,
  "▁mino": 1178,
  "▁gyo": 1179,
  "▁consist": 1180,
  "▁gods": 1181,
  "▁kamo": 1182,
  "cu": 1183,
  "▁korean": 1184,
  "▁highest": 1185,
  "▁follows": 1186,
  "▁ltd": 1187,
  "▁night": 1188,
  "▁older": 1189,
  "nd": 1190,
  "▁vi": 1191,
  "▁does": 1192,
  "▁director": 1193,
  "▁light": 1194,
  "▁sanjo": 1195,
  "kiyo": 1196,
  "▁regard": 1197,
  "japan": 1198,
  "▁seven": 1199,
  "taro": 1200,
  "▁visited": 1201,
  "▁ban": 1202,
  "gata": 1203,
  "land": 1204,
  "▁nao": 1205,
  "▁t": 1206,
  "▁further": 1207,
  "▁near": 1208,
  "▁white": 1209,
  "▁prefectural": 1210,
  "▁higher": 1211,
  "tra": 1212,
  "▁occurred": 1213,
  "▁carried": 1214,
  "▁conducted": 1215,
  "▁formed": 1216,
  "▁base": 1217,
  "▁matsudaira": 1218,
  "▁assigned": 1219,
  "▁raised": 1220,
  "later": 1221,
  "▁few": 1222,
  "▁latter": 1223,
  "▁policy": 1224,
  "▁island": 1225,
  "▁gold": 1226,
  "maru": 1227,
  "▁worked": 1228,
  "▁certain": 1229,
  "▁say": 1230,
  "head": 1231,
  "▁letter": 1232,
  "▁priests": 1233,
  "▁poem": 1234,
  "▁command": 1235,
  "▁come": 1236,
  "▁eastern": 1237,
  "imperial": 1238,
  "▁already": 1239,
  "raku": 1240,
  "▁tumulus": 1241,
  "▁sun": 1242,
  "▁granted": 1243,
  "▁furthermore": 1244,
  "▁katsu": 1245,
  "▁bridge": 1246,
  "▁ran": 1247,
  "\")": 1248,
  "▁structure": 1249,
  "▁much": 1250,
  "▁inter": 1251,
  "▁got": 1252,
  "▁get": 1253,
  "▁kawa": 1254,
  "pa": 1255,
  "▁caused": 1256,
  "▁lines": 1257,
  "▁properties": 1258,
  "▁ba": 1259,
  "si": 1260,
  "ai": 1261,
  "▁generations": 1262,
  "miya": 1263,
  "▁sister": 1264,
  "▁ti": 1265,
  "▁writing": 1266,
  "▁refer": 1267,
  "haru": 1268,
  "▁car": 1269,
  "sui": 1270,
  "saka": 1271,
  "▁woman": 1272,
  "toki": 1273,
  "toshi": 1274,
  "ring": 1275,
  "act": 1276,
  "▁saying": 1277,
  "ph": 1278,
  "▁hira": 1279,
  "chika": 1280,
  "nosuke": 1281,
  "▁change": 1282,
  "▁la": 1283,
  "▁sixth": 1284,
  "▁treasure": 1285,
  "▁authority": 1286,
  "les": 1287,
  "ian": 1288,
  "▁money": 1289,
  "▁society": 1290,
  "▁captain": 1291,
  "▁include": 1292,
  "mai": 1293,
  "▁compiled": 1294,
  "▁br": 1295,
  "▁hard": 1296,
  "ies": 1297,
  "▁jr": 1298,
  "▁officer": 1299,
  "▁board": 1300,
  "▁park": 1301,
  "▁performance": 1302,
  "▁return": 1303,
  "que": 1304,
  "▁how": 1305,
  "▁abolished": 1306,
  "▁oki": 1307,
  "goku": 1308,
  "▁existed": 1309,
  "year": 1310,
  "▁yoshitsune": 1311,
  "▁gradually": 1312,
  "▁practice": 1313,
  "▁saga": 1314,
  "▁leading": 1315,
  "▁toyo": 1316,
  "▁attacked": 1317,
  "▁regions": 1318,
  "▁pass": 1319,
  "▁otsu": 1320,
  "▁divided": 1321,
  "▁serving": 1322,
  "▁my": 1323,
  "▁serve": 1324,
  "naka": 1325,
  "▁li": 1326,
  "▁added": 1327,
  "hiko": 1328,
  "▁film": 1329,
  "▁operated": 1330,
  "▁description": 1331,
  "▁kore": 1332,
  "▁big": 1333,
  "▁living": 1334,
  "▁text": 1335,
  "▁kept": 1336,
  "▁bureau": 1337,
  "▁female": 1338,
  "▁usually": 1339,
  "ned": 1340,
  "9": 1341,
  "ration": 1342,
  "jima": 1343,
  "▁pi": 1344,
  "mune": 1345,
  "▁ito": 1346,
  "▁provincial": 1347,
  "hide": 1348,
  "▁inside": 1349,
  "▁nation": 1350,
  "up": 1351,
  "▁social": 1352,
  "▁studied": 1353,
  "nai": 1354,
  "pu": 1355,
  "ries": 1356,
  "▁trade": 1357,
  "ex": 1358,
  "▁total": 1359,
  "▁drama": 1360,
  "▁scene": 1361,
  "ship": 1362,
  "▁powerful": 1363,
  "▁b": 1364,
  "rd": 1365,
  "▁clans": 1366,
  "▁ra": 1367,
  "est": 1368,
  "car": 1369,
  "▁otomo": 1370,
  "▁directly": 1371,
  "▁rebellion": 1372,
  "zuka": 1373,
  "▁kawachi": 1374,
  "▁selected": 1375,
  "tan": 1376,
  "▁ground": 1377,
  "▁uesugi": 1378,
  "▁nari": 1379,
  "▁hongan": 1380,
  "▁statues": 1381,
  "▁depend": 1382,
  "▁legend": 1383,
  "mae": 1384,
  "▁purpose": 1385,
  "▁organization": 1386,
  "▁foot": 1387,
  "▁descendants": 1388,
  "▁ari": 1389,
  "▁too": 1390,
  "▁worship": 1391,
  "▁resigned": 1392,
  "per": 1393,
  "▁past": 1394,
  "▁buildings": 1395,
  "▁lineage": 1396,
  "ura": 1397,
  "tur": 1398,
  "▁ryu": 1399,
  "im": 1400,
  "▁course": 1401,
  "▁port": 1402,
  "▁moreover": 1403,
  "▁estate": 1404,
  "am": 1405,
  "▁eldest": 1406,
  "▁moro": 1407,
  "▁bosatsu": 1408,
  "▁senior": 1409,
  "tomi": 1410,
  "bb": 1411,
  "ul": 1412,
  "▁guard": 1413,
  "▁says": 1414,
  "▁successor": 1415,
  "and": 1416,
  "▁almo": 1417,
  "▁involved": 1418,
  "▁followed": 1419,
  "▁give": 1420,
  "▁seems": 1421,
  "▁council": 1422,
  "par": 1423,
  "▁shoen": 1424,
  "ven": 1425,
  "▁heir": 1426,
  "ut": 1427,
  "▁finally": 1428,
  "▁elder": 1429,
  "▁month": 1430,
  "▁shimo": 1431,
  "ster": 1432,
  "nt": 1433,
  "▁low": 1434,
  "▁standing": 1435,
  "▁supported": 1436,
  "▁sub": 1437,
  "ure": 1438,
  "▁sauce": 1439,
  "▁below": 1440,
  "▁du": 1441,
  "▁training": 1442,
  "▁location": 1443,
  "▁zo": 1444,
  "▁human": 1445,
  "▁thousand": 1446,
  "ture": 1447,
  "▁posts": 1448,
  "▁tree": 1449,
  "▁silver": 1450,
  "tomo": 1451,
  "10": 1452,
  "ja": 1453,
  "▁haru": 1454,
  "▁fell": 1455,
  "▁themselves": 1456,
  "▁chunagon": 1457,
  "▁paintings": 1458,
  "▁remained": 1459,
  "▁succession": 1460,
  "▁outside": 1461,
  "▁asked": 1462,
  "▁custom": 1463,
  "▁gu": 1464,
  "▁brothers": 1465,
  "▁assistant": 1466,
  "▁conflict": 1467,
  "▁da": 1468,
  "▁volumes": 1469,
  "▁miko": 1470,
  "councilor": 1471,
  "koji": 1472,
  "▁diary": 1473,
  "tive": 1474,
  "▁maizuru": 1475,
  "▁itself": 1476,
  "zoku": 1477,
  "▁level": 1478,
  "▁belonged": 1479,
  "▁cars": 1480,
  "▁seventh": 1481,
  "▁students": 1482,
  "▁sense": 1483,
  "▁event": 1484,
  "▁persons": 1485,
  "▁tendai": 1486,
  "▁provided": 1487,
  "▁design": 1488,
  "▁exist": 1489,
  "▁cabinet": 1490,
  "▁here": 1491,
  "▁police": 1492,
  "▁regent": 1493,
  "▁kansai": 1494,
  "▁oldest": 1495,
  "▁issue": 1496,
  "lic": 1497,
  "▁throughout": 1498,
  "▁ke": 1499,
  "mochi": 1500,
  "▁platform": 1501,
  "▁details": 1502,
  "▁toku": 1503,
  "▁tanba": 1504,
  "▁goshirakawa": 1505,
  "▁lot": 1506,
  "▁full": 1507,
  "omi": 1508,
  "▁roof": 1509,
  "nen": 1510,
  "▁positions": 1511,
  "hisa": 1512,
  "▁sui": 1513,
  "▁idea": 1514,
  "▁dan": 1515,
  "▁mutsu": 1516,
  "▁king": 1517,
  "▁field": 1518,
  "▁handed": 1519,
  "▁forced": 1520,
  "▁asuka": 1521,
  "▁ichijo": 1522,
  "▁oto": 1523,
  "▁cloistered": 1524,
  "▁hana": 1525,
  "uchi": 1526,
  "nyo": 1527,
  "▁nihon": 1528,
  "provisional": 1529,
  "▁events": 1530,
  "▁originated": 1531,
  "▁face": 1532,
  "j": 1533,
  "▁fight": 1534,
  "▁services": 1535,
  "▁konoe": 1536,
  "▁stations": 1537,
  "ol": 1538,
  "▁commonly": 1539,
  "▁except": 1540,
  "▁emperors": 1541,
  "▁run": 1542,
  "zane": 1543,
  "▁whole": 1544,
  "king": 1545,
  "▁length": 1546,
  "▁appears": 1547,
  "▁horse": 1548,
  "saku": 1549,
  "▁ca": 1550,
  "id": 1551,
  "▁cut": 1552,
  "▁becoming": 1553,
  "▁additionally": 1554,
  "way": 1555,
  "▁nakamura": 1556,
  "▁manor": 1557,
  "▁musashi": 1558,
  "kura": 1559,
  "ami": 1560,
  "▁sold": 1561,
  "pro": 1562,
  "kko": 1563,
  "▁va": 1564,
  "▁object": 1565,
  "▁pieces": 1566,
  "▁whether": 1567,
  "vo": 1568,
  "▁document": 1569,
  "shaped": 1570,
  "▁memorial": 1571,
  "zaemon": 1572,
  "▁shiga": 1573,
  "shoku": 1574,
  "ities": 1575,
  "▁lady": 1576,
  "goro": 1577,
  "▁g": 1578,
  "ions": 1579,
  "▁kokushi": 1580,
  "▁bon": 1581,
  "▁song": 1582,
  "▁true": 1583,
  "▁enter": 1584,
  "governor": 1585,
  "▁domains": 1586,
  "▁information": 1587,
  "▁theater": 1588,
  "▁owned": 1589,
  "▁never": 1590,
  "▁tame": 1591,
  "▁leader": 1592,
  "▁kiyomori": 1593,
  "▁amida": 1594,
  "▁priesthood": 1595,
  "ial": 1596,
  "ide": 1597,
  "▁medieval": 1598,
  "▁nu": 1599,
  "▁daigo": 1600,
  "▁roku": 1601,
  "pre": 1602,
  "▁groups": 1603,
  "ue": 1604,
  "▁junior": 1605,
  "sawa": 1606,
  "▁coins": 1607,
  "▁open": 1608,
  "▁show": 1609,
  "▁fuku": 1610,
  "▁approximately": 1611,
  "▁ie": 1612,
  "▁increased": 1613,
  "▁shingon": 1614,
  "▁spirit": 1615,
  "▁2,": 1616,
  "▁100": 1617,
  "lin": 1618,
  "▁30": 1619,
  "▁clear": 1620,
  "▁male": 1621,
  "▁min": 1622,
  "▁deities": 1623,
  "▁municipal": 1624,
  "dono": 1625,
  "called": 1626,
  "▁tango": 1627,
  "▁sangi": 1628,
  "▁conferred": 1629,
  "▁grave": 1630,
  "▁rec": 1631,
  "▁reform": 1632,
  "val": 1633,
  "nao": 1634,
  "▁tomb": 1635,
  "▁activities": 1636,
  "▁koto": 1637,
  "▁hold": 1638,
  "▁soon": 1639,
  "▁owari": 1640,
  "▁science": 1641,
  "▁nai": 1642,
  "jingu": 1643,
  "▁kanpaku": 1644,
  "▁direction": 1645,
  "▁enemy": 1646,
  "▁administrative": 1647,
  "fer": 1648,
  "▁towns": 1649,
  "▁seki": 1650,
  "▁le": 1651,
  "▁pagoda": 1652,
  "▁parts": 1653,
  "▁composed": 1654,
  "great": 1655,
  "▁possible": 1656,
  "▁nyorai": 1657,
  "▁accepted": 1658,
  "▁might": 1659,
  "▁nichiren": 1660,
  "▁deep": 1661,
  "▁tama": 1662,
  "▁mei": 1663,
  "line": 1664,
  "▁widely": 1665,
  "▁soga": 1666,
  "▁hundred": 1667,
  "▁square": 1668,
  "▁met": 1669,
  "▁active": 1670,
  "▁peace": 1671,
  "▁foundation": 1672,
  "▁ranks": 1673,
  "▁inherited": 1674,
  "▁shiba": 1675,
  "ishi": 1676,
  "light": 1677,
  "▁uta": 1678,
  "▁theories": 1679,
  "▁vice": 1680,
  "▁kyu": 1681,
  "▁kon": 1682,
  "▁season": 1683,
  "▁actually": 1684,
  "bara": 1685,
  "warring": 1686,
  "▁silk": 1687,
  "▁chika": 1688,
  "▁takauji": 1689,
  "▁fields": 1690,
  "▁gan": 1691,
  "▁poet": 1692,
  "▁houses": 1693,
  "▁kara": 1694,
  "▁leaves": 1695,
  "▁kage": 1696,
  "▁far": 1697,
  "▁sacred": 1698,
  "▁miyoshi": 1699,
  "log": 1700,
  "13": 1701,
  "0,000": 1702,
  "▁3,": 1703,
  "▁required": 1704,
  "▁ono": 1705,
  "▁author": 1706,
  "emperor": 1707,
  "▁mochi": 1708,
  "hai": 1709,
  "▁abe": 1710,
  "▁arrow": 1711,
  "▁going": 1712,
  "▁prevent": 1713,
  "▁oe": 1714,
  "▁rather": 1715,
  "▁disciple": 1716,
  "▁nin": 1717,
  "▁standard": 1718,
  "▁ishi": 1719,
  "ward": 1720,
  "▁live": 1721,
  "▁principal": 1722,
  "▁katsura": 1723,
  "▁highly": 1724,
  "▁trees": 1725,
  "▁little": 1726,
  "▁lunar": 1727,
  "satsu": 1728,
  "der": 1729,
  "▁pure": 1730,
  "of": 1731,
  "▁less": 1732,
  "▁stories": 1733,
  "▁must": 1734,
  "▁travel": 1735,
  "1": 1736,
  "▁difficult": 1737,
  "▁studies": 1738,
  "▁products": 1739,
  "three": 1740,
  "▁natural": 1741,
  "▁yen": 1742,
  "▁choshu": 1743,
  "▁mausoleum": 1744,
  "▁particular": 1745,
  "zaki": 1746,
  "▁warriors": 1747,
  "▁terms": 1748,
  "▁wood": 1749,
  "▁pe": 1750,
  "▁things": 1751,
  "ben": 1752,
  "law": 1753,
  "▁coming": 1754,
  "taku": 1755,
  "▁start": 1756,
  "▁shun": 1757,
  "new": 1758,
  "lar": 1759,
  "nami": 1760,
  "▁envoy": 1761,
  "▁kugyo": 1762,
  "▁legal": 1763,
  "▁eighth": 1764,
  "▁rei": 1765,
  "▁treated": 1766,
  "cul": 1767,
  "setsu": 1768,
  "▁request": 1769,
  "▁subject": 1770,
  "▁bamboo": 1771,
  "▁dead": 1772,
  "gaki": 1773,
  "▁wear": 1774,
  "▁ja": 1775,
  "▁wakashu": 1776,
  "▁15,": 1777,
  "▁personal": 1778,
  "▁ticket": 1779,
  "▁al": 1780,
  "▁black": 1781,
  "▁mai": 1782,
  "qui": 1783,
  "▁immediately": 1784,
  "60": 1785,
  "▁courts": 1786,
  "▁matters": 1787,
  "▁recorded": 1788,
  "▁offices": 1789,
  "▁tan": 1790,
  "oki": 1791,
  "▁types": 1792,
  "▁za": 1793,
  "▁learned": 1794,
  "▁twenty": 1795,
  "▁soba": 1796,
  "14": 1797,
  "▁uchi": 1798,
  "▁wide": 1799,
  "▁pray": 1800,
  "▁running": 1801,
  "▁yamashiro": 1802,
  "▁awarded": 1803,
  "▁toward": 1804,
  "concerning": 1805,
  "▁legitimate": 1806,
  "▁actual": 1807,
  "ner": 1808,
  "000": 1809,
  "▁reached": 1810,
  "50": 1811,
  "▁soy": 1812,
  "▁swords": 1813,
  "01": 1814,
  "▁opinion": 1815,
  "▁size": 1816,
  "▁dishes": 1817,
  "▁ama": 1818,
  "kaido": 1819,
  "▁tradition": 1820,
  "▁sakai": 1821,
  "▁lead": 1822,
  "▁keep": 1823,
  "▁newly": 1824,
  "▁able": 1825,
  "▁kana": 1826,
  "▁technique": 1827,
  "nihon": 1828,
  "▁effect": 1829,
  "▁value": 1830,
  "wara": 1831,
  "▁report": 1832,
  "▁anti": 1833,
  "akira": 1834,
  "▁monks": 1835,
  "ization": 1836,
  "▁ranked": 1837,
  "▁sound": 1838,
  "▁hereditary": 1839,
  "▁actor": 1840,
  "▁secret": 1841,
  "▁todai": 1842,
  "port": 1843,
  "zumi": 1844,
  "▁toba": 1845,
  "▁fukuchiyama": 1846,
  "▁bow": 1847,
  "▁presented": 1848,
  "▁letters": 1849,
  "▁saigo": 1850,
  "▁showa": 1851,
  "▁hei": 1852,
  "gumi": 1853,
  "18": 1854,
  "▁gained": 1855,
  "provincial": 1856,
  "▁meeting": 1857,
  "▁ruling": 1858,
  "▁green": 1859,
  "▁kujo": 1860,
  "ia": 1861,
  "gin": 1862,
  "▁material": 1863,
  "▁bar": 1864,
  "▁rest": 1865,
  "▁broke": 1866,
  "▁treaty": 1867,
  "▁minutes": 1868,
  "▁21,": 1869,
  "▁subsequently": 1870,
  "▁financial": 1871,
  "▁destroyed": 1872,
  "▁tu": 1873,
  "ified": 1874,
  "▁haku": 1875,
  "▁oka": 1876,
  "▁shiki": 1877,
  "▁d": 1878,
  "ori": 1879,
  "▁shinshu": 1880,
  "▁why": 1881,
  "(": 1882,
  "we": 1883,
  "▁surrounding": 1884,
  "▁best": 1885,
  "▁mirror": 1886,
  "▁formal": 1887,
  "▁management": 1888,
  "nihonshoki": 1889,
  "pen": 1890,
  "▁tosa": 1891,
  "ish": 1892,
  "ology": 1893,
  "▁picture": 1894,
  "▁sweet": 1895,
  "▁noodles": 1896,
  "cent": 1897,
  "▁interest": 1898,
  "▁ended": 1899,
  "▁entrance": 1900,
  "35": 1901,
  "▁descendant": 1902,
  "▁officers": 1903,
  "▁game": 1904,
  "▁unique": 1905,
  "▁yodo": 1906,
  "▁civil": 1907,
  "▁politics": 1908,
  "▁kazu": 1909,
  "▁includes": 1910,
  "main": 1911,
  "19": 1912,
  "▁single": 1913,
  "nu": 1914,
  "▁yamana": 1915,
  "▁international": 1916,
  "▁hyo": 1917,
  "0": 1918,
  "▁tachibana": 1919,
  "▁president": 1920,
  "▁available": 1921,
  "?": 1922,
  "▁individual": 1923,
  "maki": 1924,
  "▁air": 1925,
  "▁imp": 1926,
  "▁recent": 1927,
  "▁love": 1928,
  "20": 1929,
  "▁higashiyama": 1930,
  "ved": 1931,
  "▁know": 1932,
  "▁territories": 1933,
  "▁echizen": 1934,
  "▁facilities": 1935,
  "▁worn": 1936,
  "▁function": 1937,
  "▁mountains": 1938,
  "▁daijo": 1939,
  "▁husband": 1940,
  "▁izumo": 1941,
  "▁sons": 1942,
  "▁via": 1943,
  "hy": 1944,
  "▁examples": 1945,
  "bei": 1946,
  "▁childhood": 1947,
  "ping": 1948,
  "16": 1949,
  "▁distinguished": 1950,
  "▁ceremonies": 1951,
  "iv": 1952,
  "▁7,": 1953,
  "▁jugoinoge": 1954,
  "▁19": 1955,
  "▁saka": 1956,
  "▁religion": 1957,
  "low": 1958,
  "▁shimazu": 1959,
  "▁rapid": 1960,
  "saburo": 1961,
  "▁fan": 1962,
  "▁ura": 1963,
  "▁headquarters": 1964,
  "▁thereafter": 1965,
  "▁hu": 1966,
  "67": 1967,
  "39": 1968,
  "kane": 1969,
  "▁(19": 1970,
  "muro": 1971,
  "nce": 1972,
  "▁agency": 1973,
  "▁ren": 1974,
  "gar": 1975,
  "▁(18": 1976,
  "▁lu": 1977,
  "▁dish": 1978,
  "▁told": 1979,
  "ir": 1980,
  "▁respectively": 1981,
  "▁kimono": 1982,
  "▁recognized": 1983,
  "kon": 1984,
  "▁regular": 1985,
  "▁settsu": 1986,
  "all": 1987,
  "▁independent": 1988,
  "▁seal": 1989,
  "▁sue": 1990,
  "▁fi": 1991,
  "▁appearance": 1992,
  "▁completely": 1993,
  "▁yoshida": 1994,
  "▁5,": 1995,
  "▁sc": 1996,
  "▁kintetsu": 1997,
  "▁movie": 1998,
  "▁m": 1999,
  "▁posthumous": 2000,
  "▁figure": 2001,
  "toyo": 2002,
  "▁always": 2003,
  "▁escaped": 2004,
  "▁mitsuhide": 2005,
  "▁walk": 2006,
  "▁pl": 2007,
  "period": 2008,
  "▁taste": 2009,
  "▁navy": 2010,
  "▁cloth": 2011,
  "▁godaigo": 2012,
  "▁either": 2013,
  "▁economic": 2014,
  "▁tei": 2015,
  "▁sato": 2016,
  "her": 2017,
  "▁20,": 2018,
  "▁ume": 2019,
  "▁calligraphy": 2020,
  "▁manner": 2021,
  "zukuri": 2022,
  "▁dispatched": 2023,
  "hashi": 2024,
  "▁ouchi": 2025,
  "▁non": 2026,
  "grand": 2027,
  "▁jusanmi": 2028,
  "▁representative": 2029,
  "68": 2030,
  "▁meat": 2031,
  "▁turn": 2032,
  "▁bring": 2033,
  "▁exchange": 2034,
  "▁attached": 2035,
  "▁hair": 2036,
  "▁united": 2037,
  "▁across": 2038,
  "local": 2039,
  "▁existing": 2040,
  "date": 2041,
  "▁chapter": 2042,
  "▁existence": 2043,
  "▁protect": 2044,
  "▁avoid": 2045,
  "▁kaku": 2046,
  "▁bound": 2047,
  "▁ritual": 2048,
  "▁hokkaido": 2049,
  "▁stayed": 2050,
  "▁call": 2051,
  "▁transportation": 2052,
  "ow": 2053,
  "▁minami": 2054,
  "▁ship": 2055,
  "▁project": 2056,
  "▁sides": 2057,
  "court": 2058,
  "▁yoshino": 2059,
  "▁13,": 2060,
  "▁taisho": 2061,
  "▁principle": 2062,
  "▁entire": 2063,
  "daijin": 2064,
  "▁hino": 2065,
  "▁transfer": 2066,
  "▁renamed": 2067,
  "▁maki": 2068,
  "▁succeed": 2069,
  "▁cap": 2070,
  "ari": 2071,
  "▁busho": 2072,
  "▁equal": 2073,
  "▁ordinary": 2074,
  "▁lawful": 2075,
  "▁autumn": 2076,
  "▁fe": 2077,
  "▁biwa": 2078,
  "▁shinsengumi": 2079,
  "oi": 2080,
  "▁help": 2081,
  "▁currently": 2082,
  "ple": 2083,
  "▁track": 2084,
  "48": 2085,
  "▁sl": 2086,
  "cla": 2087,
  "▁advanced": 2088,
  "▁summer": 2089,
  "minamoto": 2090,
  "▁shira": 2091,
  "▁saionji": 2092,
  "▁10,": 2093,
  "▁shijo": 2094,
  "mpl": 2095,
  "▁language": 2096,
  "▁institute": 2097,
  "▁11,": 2098,
  "▁iron": 2099,
  "kage": 2100,
  "54": 2101,
  "▁version": 2102,
  "▁wish": 2103,
  "▁eventually": 2104,
  "▁defeat": 2105,
  "▁soup": 2106,
  "▁earth": 2107,
  "▁techniques": 2108,
  "▁nagasaki": 2109,
  "▁ming": 2110,
  "▁behind": 2111,
  "▁your": 2112,
  "▁tower": 2113,
  "38": 2114,
  "▁kagami": 2115,
  "▁kill": 2116,
  "▁4,": 2117,
  "▁honor": 2118,
  "▁cannot": 2119,
  "▁k": 2120,
  "▁cross": 2121,
  "▁kurodo": 2122,
  "▁won": 2123,
  "75": 2124,
  "kyoku": 2125,
  "▁fa": 2126,
  "▁–": 2127,
  "▁yoshimitsu": 2128,
  "▁holding": 2129,
  "▁azuchi": 2130,
  "▁round": 2131,
  "▁suicide": 2132,
  "let": 2133,
  "nishi": 2134,
  "▁lo": 2135,
  "▁scholar": 2136,
  "99": 2137,
  "▁respect": 2138,
  "▁warrior": 2139,
  "30": 2140,
  "▁outer": 2141,
  "aries": 2142,
  "ang": 2143,
  "▁participated": 2144,
  "▁actors": 2145,
  "81": 2146,
  "90": 2147,
  "\").": 2148,
  "rated": 2149,
  "ult": 2150,
  "42": 2151,
  "▁opening": 2152,
  "▁kumano": 2153,
  "ative": 2154,
  "▁peninsula": 2155,
  "tari": 2156,
  "▁opposed": 2157,
  "▁25,": 2158,
  "jutsu": 2159,
  "▁hachi": 2160,
  "▁kobe": 2161,
  "▁shows": 2162,
  "ite": 2163,
  "▁michinaga": 2164,
  "▁cause": 2165,
  "pped": 2166,
  "▁kimi": 2167,
  "▁ishikawa": 2168,
  "▁disciples": 2169,
  "cc": 2170,
  "▁qing": 2171,
  "▁kingdom": 2172,
  "▁floor": 2173,
  "don": 2174,
  "dy": 2175,
  "ible": 2176,
  "juro": 2177,
  "▁program": 2178,
  "▁collected": 2179,
  "▁remain": 2180,
  "▁adviser": 2181,
  "▁belonging": 2182,
  "▁corporation": 2183,
  "▁engaged": 2184,
  "▁8,": 2185,
  "▁library": 2186,
  "59": 2187,
  "▁festivals": 2188,
  "▁done": 2189,
  "▁increase": 2190,
  "▁particularly": 2191,
  "▁1868": 2192,
  "▁12,": 2193,
  "tsuki": 2194,
  "cing": 2195,
  "▁starting": 2196,
  "▁clothes": 2197,
  "lit": 2198,
  "▁nature": 2199,
  "▁yamashina": 2200,
  "▁2006": 2201,
  "▁free": 2202,
  "43": 2203,
  "69": 2204,
  "▁kuro": 2205,
  "▁constitution": 2206,
  "ranking": 2207,
  "61": 2208,
  "▁oku": 2209,
  "▁shotoku": 2210,
  "▁equivalent": 2211,
  "fa": 2212,
  "shichi": 2213,
  "▁need": 2214,
  "▁mura": 2215,
  "sato": 2216,
  "▁wall": 2217,
  "nojo": 2218,
  "▁organized": 2219,
  "▁izumi": 2220,
  "▁box": 2221,
  "ppo": 2222,
  "▁hiei": 2223,
  "zei": 2224,
  "▁mis": 2225,
  "55": 2226,
  "ot": 2227,
  "▁nine": 2228,
  "▁shirakawa": 2229,
  "▁belief": 2230,
  "▁seem": 2231,
  "▁kinds": 2232,
  "▁summary": 2233,
  "▁buried": 2234,
  "11": 2235,
  "▁teachings": 2236,
  "boku": 2237,
  "49": 2238,
  "▁27,": 2239,
  "ize": 2240,
  "zawa": 2241,
  "▁list": 2242,
  "56": 2243,
  "▁dispute": 2244,
  "▁ve": 2245,
  "shed": 2246,
  "51": 2247,
  "▁blood": 2248,
  "chronicles": 2249,
  "▁taishogun": 2250,
  "gei": 2251,
  "rate": 2252,
  "▁2007": 2253,
  "▁height": 2254,
  "▁screen": 2255,
  "waka": 2256,
  "mm": 2257,
  "▁yoko": 2258,
  "jaku": 2259,
  "▁concept": 2260,
  "▁kanze": 2261,
  "end": 2262,
  "like": 2263,
  "bushi": 2264,
  "▁em": 2265,
  "▁23,": 2266,
  "▁28,": 2267,
  "▁scale": 2268,
  "▁salt": 2269,
  "jun": 2270,
  "▁industry": 2271,
  "▁committed": 2272,
  "master": 2273,
  "▁source": 2274,
  "▁flower": 2275,
  "▁harima": 2276,
  "▁move": 2277,
  "▁treasures": 2278,
  "tr": 2279,
  "▁udaijin": 2280,
  "▁managed": 2281,
  "▁shinano": 2282,
  "▁mind": 2283,
  "▁raku": 2284,
  "▁hokke": 2285,
  "▁turned": 2286,
  "▁mikawa": 2287,
  "sue": 2288,
  "▁folk": 2289,
  "shun": 2290,
  "ification": 2291,
  "▁market": 2292,
  "▁edict": 2293,
  "▁lands": 2294,
  "▁kura": 2295,
  "▁ima": 2296,
  "▁comes": 2297,
  "▁companies": 2298,
  "45": 2299,
  "▁coin": 2300,
  "▁forest": 2301,
  "41": 2302,
  "▁derived": 2303,
  "▁grandson": 2304,
  "ties": 2305,
  "▁wo": 2306,
  "▁yield": 2307,
  "ritsu": 2308,
  "86": 2309,
  "which": 2310,
  "40": 2311,
  "▁yet": 2312,
  "▁morning": 2313,
  "▁18,": 2314,
  "ton": 2315,
  "12": 2316,
  "▁yoshinobu": 2317,
  "▁reading": 2318,
  "▁establish": 2319,
  "ike": 2320,
  "▁duties": 2321,
  "65": 2322,
  "▁trans": 2323,
  "▁grandfather": 2324,
  "▁deputy": 2325,
  "▁chujo": 2326,
  "▁9,": 2327,
  "▁learning": 2328,
  "▁bowl": 2329,
  "eki": 2330,
  "zuki": 2331,
  "dokoro": 2332,
  "hama": 2333,
  "▁pattern": 2334,
  "▁officially": 2335,
  "▁longer": 2336,
  "79": 2337,
  "▁okubo": 2338,
  "▁plant": 2339,
  "▁funeral": 2340,
  "▁decision": 2341,
  "▁price": 2342,
  "▁let": 2343,
  "▁previous": 2344,
  "▁kanji": 2345,
  "lt": 2346,
  "oji": 2347,
  "kazu": 2348,
  "▁6,": 2349,
  "▁teacher": 2350,
  "jitsu": 2351,
  "▁25": 2352,
  "▁necessary": 2353,
  "▁drum": 2354,
  "▁quality": 2355,
  "tre": 2356,
  "▁piece": 2357,
  "▁seii": 2358,
  "▁articles": 2359,
  "36": 2360,
  "▁tenmu": 2361,
  "58": 2362,
  "▁expression": 2363,
  "out": 2364,
  "▁tane": 2365,
  "▁gaku": 2366,
  "▁mass": 2367,
  "77": 2368,
  "21": 2369,
  "▁space": 2370,
  "▁24,": 2371,
  "▁hyogo": 2372,
  "shaku": 2373,
  "▁question": 2374,
  "▁crest": 2375,
  "▁shinkansen": 2376,
  "▁sw": 2377,
  "time": 2378,
  "▁describes": 2379,
  "▁hands": 2380,
  "▁jito": 2381,
  "▁sadaijin": 2382,
  "▁kyogoku": 2383,
  "6": 2384,
  "▁ota": 2385,
  "▁dedicated": 2386,
  "▁mito": 2387,
  "▁spa": 2388,
  "▁yoshimasa": 2389,
  "▁awa": 2390,
  "iwa": 2391,
  "form": 2392,
  "▁brewing": 2393,
  "hana": 2394,
  "if": 2395,
  "89": 2396,
  "▁reasons": 2397,
  "▁connection": 2398,
  "▁barbarians": 2399,
  "▁friend": 2400,
  "▁oshi": 2401,
  "▁taiwan": 2402,
  "▁bell": 2403,
  "▁offered": 2404,
  "▁poets": 2405,
  "▁faction": 2406,
  "four": 2407,
  "▁influenced": 2408,
  "▁accompanied": 2409,
  "temple": 2410,
  "ked": 2411,
  "▁betto": 2412,
  "▁faculty": 2413,
  "▁novel": 2414,
  "▁showed": 2415,
  "▁produce": 2416,
  "▁consort": 2417,
  "▁basis": 2418,
  "▁bean": 2419,
  "▁account": 2420,
  "▁background": 2421,
  "▁future": 2422,
  "70": 2423,
  "▁sushi": 2424,
  "▁hachiman": 2425,
  "istic": 2426,
  "▁29,": 2427,
  "▁join": 2428,
  "▁rin": 2429,
  "▁lake": 2430,
  "53": 2431,
  "▁illness": 2432,
  "▁cover": 2433,
  "▁moon": 2434,
  "▁accept": 2435,
  "▁dec": 2436,
  "oto": 2437,
  "▁yoshinaka": 2438,
  "46": 2439,
  "▁km": 2440,
  "fe": 2441,
  "▁echigo": 2442,
  "▁kondo": 2443,
  "78": 2444,
  "▁bad": 2445,
  "▁arrived": 2446,
  "▁21": 2447,
  "▁fun": 2448,
  "mor": 2449,
  "34": 2450,
  "▁22,": 2451,
  "▁institution": 2452,
  "▁izu": 2453,
  "▁appointment": 2454,
  "chin": 2455,
  "▁beautiful": 2456,
  "▁sumi": 2457,
  "▁marriage": 2458,
  "op": 2459,
  "▁contains": 2460,
  "▁string": 2461,
  "84": 2462,
  "▁esoteric": 2463,
  "▁fighting": 2464,
  "▁hatamoto": 2465,
  "▁rai": 2466,
  "▁24": 2467,
  "▁specific": 2468,
  "▁restored": 2469,
  "house": 2470,
  "▁rain": 2471,
  "haku": 2472,
  "gre": 2473,
  "▁tenno": 2474,
  "▁yoshiaki": 2475,
  "▁uma": 2476,
  "88": 2477,
  "52": 2478,
  "57": 2479,
  "▁guardian": 2480,
  "▁farmers": 2481,
  "▁rules": 2482,
  "▁staff": 2483,
  "▁hori": 2484,
  "hen": 2485,
  "▁protection": 2486,
  "tama": 2487,
  "▁meant": 2488,
  "▁working": 2489,
  "▁pay": 2490,
  "ify": 2491,
  "▁nagoya": 2492,
  "▁step": 2493,
  "▁maintain": 2494,
  "64": 2495,
  "▁heaven": 2496,
  "west": 2497,
  "▁camp": 2498,
  "yaki": 2499,
  "▁classified": 2500,
  "▁occasion": 2501,
  "▁crop": 2502,
  "▁battles": 2503,
  "izing": 2504,
  "▁14,": 2505,
  "▁hai": 2506,
  "▁mound": 2507,
  "87": 2508,
  "▁doctor": 2509,
  "▁shikibu": 2510,
  "▁oi": 2511,
  "▁30,": 2512,
  "47": 2513,
  "kichi": 2514,
  "ware": 2515,
  "▁subdue": 2516,
  "tane": 2517,
  "▁secretary": 2518,
  "▁enthronement": 2519,
  "pur": 2520,
  "▁thirty": 2521,
  "general": 2522,
  "▁followers": 2523,
  "du": 2524,
  "kojiki": 2525,
  "▁don": 2526,
  "▁fine": 2527,
  "▁inoue": 2528,
  "nushi": 2529,
  "▁flowers": 2530,
  "▁titles": 2531,
  "▁villages": 2532,
  "▁19,": 2533,
  "▁gokenin": 2534,
  "masu": 2535,
  "▁uncle": 2536,
  "▁aizu": 2537,
  "▁allow": 2538,
  "▁medicine": 2539,
  "▁surface": 2540,
  "▁ingredients": 2541,
  "▁iwakura": 2542,
  "▁currency": 2543,
  "tsuke": 2544,
  "▁kofuku": 2545,
  "\"),": 2546,
  "▁favor": 2547,
  "▁koga": 2548,
  "quite": 2549,
  "▁maternal": 2550,
  "▁compared": 2551,
  "▁iyo": 2552,
  "▁magistrate": 2553,
  "▁becomes": 2554,
  "▁connected": 2555,
  "▁kira": 2556,
  "sis": 2557,
  "▁kaga": 2558,
  "▁kasuga": 2559,
  "08": 2560,
  "▁stated": 2561,
  "17": 2562,
  "ral": 2563,
  "71": 2564,
  "cle": 2565,
  "72": 2566,
  "ped": 2567,
  "▁paid": 2568,
  "▁intention": 2569,
  "▁frequently": 2570,
  "▁buses": 2571,
  "▁defense": 2572,
  "▁si": 2573,
  "▁us": 2574,
  "▁store": 2575,
  "▁sekigahara": 2576,
  "06": 2577,
  "▁bugyo": 2578,
  "]).": 2579,
  "kado": 2580,
  "▁ninth": 2581,
  "▁items": 2582,
  "▁model": 2583,
  "▁pu": 2584,
  "▁whom": 2585,
  "▁hitachi": 2586,
  "▁retained": 2587,
  "▁nichi": 2588,
  "66": 2589,
  "▁26,": 2590,
  "▁exhibition": 2591,
  "▁mizu": 2592,
  "hu": 2593,
  "80": 2594,
  "98": 2595,
  "07": 2596,
  "▁difference": 2597,
  "▁temporary": 2598,
  "▁closed": 2599,
  "▁self": 2600,
  "row": 2601,
  "▁punishment": 2602,
  "▁planned": 2603,
  "▁lecture": 2604,
  "8": 2605,
  "▁sign": 2606,
  "▁submitted": 2607,
  "▁shops": 2608,
  "▁subway": 2609,
  "▁chamberlain": 2610,
  "▁enryaku": 2611,
  "▁rights": 2612,
  "▁tera": 2613,
  "91": 2614,
  "▁influential": 2615,
  "▁costume": 2616,
  "taisha": 2617,
  "▁painter": 2618,
  "▁reported": 2619,
  "▁appear": 2620,
  "▁applied": 2621,
  "▁railways": 2622,
  "▁captured": 2623,
  "ber": 2624,
  "▁imagawa": 2625,
  "▁winter": 2626,
  "▁bai": 2627,
  "▁villa": 2628,
  "▁wind": 2629,
  "▁excellent": 2630,
  "▁achievements": 2631,
  "▁troop": 2632,
  "▁(15": 2633,
  "▁cherry": 2634,
  "lf": 2635,
  "03": 2636,
  "▁measures": 2637,
  "▁match": 2638,
  "▁condition": 2639,
  "▁drawn": 2640,
  "▁plays": 2641,
  "63": 2642,
  "▁karasuma": 2643,
  "▁cooking": 2644,
  "▁additional": 2645,
  "▁tatsu": 2646,
  "▁merchants": 2647,
  "▁surname": 2648,
  "▁ichikawa": 2649,
  "▁sakyo": 2650,
  "▁care": 2651,
  "04": 2652,
  "▁chiku": 2653,
  "▁correspond": 2654,
  "▁eaten": 2655,
  "▁yamagata": 2656,
  "▁chiba": 2657,
  "▁classical": 2658,
  "▁monument": 2659,
  "83": 2660,
  "▁50": 2661,
  "▁range": 2662,
  "▁controlled": 2663,
  "rat": 2664,
  "xi": 2665,
  "▁leg": 2666,
  "▁portrait": 2667,
  "pon": 2668,
  "▁cat": 2669,
  "▁invited": 2670,
  "▁connect": 2671,
  "▁something": 2672,
  "▁shown": 2673,
  "known": 2674,
  "▁diet": 2675,
  "▁pen": 2676,
  "▁receive": 2677,
  "▁basic": 2678,
  "▁problem": 2679,
  "▁academic": 2680,
  "▁medical": 2681,
  "▁europe": 2682,
  "▁shingen": 2683,
  "▁guest": 2684,
  "▁stick": 2685,
  "▁pick": 2686,
  "▁variety": 2687,
  "national": 2688,
  "▁hata": 2689,
  "▁empire": 2690,
  "▁eating": 2691,
  "who": 2692,
  "▁super": 2693,
  "name": 2694,
  "▁job": 2695,
  "62": 2696,
  "▁promotion": 2697,
  "94": 2698,
  "▁pond": 2699,
  "▁songs": 2700,
  "qua": 2701,
  "▁dowager": 2702,
  "▁meanwhile": 2703,
  "▁consequently": 2704,
  "▁ruled": 2705,
  "eight": 2706,
  "▁reach": 2707,
  "nder": 2708,
  "▁hito": 2709,
  "▁collect": 2710,
  "▁typical": 2711,
  "▁egg": 2712,
  "▁chamber": 2713,
  "▁painted": 2714,
  "93": 2715,
  "official": 2716,
  "from": 2717,
  "ger": 2718,
  "▁listed": 2719,
  "▁break": 2720,
  "tani": 2721,
  "24": 2722,
  "▁perform": 2723,
  "▁audience": 2724,
  "getsu": 2725,
  "▁koya": 2726,
  "▁prior": 2727,
  "▁distance": 2728,
  "kuro": 2729,
  "▁sung": 2730,
  "▁rock": 2731,
  "▁mostly": 2732,
  "▁disease": 2733,
  "▁hiroshima": 2734,
  "▁provisional": 2735,
  "▁gin": 2736,
  "32": 2737,
  "monin": 2738,
  "▁dried": 2739,
  "▁prepared": 2740,
  "▁im": 2741,
  "collection": 2742,
  "▁installed": 2743,
  "▁rokkaku": 2744,
  "▁covered": 2745,
  "▁supposed": 2746,
  "▁annual": 2747,
  "nara": 2748,
  "▁practical": 2749,
  "▁provide": 2750,
  "tate": 2751,
  "▁disturbance": 2752,
  "▁exists": 2753,
  "▁million": 2754,
  "▁boy": 2755,
  "▁urban": 2756,
  "▁restaurants": 2757,
  "▁regulations": 2758,
  "▁shima": 2759,
  "▁card": 2760,
  "▁studio": 2761,
  "▁kongo": 2762,
  "sama": 2763,
  "▁hara": 2764,
  "▁sects": 2765,
  "▁exception": 2766,
  "▁accord": 2767,
  "juku": 2768,
  "▁daishi": 2769,
  "▁complete": 2770,
  "▁alliance": 2771,
  "▁runs": 2772,
  "▁makino": 2773,
  "ual": 2774,
  "▁nenbutsu": 2775,
  "▁separated": 2776,
  "▁sumo": 2777,
  "▁survey": 2778,
  "▁fukuoka": 2779,
  "▁yamada": 2780,
  "jr": 2781,
  "▁shaku": 2782,
  "▁changes": 2783,
  "▁target": 2784,
  "▁ill": 2785,
  "uta": 2786,
  "▁goods": 2787,
  "▁2005": 2788,
  "▁kagoshima": 2789,
  "six": 2790,
  "▁kiri": 2791,
  "▁siege": 2792,
  "▁plot": 2793,
  "ou": 2794,
  "▁wearing": 2795,
  "▁rose": 2796,
  "▁okimi": 2797,
  "▁nobility": 2798,
  "▁normal": 2799,
  "▁double": 2800,
  "▁rikyu": 2801,
  "▁daibu": 2802,
  "▁passengers": 2803,
  "▁ceremonial": 2804,
  "▁orders": 2805,
  "kka": 2806,
  "44": 2807,
  "▁ikeda": 2808,
  "▁iga": 2809,
  "▁declined": 2810,
  "▁thin": 2811,
  "▁doshisha": 2812,
  "his": 2813,
  "▁mine": 2814,
  "▁burial": 2815,
  "scale": 2816,
  "82": 2817,
  "▁responsible": 2818,
  "▁historic": 2819,
  "zushi": 2820,
  "▁hatakeyama": 2821,
  "▁descriptions": 2822,
  "▁scholars": 2823,
  "print": 2824,
  "ography": 2825,
  "▁english": 2826,
  "▁edition": 2827,
  "▁giving": 2828,
  "▁boat": 2829,
  "▁prime": 2830,
  "▁regional": 2831,
  "▁spot": 2832,
  "▁heike": 2833,
  "▁hiki": 2834,
  "▁takes": 2835,
  "▁wi": 2836,
  "▁matter": 2837,
  "kita": 2838,
  "▁kii": 2839,
  "▁sentence": 2840,
  "▁makes": 2841,
  "▁powers": 2842,
  "▁knowledge": 2843,
  "high": 2844,
  "▁stand": 2845,
  "ious": 2846,
  "▁elementary": 2847,
  "▁ranking": 2848,
  "kusa": 2849,
  "▁removed": 2850,
  "▁conduct": 2851,
  "▁circumstances": 2852,
  "▁horses": 2853,
  "▁laws": 2854,
  "▁machi": 2855,
  "boshi": 2856,
  "▁ink": 2857,
  "15": 2858,
  "vice": 2859,
  "▁yakushi": 2860,
  "cked": 2861,
  "▁repair": 2862,
  "▁concurrently": 2863,
  "▁taught": 2864,
  "pet": 2865,
  "▁associated": 2866,
  "▁codes": 2867,
  "▁martial": 2868,
  "▁kano": 2869,
  "▁someone": 2870,
  "hand": 2871,
  "▁final": 2872,
  "▁despi": 2873,
  "97": 2874,
  "85": 2875,
  "▁talk": 2876,
  "▁(1": 2877,
  "31": 2878,
  "▁territorial": 2879,
  "▁heard": 2880,
  "▁ages": 2881,
  "▁simple": 2882,
  "▁shoshi": 2883,
  "▁temporarily": 2884,
  "23": 2885,
  "▁shaka": 2886,
  "▁attempt": 2887,
  "▁kanrei": 2888,
  "▁sugar": 2889,
  "arm": 2890,
  "▁believe": 2891,
  "mizu": 2892,
  "some": 2893,
  "▁extended": 2894,
  "▁follow": 2895,
  "▁naidaijin": 2896,
  "▁gl": 2897,
  "▁cur": 2898,
  "▁remaining": 2899,
  "▁facility": 2900,
  "▁enough": 2901,
  "▁udon": 2902,
  "▁dazai": 2903,
  "▁advance": 2904,
  "▁student": 2905,
  "osaka": 2906,
  "▁simply": 2907,
  "▁gojo": 2908,
  "hachi": 2909,
  "▁permission": 2910,
  "▁vol": 2911,
  "▁soul": 2912,
  "kken": 2913,
  "▁greatly": 2914,
  "ists": 2915,
  "▁films": 2916,
  "▁kasa": 2917,
  "▁trip": 2918,
  "▁contents": 2919,
  "▁2008": 2920,
  "▁governors": 2921,
  "96": 2922,
  "▁leaving": 2923,
  "05": 2924,
  "art": 2925,
  "▁architecture": 2926,
  "▁daijokan": 2927,
  "bai": 2928,
  "▁okura": 2929,
  "▁kizu": 2930,
  "▁indicates": 2931,
  "▁unlike": 2932,
  "▁conditions": 2933,
  "▁demand": 2934,
  "▁pictures": 2935,
  "▁saw": 2936,
  "kuma": 2937,
  "oku": 2938,
  "▁health": 2939,
  "▁beauty": 2940,
  "28": 2941,
  "25": 2942,
  "▁symbol": 2943,
  "▁literary": 2944,
  "▁reizei": 2945,
  "▁inaba": 2946,
  "▁shop": 2947,
  "long": 2948,
  "▁advantage": 2949,
  "▁shall": 2950,
  "▁lives": 2951,
  "▁manuscript": 2952,
  "leg": 2953,
  "▁award": 2954,
  "▁thick": 2955,
  "▁kukai": 2956,
  "▁narrow": 2957,
  "▁decree": 2958,
  "▁kuma": 2959,
  "▁actively": 2960,
  "▁community": 2961,
  "▁uprising": 2962,
  "▁flavor": 2963,
  "▁ships": 2964,
  "▁railroad": 2965,
  "▁yamaguchi": 2966,
  "▁gion": 2967,
  "▁spirits": 2968,
  "▁dr": 2969,
  "ery": 2970,
  "class": 2971,
  "▁initially": 2972,
  "▁fudo": 2973,
  "▁patterns": 2974,
  "▁offering": 2975,
  "▁incorporated": 2976,
  "▁recently": 2977,
  "▁towards": 2978,
  "assistant": 2979,
  "▁labor": 2980,
  "▁concubine": 2981,
  "five": 2982,
  "shitsu": 2983,
  "▁22": 2984,
  "▁plate": 2985,
  "▁contributed": 2986,
  "▁revision": 2987,
  "rc": 2988,
  "▁yoshitaka": 2989,
  "▁ben": 2990,
  "33": 2991,
  "▁kanmu": 2992,
  "▁kyogen": 2993,
  "▁cities": 2994,
  "▁ue": 2995,
  "by": 2996,
  "kasa": 2997,
  "▁weight": 2998,
  "▁nor": 2999,
  "type": 3000,
  "▁eat": 3001,
  "▁chronicle": 3002,
  "▁peasants": 3003,
  "],": 3004,
  "▁cast": 3005,
  "▁exiled": 3006,
  "▁depict": 3007,
  "▁roll": 3008,
  "▁dewa": 3009,
  "▁fixed": 3010,
  "▁leave": 3011,
  "▁mar": 3012,
  "%": 3013,
  "▁wakasa": 3014,
  "▁gathered": 3015,
  "▁determined": 3016,
  "▁monjo": 3017,
  "▁yoshitomo": 3018,
  "▁copper": 3019,
  "▁failed": 3020,
  "▁suffered": 3021,
  "vat": 3022,
  "cap": 3023,
  "▁strongly": 3024,
  "▁maintained": 3025,
  "▁decline": 3026,
  "▁28": 3027,
  "▁invasion": 3028,
  "▁find": 3029,
  "▁attention": 3030,
  "▁successive": 3031,
  "goto": 3032,
  "▁rakugo": 3033,
  "▁hakase": 3034,
  "▁masu": 3035,
  "▁besides": 3036,
  "ably": 3037,
  "▁agricultural": 3038,
  "numa": 3039,
  "▁hankyu": 3040,
  "kofun": 3041,
  "▁continue": 3042,
  "tea": 3043,
  "▁suruga": 3044,
  "▁shiro": 3045,
  "ima": 3046,
  "there": 3047,
  "▁performing": 3048,
  "▁transport": 3049,
  "zaka": 3050,
  "▁tokaido": 3051,
  "▁kofun": 3052,
  "▁taki": 3053,
  "▁evil": 3054,
  "▁kuroda": 3055,
  "▁characteristics": 3056,
  "▁ukyo": 3057,
  "▁saku": 3058,
  "hata": 3059,
  "▁sakura": 3060,
  "▁teaching": 3061,
  "大": 3062,
  "ept": 3063,
  "▁table": 3064,
  "▁rituals": 3065,
  "▁professional": 3066,
  "▁peerage": 3067,
  "▁circle": 3068,
  "▁build": 3069,
  "▁mean": 3070,
  "09": 3071,
  "▁entering": 3072,
  "▁refused": 3073,
  "pan": 3074,
  "▁chugu": 3075,
  "tte": 3076,
  "▁chosen": 3077,
  "▁otani": 3078,
  "▁kumamoto": 3079,
  "▁college": 3080,
  "▁bushi": 3081,
  "▁efforts": 3082,
  "▁adult": 3083,
  "▁owner": 3084,
  "▁pot": 3085,
  "▁asano": 3086,
  "▁stock": 3087,
  "▁relocated": 3088,
  "▁shichi": 3089,
  "▁23": 3090,
  "▁kuge": 3091,
  "sumi": 3092,
  "▁anecdote": 3093,
  "▁lotus": 3094,
  "▁domestic": 3095,
  "▁border": 3096,
  "▁happened": 3097,
  "▁uda": 3098,
  "▁prohibited": 3099,
  "▁doctrine": 3100,
  "▁offer": 3101,
  "▁sugawara": 3102,
  "▁cake": 3103,
  "▁commercial": 3104,
  "▁wanted": 3105,
  "▁saito": 3106,
  "▁coast": 3107,
  "▁obi": 3108,
  "▁ancestor": 3109,
  "▁alcohol": 3110,
  "▁attain": 3111,
  "pass": 3112,
  "▁ru": 3113,
  "top": 3114,
  "▁develop": 3115,
  "maizuru": 3116,
  "▁career": 3117,
  "▁treatment": 3118,
  "▁jizo": 3119,
  "▁seiwa": 3120,
  "buddhist": 3121,
  "▁districts": 3122,
  "▁haiku": 3123,
  "▁comm": 3124,
  "▁pilgrimage": 3125,
  "moku": 3126,
  "east": 3127,
  "▁operations": 3128,
  "▁ike": 3129,
  "▁daigaku": 3130,
  "▁miyazu": 3131,
  "ient": 3132,
  "soku": 3133,
  "tle": 3134,
  "tsuji": 3135,
  "▁koji": 3136,
  "▁kurama": 3137,
  "▁yanagi": 3138,
  "▁discovered": 3139,
  "ants": 3140,
  "▁akechi": 3141,
  "▁star": 3142,
  "▁easily": 3143,
  "▁royal": 3144,
  "▁playing": 3145,
  "▁talent": 3146,
  "▁verse": 3147,
  "▁internal": 3148,
  "teru": 3149,
  "▁months": 3150,
  "▁maeda": 3151,
  "▁1869": 3152,
  "azuma": 3153,
  "▁lacquer": 3154,
  "▁artist": 3155,
  "meter": 3156,
  "▁nihonshoki": 3157,
  "▁preservation": 3158,
  "▁relatively": 3159,
  "ise": 3160,
  "▁hen": 3161,
  "▁stopped": 3162,
  "▁funa": 3163,
  "▁stipend": 3164,
  "▁extremely": 3165,
  "according": 3166,
  "▁drawing": 3167,
  "chiyo": 3168,
  "rice": 3169,
  "▁executed": 3170,
  "▁gosho": 3171,
  "▁sites": 3172,
  "former": 3173,
  "▁chant": 3174,
  "▁pronounced": 3175,
  "▁basically": 3176,
  "▁waki": 3177,
  "▁qu": 3178,
  "▁hayashi": 3179,
  "major": 3180,
  "▁requested": 3181,
  "▁shimotsuke": 3182,
  "▁kinai": 3183,
  "▁permitted": 3184,
  "▁har": 3185,
  "ong": 3186,
  "▁look": 3187,
  "▁defined": 3188,
  "▁matsuri": 3189,
  "▁jushiinoge": 3190,
  "this": 3191,
  "▁1871": 3192,
  "▁claim": 3193,
  "▁cm": 3194,
  "▁finance": 3195,
  "zaburo": 3196,
  "dis": 3197,
  "▁hama": 3198,
  "▁metal": 3199,
  "▁suddenly": 3200,
  "▁chin": 3201,
  "▁arranged": 3202,
  "▁x": 3203,
  "▁cooked": 3204,
  "▁mae": 3205,
  "26": 3206,
  "vest": 3207,
  "tro": 3208,
  "kki": 3209,
  "▁professor": 3210,
  "▁reference": 3211,
  "kara": 3212,
  "▁kinki": 3213,
  "nashi": 3214,
  "▁anthology": 3215,
  "bugyo": 3216,
  "▁forms": 3217,
  "ryaku": 3218,
  "▁mixed": 3219,
  "▁access": 3220,
  "kiri": 3221,
  "▁arch": 3222,
  "▁judge": 3223,
  "▁shosho": 3224,
  "▁enshrine": 3225,
  "▁translation": 3226,
  "▁adopt": 3227,
  "ium": 3228,
  "76": 3229,
  "▁26": 3230,
  "▁attract": 3231,
  "▁miso": 3232,
  "▁taxes": 3233,
  "graph": 3234,
  "▁arms": 3235,
  "▁introduction": 3236,
  "▁acted": 3237,
  "▁okayama": 3238,
  "▁aspect": 3239,
  "▁settled": 3240,
  "▁think": 3241,
  "▁rites": 3242,
  "kkai": 3243,
  "▁asakura": 3244,
  "▁register": 3245,
  "▁commit": 3246,
  "▁anniversary": 3247,
  "▁tsuki": 3248,
  "▁fled": 3249,
  "motsu": 3250,
  "▁cost": 3251,
  "middle": 3252,
  "▁newspaper": 3253,
  "▁nagaoka": 3254,
  "▁expressed": 3255,
  "▁clothing": 3256,
  "▁feeling": 3257,
  "▁mark": 3258,
  "▁stands": 3259,
  "▁ameno": 3260,
  "▁attendant": 3261,
  "muni": 3262,
  "written": 3263,
  "▁daisho": 3264,
  "char": 3265,
  "▁paste": 3266,
  "▁earlier": 3267,
  "nagi": 3268,
  "▁nitta": 3269,
  "▁kokuga": 3270,
  "▁designed": 3271,
  "▁masamune": 3272,
  "▁episode": 3273,
  "▁action": 3274,
  "▁tell": 3275,
  "▁coup": 3276,
  "▁raw": 3277,
  "▁carry": 3278,
  "▁obtained": 3279,
  "uri": 3280,
  "▁roles": 3281,
  "▁geisha": 3282,
  "27": 3283,
  "▁opinions": 3284,
  "▁lack": 3285,
  "▁goddess": 3286,
  "▁cold": 3287,
  "▁our": 3288,
  "▁afterwards": 3289,
  "▁announced": 3290,
  "▁fare": 3291,
  "▁note": 3292,
  "▁poor": 3293,
  "cal": 3294,
  "traditional": 3295,
  "▁pointed": 3296,
  "▁rise": 3297,
  "▁takakura": 3298,
  "▁mission": 3299,
  "tto": 3300,
  "▁achieved": 3301,
  "▁root": 3302,
  "▁portion": 3303,
  "▁thanks": 3304,
  "▁reward": 3305,
  "geki": 3306,
  "▁numbers": 3307,
  "tatsu": 3308,
  "▁forth": 3309,
  "▁bath": 3310,
  "▁christian": 3311,
  "▁advisor": 3312,
  "▁disappeared": 3313,
  "▁copy": 3314,
  "▁nen": 3315,
  "29": 3316,
  "▁walls": 3317,
  "▁sakone": 3318,
  "▁taisha": 3319,
  "▁sand": 3320,
  "▁27": 3321,
  "▁kichi": 3322,
  "▁kubo": 3323,
  "▁entry": 3324,
  "▁joint": 3325,
  "▁attend": 3326,
  "▁instrument": 3327,
  "▁address": 3328,
  "▁registered": 3329,
  "work": 3330,
  "▁tales": 3331,
  "▁comment": 3332,
  "chinese": 3333,
  "▁shinran": 3334,
  "▁heart": 3335,
  "▁enjoy": 3336,
  "▁relative": 3337,
  "momoyama": 3338,
  "▁campaign": 3339,
  "▁settlement": 3340,
  "▁`": 3341,
  "▁scroll": 3342,
  "▁zu": 3343,
  "▁views": 3344,
  "▁rare": 3345,
  "▁roads": 3346,
  "▁shonii": 3347,
  "▁moku": 3348,
  "atory": 3349,
  "▁bear": 3350,
  "▁damage": 3351,
  "▁block": 3352,
  "▁oshu": 3353,
  "▁stones": 3354,
  "▁descended": 3355,
  "▁grandchild": 3356,
  "▁tadayoshi": 3357,
  "▁dress": 3358,
  "under": 3359,
  "▁petition": 3360,
  "▁evidence": 3361,
  "▁stay": 3362,
  "▁performances": 3363,
  "▁powder": 3364,
  "▁contrast": 3365,
  "▁messenger": 3366,
  "▁asia": 3367,
  "▁masakado": 3368,
  "▁criticized": 3369,
  "mission": 3370,
  "▁recover": 3371,
  "▁phrase": 3372,
  "ory": 3373,
  "chan": 3374,
  "▁jingu": 3375,
  "▁boiled": 3376,
  "▁roju": 3377,
  "▁resulted": 3378,
  "hold": 3379,
  "▁biological": 3380,
  "▁traffic": 3381,
  "▁routes": 3382,
  "▁hiko": 3383,
  "▁split": 3384,
  "▁identified": 3385,
  "▁practiced": 3386,
  "▁replaced": 3387,
  "kuchi": 3388,
  "▁mandala": 3389,
  "▁manager": 3390,
  "tetsu": 3391,
  "▁gain": 3392,
  "▁hit": 3393,
  "▁drink": 3394,
  "▁path": 3395,
  "▁skill": 3396,
  "22": 3397,
  "▁heavy": 3398,
  "▁shooting": 3399,
  "mata": 3400,
  "cut": 3401,
  "▁dry": 3402,
  "▁proposed": 3403,
  "▁grounds": 3404,
  "▁nothing": 3405,
  "▁seated": 3406,
  "▁writer": 3407,
  "▁omo": 3408,
  "▁parties": 3409,
  "▁bird": 3410,
  "▁kato": 3411,
  "wake": 3412,
  "▁recommended": 3413,
  "▁serious": 3414,
  "wata": 3415,
  "▁allied": 3416,
  "▁goto": 3417,
  "▁tohoku": 3418,
  "▁(11": 3419,
  "▁mono": 3420,
  "zi": 3421,
  "▁consisted": 3422,
  "▁confucianism": 3423,
  "putting": 3424,
  "wi": 3425,
  "kumo": 3426,
  "▁differ": 3427,
  "▁enlightenment": 3428,
  "▁kozuke": 3429,
  "▁revised": 3430,
  "shrine": 3431,
  "uma": 3432,
  "▁oyama": 3433,
  "▁approved": 3434,
  "▁reforms": 3435,
  "▁tracks": 3436,
  "see": 3437,
  "ook": 3438,
  "▁contained": 3439,
  "▁fortune": 3440,
  "nyu": 3441,
  "▁count": 3442,
  "▁focus": 3443,
  "▁deal": 3444,
  "▁relatives": 3445,
  "▁v": 3446,
  "▁hoshi": 3447,
  "▁kiku": 3448,
  "▁sasaki": 3449,
  "▁kojiki": 3450,
  "▁relations": 3451,
  "▁steam": 3452,
  "▁rokuhara": 3453,
  "▁population": 3454,
  "seven": 3455,
  "▁burned": 3456,
  "▁atago": 3457,
  "set": 3458,
  "▁murakami": 3459,
  "▁maru": 3460,
  "▁platforms": 3461,
  "▁faith": 3462,
  "▁sanuki": 3463,
  "hyo": 3464,
  "▁revolt": 3465,
  "▁inscription": 3466,
  "manyoshu": 3467,
  "▁kumi": 3468,
  "▁hat": 3469,
  "▁escape": 3470,
  "▁mitsunari": 3471,
  "▁ordinance": 3472,
  "▁nephew": 3473,
  "▁merged": 3474,
  "train": 3475,
  "direct": 3476,
  "▁sections": 3477,
  "▁check": 3478,
  "zuke": 3479,
  "▁tanaka": 3480,
  "▁mizuno": 3481,
  "shita": 3482,
  "▁tv": 3483,
  "▁tetsu": 3484,
  "dani": 3485,
  "▁response": 3486,
  "second": 3487,
  "▁surrendered": 3488,
  "▁stores": 3489,
  "▁instruments": 3490,
  "▁miyake": 3491,
  "▁merchant": 3492,
  "▁broad": 3493,
  "oya": 3494,
  "guri": 3495,
  "▁koshi": 3496,
  "▁constable": 3497,
  "▁reflect": 3498,
  "▁attempted": 3499,
  "▁sin": 3500,
  "▁technology": 3501,
  "fish": 3502,
  "▁correct": 3503,
  "▁fukushima": 3504,
  "tting": 3505,
  "▁hill": 3506,
  "▁sell": 3507,
  "tsuka": 3508,
  "▁slightly": 3509,
  "▁tsuna": 3510,
  "▁divine": 3511,
  "▁excavated": 3512,
  "nokami": 3513,
  "▁flow": 3514,
  "▁fief": 3515,
  "▁commerce": 3516,
  "▁prize": 3517,
  "▁draft": 3518,
  "▁nyo": 3519,
  "▁jinshin": 3520,
  "modern": 3521,
  "getting": 3522,
  "▁approach": 3523,
  "atsu": 3524,
  "▁engi": 3525,
  "▁released": 3526,
  "▁residents": 3527,
  "▁receiving": 3528,
  "▁probably": 3529,
  "▁foreigners": 3530,
  "▁shamisen": 3531,
  "▁content": 3532,
  "ancient": 3533,
  "▁shio": 3534,
  "▁teru": 3535,
  "▁wakayama": 3536,
  "▁conference": 3537,
  "▁watch": 3538,
  "▁surrounded": 3539,
  "▁features": 3540,
  "▁eki": 3541,
  "▁duty": 3542,
  "▁agriculture": 3543,
  "ny": 3544,
  "▁crossing": 3545,
  "▁biography": 3546,
  "▁arrangement": 3547,
  "script": 3548,
  "▁sugi": 3549,
  "▁measure": 3550,
  "▁hoku": 3551,
  "▁meet": 3552,
  "▁depicted": 3553,
  "▁showing": 3554,
  "▁ir": 3555,
  "otsu": 3556,
  "▁kameyama": 3557,
  "▁largest": 3558,
  "ological": 3559,
  "▁oama": 3560,
  "▁pine": 3561,
  "▁comic": 3562,
  "▁miura": 3563,
  "▁grew": 3564,
  "▁overthrow": 3565,
  "▁tanka": 3566,
  "▁accordingly": 3567,
  "▁weak": 3568,
  "▁edge": 3569,
  "▁kazan": 3570,
  "▁scen": 3571,
  "military": 3572,
  "▁nakamaro": 3573,
  "▁superior": 3574,
  "▁points": 3575,
  "▁sendai": 3576,
  "▁supporting": 3577,
  "▁deeply": 3578,
  "▁sagami": 3579,
  "▁restaurant": 3580,
  "▁akita": 3581,
  "tric": 3582,
  "war": 3583,
  "▁figures": 3584,
  "▁create": 3585,
  "▁meal": 3586,
  "▁establishing": 3587,
  "▁kono": 3588,
  "▁fabric": 3589,
  "▁machine": 3590,
  "▁goes": 3591,
  "▁supreme": 3592,
  "▁rich": 3593,
  "▁mat": 3594,
  "▁degree": 3595,
  "▁kamigata": 3596,
  "▁educational": 3597,
  "▁(16": 3598,
  "▁tourist": 3599,
  "▁gotoba": 3600,
  "▁kotsu": 3601,
  "▁omiya": 3602,
  "▁sakamoto": 3603,
  "▁translated": 3604,
  "▁gift": 3605,
  "▁nagato": 3606,
  "▁setsu": 3607,
  "▁michizane": 3608,
  "▁sekkan": 3609,
  "first": 3610,
  "▁honjo": 3611,
  "▁juichii": 3612,
  "▁campus": 3613,
  "▁asahi": 3614,
  "▁rebuilt": 3615,
  "▁product": 3616,
  "▁blue": 3617,
  "▁entertainment": 3618,
  "▁suggest": 3619,
  "▁directed": 3620,
  "▁200": 3621,
  "▁daily": 3622,
  "▁evening": 3623,
  "hoku": 3624,
  "tail": 3625,
  "umi": 3626,
  "koshi": 3627,
  "▁display": 3628,
  "▁india": 3629,
  "▁pair": 3630,
  "▁ishiyama": 3631,
  "▁40": 3632,
  "gyu": 3633,
  "cious": 3634,
  "▁methods": 3635,
  "▁reduced": 3636,
  "▁sessho": 3637,
  "▁islands": 3638,
  "▁colors": 3639,
  "▁goryo": 3640,
  "▁shogunal": 3641,
  "▁possessed": 3642,
  "▁attended": 3643,
  "▁yoshimune": 3644,
  "▁die": 3645,
  "now": 3646,
  "▁intended": 3647,
  "▁precincts": 3648,
  "▁rokujo": 3649,
  "▁host": 3650,
  "fact": 3651,
  "▁murasaki": 3652,
  "bayashi": 3653,
  "▁trouble": 3654,
  "▁girls": 3655,
  "▁rate": 3656,
  "▁plain": 3657,
  "book": 3658,
  "▁basin": 3659,
  "▁classics": 3660,
  "▁prayer": 3661,
  "▁problems": 3662,
  "▁dutch": 3663,
  "kkan": 3664,
  "▁desire": 3665,
  "▁customs": 3666,
  "▁60": 3667,
  "▁relation": 3668,
  "▁hidetada": 3669,
  "▁mention": 3670,
  "▁characteristic": 3671,
  "kashi": 3672,
  "▁ruler": 3673,
  "▁musical": 3674,
  "▁inari": 3675,
  "▁returning": 3676,
  "oshi": 3677,
  "▁shoin": 3678,
  "including": 3679,
  "▁considering": 3680,
  "nish": 3681,
  "▁dismissed": 3682,
  "▁corner": 3683,
  "▁decoration": 3684,
  "▁cousin": 3685,
  "▁bizen": 3686,
  "▁ogasawara": 3687,
  "▁dates": 3688,
  "▁agreement": 3689,
  "ita": 3690,
  "▁snow": 3691,
  "▁furu": 3692,
  "shinto": 3693,
  "▁diplomatic": 3694,
  "▁practices": 3695,
  "room": 3696,
  "▁script": 3697,
  "▁silla": 3698,
  "▁fee": 3699,
  "▁kado": 3700,
  "nichi": 3701,
  "▁fear": 3702,
  "▁successively": 3703,
  "▁interpretation": 3704,
  "▁scriptures": 3705,
  "▁harvest": 3706,
  "higashi": 3707,
  "ichiro": 3708,
  "▁yoshiie": 3709,
  "wise": 3710,
  "▁yaku": 3711,
  "▁explained": 3712,
  "▁2004": 3713,
  "▁justice": 3714,
  "▁occupied": 3715,
  "▁graduate": 3716,
  "▁heijo": 3717,
  "▁dream": 3718,
  "with": 3719,
  "▁shizuoka": 3720,
  "table": 3721,
  "▁bureaucrat": 3722,
  "▁kazusa": 3723,
  "▁vow": 3724,
  "q": 3725,
  "▁learn": 3726,
  "▁mythology": 3727,
  "▁arashiyama": 3728,
  "▁taxi": 3729,
  "▁hime": 3730,
  "▁pillar": 3731,
  "ability": 3732,
  "▁yuan": 3733,
  "▁hokuriku": 3734,
  "▁policies": 3735,
  "▁ogura": 3736,
  "▁amaterasu": 3737,
  "shio": 3738,
  "▁nickname": 3739,
  "▁hyaku": 3740,
  "▁ikko": 3741,
  "▁yamazaki": 3742,
  "▁key": 3743,
  "▁separate": 3744,
  "▁ukone": 3745,
  "▁consider": 3746,
  "▁rebel": 3747,
  "▁implemented": 3748,
  "family": 3749,
  "▁junii": 3750,
  "▁nagamasa": 3751,
  "important": 3752,
  "▁29": 3753,
  "▁concerned": 3754,
  "▁merit": 3755,
  "teki": 3756,
  "▁rush": 3757,
  "▁expert": 3758,
  "▁magazine": 3759,
  "▁surrender": 3760,
  "tora": 3761,
  "▁murder": 3762,
  "▁employed": 3763,
  "▁needed": 3764,
  "▁severe": 3765,
  "nouchi": 3766,
  "▁horikawa": 3767,
  "▁fierce": 3768,
  "▁bay": 3769,
  "naval": 3770,
  "▁bronze": 3771,
  "▁(17": 3772,
  "two": 3773,
  "pei": 3774,
  "gri": 3775,
  "▁alive": 3776,
  "▁sado": 3777,
  "▁industrial": 3778,
  "▁craft": 3779,
  "▁criminal": 3780,
  "▁counter": 3781,
  "▁integrated": 3782,
  "▁obtain": 3783,
  "▁300": 3784,
  "▁media": 3785,
  "▁donated": 3786,
  "▁confirmed": 3787,
  "etsu": 3788,
  "▁ball": 3789,
  "uke": 3790,
  "▁envoys": 3791,
  "▁reality": 3792,
  "▁masako": 3793,
  "▁changing": 3794,
  "▁haya": 3795,
  "giri": 3796,
  "▁armed": 3797,
  "▁flat": 3798,
  "▁width": 3799,
  "▁percent": 3800,
  "▁answer": 3801,
  "bori": 3802,
  "▁mount": 3803,
  "▁yoshinori": 3804,
  "▁likely": 3805,
  "▁yamamoto": 3806,
  "▁rumor": 3807,
  "▁oishi": 3808,
  "▁nii": 3809,
  "each": 3810,
  "▁bodhisattva": 3811,
  "▁extend": 3812,
  "▁gifu": 3813,
  "▁kamigyo": 3814,
  "▁genealogy": 3815,
  "riki": 3816,
  "▁interior": 3817,
  "kari": 3818,
  "▁temperature": 3819,
  "▁landscape": 3820,
  "▁write": 3821,
  "▁tools": 3822,
  "▁yang": 3823,
  "▁iemitsu": 3824,
  "▁door": 3825,
  "▁acts": 3826,
  "asa": 3827,
  "▁progress": 3828,
  "▁hoko": 3829,
  "▁2000": 3830,
  "▁tate": 3831,
  "▁increasing": 3832,
  "▁tenchi": 3833,
  "▁sanyo": 3834,
  "▁doubt": 3835,
  "▁fukui": 3836,
  "▁okinawa": 3837,
  "▁please": 3838,
  "▁academy": 3839,
  "air": 3840,
  "▁adding": 3841,
  "▁oil": 3842,
  "▁akamatsu": 3843,
  "▁keicho": 3844,
  "▁popularity": 3845,
  "reki": 3846,
  "mage": 3847,
  "▁suit": 3848,
  "▁achievement": 3849,
  "third": 3850,
  "▁literally": 3851,
  "▁imposed": 3852,
  "▁shosanmi": 3853,
  "▁hours": 3854,
  "▁31,": 3855,
  "▁float": 3856,
  "▁tsushima": 3857,
  "▁search": 3858,
  "▁flute": 3859,
  "scended": 3860,
  "▁player": 3861,
  "▁fishing": 3862,
  "▁strength": 3863,
  "▁golden": 3864,
  "▁subordinate": 3865,
  "▁quarters": 3866,
  "▁plum": 3867,
  "▁expressway": 3868,
  "▁archery": 3869,
  "▁sat": 3870,
  "▁elements": 3871,
  "▁instruction": 3872,
  "▁myoo": 3873,
  "mine": 3874,
  "▁guide": 3875,
  "▁corresponding": 3876,
  "▁combined": 3877,
  "▁license": 3878,
  "awase": 3879,
  "▁acting": 3880,
  "▁ueno": 3881,
  "▁victory": 3882,
  "▁herself": 3883,
  "refer": 3884,
  "chang": 3885,
  "▁preparation": 3886,
  "▁examination": 3887,
  "▁confucian": 3888,
  "▁jnr": 3889,
  "fuji": 3890,
  "▁mere": 3891,
  "tsubo": 3892,
  "▁stood": 3893,
  "▁shino": 3894,
  "▁shoku": 3895,
  "▁tsuru": 3896,
  "▁bottom": 3897,
  "▁passing": 3898,
  "▁shot": 3899,
  "▁dispatch": 3900,
  "▁honen": 3901,
  "▁dancing": 3902,
  "▁send": 3903,
  "source": 3904,
  "▁vegetables": 3905,
  "▁seppuku": 3906,
  "▁economy": 3907,
  "▁advocated": 3908,
  "▁distributed": 3909,
  "▁kishu": 3910,
  "▁defend": 3911,
  "god": 3912,
  "▁ohara": 3913,
  "▁huge": 3914,
  "matsuri": 3915,
  "▁shomu": 3916,
  "▁clearly": 3917,
  "▁jiju": 3918,
  "▁parents": 3919,
  "▁kitano": 3920,
  "my": 3921,
  "▁grain": 3922,
  "▁pan": 3923,
  "▁myth": 3924,
  "▁studying": 3925,
  "▁setting": 3926,
  "▁fifty": 3927,
  "▁felt": 3928,
  "▁1872": 3929,
  "▁eyes": 3930,
  "▁tenth": 3931,
  "の": 3932,
  "▁shoji": 3933,
  "▁nagano": 3934,
  "▁ear": 3935,
  "▁hospital": 3936,
  "▁insisted": 3937,
  "shogun": 3938,
  "▁eye": 3939,
  "▁deceased": 3940,
  "count": 3941,
  "▁1867": 3942,
  "▁residential": 3943,
  "kasu": 3944,
  "▁commemorat": 3945,
  "▁exclud": 3946,
  "▁nun": 3947,
  "▁concluded": 3948,
  "▁resulting": 3949,
  "▁interchange": 3950,
  "▁sukune": 3951,
  "▁500": 3952,
  "▁classification": 3953,
  "tale": 3954,
  "ame": 3955,
  "▁kake": 3956,
  "such": 3957,
  "▁philosophy": 3958,
  "▁reside": 3959,
  "▁tani": 3960,
  "▁ghost": 3961,
  "▁hotel": 3962,
  "▁ability": 3963,
  "▁republic": 3964,
  "▁moat": 3965,
  "▁enjoyed": 3966,
  "▁judicial": 3967,
  "▁abandoned": 3968,
  "▁suggests": 3969,
  "▁kokyu": 3970,
  "wood": 3971,
  "dama": 3972,
  "▁tachi": 3973,
  "▁finished": 3974,
  "▁secular": 3975,
  "gaya": 3976,
  "▁(12": 3977,
  "where": 3978,
  "▁10,000": 3979,
  "▁investigation": 3980,
  "▁flour": 3981,
  "▁understand": 3982,
  "▁mouth": 3983,
  "▁behavior": 3984,
  "taki": 3985,
  "▁possibility": 3986,
  "▁carrying": 3987,
  "▁2003": 3988,
  "iki": 3989,
  "▁expanded": 3990,
  "ble": 3991,
  "based": 3992,
  "▁sakanoue": 3993,
  "!": 3994,
  "▁centralized": 3995,
  "▁competition": 3996,
  "tsutsu": 3997,
  "▁aimed": 3998,
  "▁ruins": 3999,
  "▁shonin": 4000,
  "▁compilation": 4001,
  "haya": 4002,
  "▁neighboring": 4003,
  "▁sick": 4004,
  "▁representatives": 4005,
  "▁nishiki": 4006,
  "born": 4007,
  "▁expedition": 4008,
  "▁leaf": 4009,
  "▁appeal": 4010,
  "▁trading": 4011,
  "▁warm": 4012,
  "▁kabane": 4013,
  "▁pupil": 4014,
  "ung": 4015,
  "lan": 4016,
  "▁wada": 4017,
  "▁tengu": 4018,
  "noh": 4019,
  "▁easy": 4020,
  "▁fat": 4021,
  "▁iku": 4022,
  "▁displayed": 4023,
  "▁cup": 4024,
  "▁sanin": 4025,
  "▁governed": 4026,
  "▁effort": 4027,
  "▁images": 4028,
  "▁club": 4029,
  "▁better": 4030,
  "▁environment": 4031,
  "▁yeast": 4032,
  "▁kuri": 4033,
  "▁devoted": 4034,
  "▁choja": 4035,
  "▁containing": 4036,
  "▁momoyama": 4037,
  "▁cal": 4038,
  "▁kama": 4039,
  "▁celebrated": 4040,
  "▁sovereignty": 4041,
  "▁explanation": 4042,
  "made": 4043,
  "▁organizations": 4044,
  "▁hosho": 4045,
  "▁kishi": 4046,
  "▁0": 4047,
  "▁reorganized": 4048,
  "▁praised": 4049,
  "▁caught": 4050,
  "pat": 4051,
  "▁church": 4052,
  "▁sojo": 4053,
  "january": 4054,
  "▁taiko": 4055,
  "kagami": 4056,
  "▁squad": 4057,
  "▁drinking": 4058,
  "▁differences": 4059,
  "▁kanjo": 4060,
  "▁committee": 4061,
  "▁representing": 4062,
  "ranked": 4063,
  "▁naru": 4064,
  "▁cooperat": 4065,
  "▁naishi": 4066,
  "bito": 4067,
  "▁highway": 4068,
  "vol": 4069,
  "▁cooperation": 4070,
  "▁crime": 4071,
  "lock": 4072,
  "▁visiting": 4073,
  "ume": 4074,
  "▁ezo": 4075,
  "▁russia": 4076,
  "▁page": 4077,
  "▁indicated": 4078,
  "▁criticism": 4079,
  "▁opposition": 4080,
  "▁nikko": 4081,
  "▁fresh": 4082,
  "▁branches": 4083,
  "▁thereby": 4084,
  "suki": 4085,
  "▁kebiishi": 4086,
  "rui": 4087,
  "▁lay": 4088,
  "▁dog": 4089,
  "▁kari": 4090,
  "▁taro": 4091,
  "▁construct": 4092,
  "hereditary": 4093,
  "▁raise": 4094,
  "▁appoint": 4095,
  "fune": 4096,
  "▁proceed": 4097,
  "▁rear": 4098,
  "▁operating": 4099,
  "▁fusa": 4100,
  "▁suzuki": 4101,
  "▁tottori": 4102,
  "▁proposal": 4103,
  "▁secure": 4104,
  "▁kaoru": 4105,
  "nabe": 4106,
  "▁yoshihiro": 4107,
  "▁misasagi": 4108,
  "zhou": 4109,
  "▁seek": 4110,
  "▁liter": 4111,
  "▁shikoku": 4112,
  "▁distribution": 4113,
  "▁supply": 4114,
  "▁rinzai": 4115,
  "▁33": 4116,
  "▁soft": 4117,
  "▁namely": 4118,
  "▁alone": 4119,
  "▁brief": 4120,
  "▁america": 4121,
  "▁passage": 4122,
  "▁players": 4123,
  "▁tsunayoshi": 4124,
  "▁torii": 4125,
  "▁soto": 4126,
  "▁trend": 4127,
  "▁j": 4128,
  "▁facing": 4129,
  "▁nagayoshi": 4130,
  "cm": 4131,
  "▁taifu": 4132,
  "▁joruri": 4133,
  "▁ikki": 4134,
  "▁coat": 4135,
  "▁stored": 4136,
  "▁wine": 4137,
  "▁punished": 4138,
  "▁ochi": 4139,
  "▁eel": 4140,
  "▁understood": 4141,
  "▁protected": 4142,
  "▁experience": 4143,
  "▁imported": 4144,
  "▁security": 4145,
  "▁belong": 4146,
  "▁folding": 4147,
  "▁kenshin": 4148,
  "▁notes": 4149,
  "goe": 4150,
  "▁admir": 4151,
  "▁hogen": 4152,
  "▁reputation": 4153,
  "▁buke": 4154,
  "▁overseas": 4155,
  "▁race": 4156,
  "▁fo": 4157,
  "▁tandai": 4158,
  "▁partly": 4159,
  "▁exit": 4160,
  "▁combination": 4161,
  "▁expected": 4162,
  "▁tunnel": 4163,
  "▁counselor": 4164,
  "▁notice": 4165,
  "▁completion": 4166,
  "▁curry": 4167,
  "▁doing": 4168,
  "hood": 4169,
  "ough": 4170,
  "haka": 4171,
  "▁impossible": 4172,
  "guard": 4173,
  "wo": 4174,
  "▁consideration": 4175,
  "may": 4176,
  "=": 4177,
  "▁explain": 4178,
  "▁previously": 4179,
  "▁worshipped": 4180,
  "▁mibu": 4181,
  "▁strip": 4182,
  "▁speed": 4183,
  "▁kameoka": 4184,
  "▁kashiwa": 4185,
  "▁yoshisada": 4186,
  "▁accompany": 4187,
  "▁taiho": 4188,
  "tachi": 4189,
  "▁trial": 4190,
  "▁income": 4191,
  "▁visitors": 4192,
  "bin": 4193,
  "yamato": 4194,
  "▁kosa": 4195,
  "▁imadegawa": 4196,
  "▁horyu": 4197,
  "▁semi": 4198,
  "▁colored": 4199,
  "▁prefixed": 4200,
  "current": 4201,
  "▁rapidly": 4202,
  "▁pacific": 4203,
  "▁luck": 4204,
  "ard": 4205,
  "▁attitude": 4206,
  "▁conflicts": 4207,
  "▁arrested": 4208,
  "▁yoshihisa": 4209,
  "▁amago": 4210,
  "▁*": 4211,
  "▁begin": 4212,
  "▁prove": 4213,
  "▁tall": 4214,
  "▁yoshimoto": 4215,
  "▁departed": 4216,
  "hitsu": 4217,
  "lay": 4218,
  "▁honzon": 4219,
  "▁ascetic": 4220,
  "▁ushi": 4221,
  "▁apart": 4222,
  "december": 4223,
  "▁claimed": 4224,
  "▁plants": 4225,
  "▁suo": 4226,
  "▁dark": 4227,
  "article": 4228,
  "▁essential": 4229,
  "▁mie": 4230,
  "▁ancestors": 4231,
  "▁moment": 4232,
  "▁organ": 4233,
  "▁conquest": 4234,
  "hatsu": 4235,
  "▁kusunoki": 4236,
  "gashira": 4237,
  "▁utsunomiya": 4238,
  "▁hakama": 4239,
  "▁1863": 4240,
  "▁freight": 4241,
  "▁tend": 4242,
  "▁kings": 4243,
  "▁governmental": 4244,
  "▁sango": 4245,
  "▁kaya": 4246,
  "tribute": 4247,
  "▁kengyo": 4248,
  "▁altar": 4249,
  "▁nakayama": 4250,
  "▁renga": 4251,
  "▁je": 4252,
  "brother": 4253,
  "▁usage": 4254,
  "▁tajima": 4255,
  "fumi": 4256,
  "▁nippon": 4257,
  "▁preserved": 4258,
  "▁add": 4259,
  "▁situated": 4260,
  "arashi": 4261,
  "▁opponent": 4262,
  "tokyo": 4263,
  "▁formation": 4264,
  "ama": 4265,
  "▁success": 4266,
  "▁prayers": 4267,
  "▁whereas": 4268,
  "▁skills": 4269,
  "▁assist": 4270,
  "▁liberal": 4271,
  "chamberlain": 4272,
  "ever": 4273,
  "position": 4274,
  "gosho": 4275,
  "▁incidentally": 4276,
  "▁nihongi": 4277,
  "▁bungo": 4278,
  "▁personnel": 4279,
  "▁tsuchimikado": 4280,
  "▁whale": 4281,
  "▁ryoma": 4282,
  "▁loved": 4283,
  "▁truth": 4284,
  "▁subsequent": 4285,
  "▁dynasties": 4286,
  "mentioned": 4287,
  "press": 4288,
  "▁killing": 4289,
  "mari": 4290,
  "▁predecessor": 4291,
  "tsugi": 4292,
  "▁improvement": 4293,
  "▁tenshu": 4294,
  "▁okuma": 4295,
  "▁twelve": 4296,
  "▁opposite": 4297,
  "▁manuscripts": 4298,
  "keihan": 4299,
  "▁spent": 4300,
  "▁kosho": 4301,
  "government": 4302,
  "▁realm": 4303,
  "▁corps": 4304,
  "▁shell": 4305,
  "▁nikki": 4306,
  "▁unclear": 4307,
  "▁filled": 4308,
  "▁baby": 4309,
  "▁shaped": 4310,
  "▁contest": 4311,
  "currently": 4312,
  "▁spear": 4313,
  "yodo": 4314,
  "▁laid": 4315,
  "▁replac": 4316,
  "▁assassinated": 4317,
  "▁schedule": 4318,
  "▁effective": 4319,
  "▁european": 4320,
  "▁mononobe": 4321,
  "▁tanabe": 4322,
  "5,000": 4323,
  "late": 4324,
  "▁entertain": 4325,
  "▁cuisine": 4326,
  "▁secretly": 4327,
  "part": 4328,
  "▁contribution": 4329,
  "▁prison": 4330,
  "▁dojo": 4331,
  "▁perfect": 4332,
  "▁subjects": 4333,
  "▁test": 4334,
  "bound": 4335,
  "taira": 4336,
  "mikoto": 4337,
  "▁wisdom": 4338,
  "▁niigata": 4339,
  "▁christianity": 4340,
  "▁nationwide": 4341,
  "▁clean": 4342,
  "tsura": 4343,
  "▁suppress": 4344,
  "▁container": 4345,
  "▁osa": 4346,
  "▁ladies": 4347,
  "▁ever": 4348,
  "▁yokohama": 4349,
  "▁flourished": 4350,
  "can": 4351,
  "▁disaster": 4352,
  "▁straight": 4353,
  "▁discontinued": 4354,
  "▁engineering": 4355,
  "▁message": 4356,
  "▁tsukasa": 4357,
  "▁servant": 4358,
  "▁jomon": 4359,
  "▁want": 4360,
  "however": 4361,
  "▁chapters": 4362,
  "▁girl": 4363,
  "▁publication": 4364,
  "▁brush": 4365,
  "body": 4366,
  "stone": 4367,
  "▁forty": 4368,
  "▁assert": 4369,
  "aging": 4370,
  "▁hatsu": 4371,
  "▁cutting": 4372,
  "▁fundoshi": 4373,
  "▁composition": 4374,
  "gatsu": 4375,
  "▁edited": 4376,
  "▁appropriate": 4377,
  "▁momo": 4378,
  "▁animals": 4379,
  "▁aim": 4380,
  "▁performers": 4381,
  "▁occasions": 4382,
  "▁opportunity": 4383,
  "▁sanetomo": 4384,
  "▁natsu": 4385,
  "▁kataoka": 4386,
  "prince": 4387,
  "minute": 4388,
  "▁looked": 4389,
  "▁watanabe": 4390,
  "▁retirement": 4391,
  "▁fla": 4392,
  "▁struggle": 4393,
  "▁70": 4394,
  "▁ishida": 4395,
  "▁decorated": 4396,
  "▁kokin": 4397,
  "▁passenger": 4398,
  "▁broken": 4399,
  "small": 4400,
  "fold": 4401,
  "▁printed": 4402,
  "\"(": 4403,
  "▁armor": 4404,
  "wn": 4405,
  "▁layer": 4406,
  "story": 4407,
  "▁tsubone": 4408,
  "▁france": 4409,
  "▁shojo": 4410,
  "▁prop": 4411,
  "▁creation": 4412,
  "▁ring": 4413,
  "▁american": 4414,
  "▁matsumoto": 4415,
  "▁locomotive": 4416,
  "▁hashi": 4417,
  "▁formerly": 4418,
  "▁specified": 4419,
  "▁ware": 4420,
  "▁earthquake": 4421,
  "▁hakodate": 4422,
  "▁quickly": 4423,
  "iri": 4424,
  "・": 4425,
  "▁helped": 4426,
  "▁pressure": 4427,
  "▁1889": 4428,
  "▁represented": 4429,
  "lord": 4430,
  "▁featur": 4431,
  "▁warehouse": 4432,
  "▁1864": 4433,
  "kkyo": 4434,
  "▁koma": 4435,
  "ill": 4436,
  "▁nagao": 4437,
  "▁hole": 4438,
  "▁farm": 4439,
  "▁premise": 4440,
  "▁producing": 4441,
  "▁oaza": 4442,
  "▁dated": 4443,
  "▁nakano": 4444,
  "▁mongol": 4445,
  "▁looks": 4446,
  "▁blade": 4447,
  "western": 4448,
  "▁31": 4449,
  "▁miyako": 4450,
  "▁baekje": 4451,
  "▁founding": 4452,
  "▁seats": 4453,
  "▁invaded": 4454,
  "▁blossoms": 4455,
  "▁compos": 4456,
  "▁1873": 4457,
  "▁fumi": 4458,
  "▁engishiki": 4459,
  "▁shigemori": 4460,
  "zume": 4461,
  "▁genroku": 4462,
  "koro": 4463,
  "history": 4464,
  "▁steward": 4465,
  "▁yoro": 4466,
  "▁prosperity": 4467,
  "子": 4468,
  "▁titled": 4469,
  "▁distinguish": 4470,
  "common": 4471,
  "▁fair": 4472,
  "▁nyogo": 4473,
  "town": 4474,
  "dayu": 4475,
  "kaze": 4476,
  "▁significant": 4477,
  "▁revived": 4478,
  "▁saicho": 4479,
  "▁least": 4480,
  "▁closely": 4481,
  "▁yayoi": 4482,
  "▁youth": 4483,
  "inter": 4484,
  "国": 4485,
  "▁fruit": 4486,
  "▁intangible": 4487,
  "▁press": 4488,
  "▁dye": 4489,
  "▁skin": 4490,
  "mark": 4491,
  "▁komyo": 4492,
  "▁valued": 4493,
  "▁sales": 4494,
  "wan": 4495,
  "▁hope": 4496,
  "▁hung": 4497,
  "▁discussion": 4498,
  "▁hakata": 4499,
  "▁occur": 4500,
  "▁assassination": 4501,
  "▁survived": 4502,
  "▁1582": 4503,
  "▁foster": 4504,
  "kae": 4505,
  "toge": 4506,
  "▁1870": 4507,
  "▁masanori": 4508,
  "▁kokujin": 4509,
  "▁tenjin": 4510,
  "▁citizens": 4511,
  "board": 4512,
  "▁wake": 4513,
  "▁saemon": 4514,
  "▁map": 4515,
  "▁boshin": 4516,
  "▁contract": 4517,
  "▁jurisdiction": 4518,
  "▁koi": 4519,
  "▁depart": 4520,
  "▁tsubo": 4521,
  "rank": 4522,
  "chome": 4523,
  "▁nearby": 4524,
  "▁liquor": 4525,
  "▁nearly": 4526,
  "▁stream": 4527,
  "▁vehicle": 4528,
  "gara": 4529,
  "sake": 4530,
  "▁compete": 4531,
  "▁manufacturing": 4532,
  "▁brave": 4533,
  "▁dharma": 4534,
  "▁limit": 4535,
  "▁ibaraki": 4536,
  "▁reconstructed": 4537,
  "▁minor": 4538,
  "▁feel": 4539,
  "shimo": 4540,
  "march": 4541,
  "ohashi": 4542,
  "▁marry": 4543,
  "▁importance": 4544,
  "▁referr": 4545,
  "▁hoki": 4546,
  "mal": 4547,
  "▁centimeters": 4548,
  "▁akashi": 4549,
  "▁himemiko": 4550,
  "▁believers": 4551,
  "▁gagaku": 4552,
  "▁reconstruction": 4553,
  "▁governing": 4554,
  "▁yoriie": 4555,
  "▁hideyori": 4556,
  "formal": 4557,
  "▁yomei": 4558,
  "▁honda": 4559,
  "diary": 4560,
  "▁controller": 4561,
  "▁calling": 4562,
  "▁centered": 4563,
  "▁staying": 4564,
  "▁robe": 4565,
  "▁suitable": 4566,
  "▁kagura": 4567,
  "▁hidetsugu": 4568,
  "▁team": 4569,
  "▁emishi": 4570,
  "▁confusion": 4571,
  "▁ignor": 4572,
  "▁shimogyo": 4573,
  "ight": 4574,
  "▁possession": 4575,
  "▁hanging": 4576,
  "▁chance": 4577,
  "▁demon": 4578,
  "▁jinmu": 4579,
  "▁shoryo": 4580,
  "▁trying": 4581,
  "minor": 4582,
  "▁unified": 4583,
  "▁implement": 4584,
  "▁larger": 4585,
  "▁estimated": 4586,
  "▁collectively": 4587,
  "▁1990": 4588,
  "▁category": 4589,
  "▁kaneie": 4590,
  "▁onoe": 4591,
  "▁moving": 4592,
  "▁shoki": 4593,
  "▁kochi": 4594,
  "▁insist": 4595,
  "▁rejected": 4596,
  "▁yawata": 4597,
  "▁naniwa": 4598,
  "▁indicating": 4599,
  "▁nowadays": 4600,
  "▁raid": 4601,
  "▁reki": 4602,
  "▁daitoku": 4603,
  "▁scrolls": 4604,
  "▁promote": 4605,
  "▁whereby": 4606,
  "▁trace": 4607,
  "▁yellow": 4608,
  "february": 4609,
  "▁mounds": 4610,
  "▁buy": 4611,
  "▁selling": 4612,
  "▁incense": 4613,
  "▁tsuchi": 4614,
  "back": 4615,
  "▁touch": 4616,
  "▁customers": 4617,
  "▁wore": 4618,
  "established": 4619,
  "buki": 4620,
  "mble": 4621,
  "▁muraji": 4622,
  "▁mata": 4623,
  "▁minbu": 4624,
  "▁chicken": 4625,
  "▁asian": 4626,
  "▁bl": 4627,
  "▁waiting": 4628,
  "▁slope": 4629,
  "▁contain": 4630,
  "▁eliminat": 4631,
  "▁commissioner": 4632,
  "fushimi": 4633,
  "▁yaki": 4634,
  "▁represent": 4635,
  "▁burnt": 4636,
  "▁agreed": 4637,
  "mountain": 4638,
  "▁takamatsu": 4639,
  "lac": 4640,
  "▁revealed": 4641,
  "▁ryukyu": 4642,
  "▁dajokan": 4643,
  "▁erected": 4644,
  "▁zui": 4645,
  "bari": 4646,
  "▁repeatedly": 4647,
  "▁numerous": 4648,
  "▁bag": 4649,
  "▁cards": 4650,
  "▁sightseeing": 4651,
  "▁yoshitoki": 4652,
  "▁higo": 4653,
  "▁kido": 4654,
  "▁declared": 4655,
  "▁neither": 4656,
  "making": 4657,
  "roll": 4658,
  "▁sitting": 4659,
  "▁sole": 4660,
  "▁calligraphic": 4661,
  "▁communication": 4662,
  "▁emaki": 4663,
  "▁accompaniment": 4664,
  "▁yoshiteru": 4665,
  "▁constitutional": 4666,
  "▁1997": 4667,
  "▁feature": 4668,
  "▁ikoma": 4669,
  "▁suggested": 4670,
  "▁syn": 4671,
  "▁masamoto": 4672,
  "▁decreased": 4673,
  "▁detailed": 4674,
  "▁oppos": 4675,
  "▁expense": 4676,
  "▁tribute": 4677,
  "▁valuable": 4678,
  "▁pronunciation": 4679,
  "▁pat": 4680,
  "▁resided": 4681,
  "▁seasoning": 4682,
  "▁1600": 4683,
  "▁grow": 4684,
  "chiku": 4685,
  "▁loyal": 4686,
  "▁seat": 4687,
  "▁miyatsuko": 4688,
  "▁commentary": 4689,
  "山": 4690,
  "▁kanagawa": 4691,
  "waki": 4692,
  "▁twice": 4693,
  "▁chinju": 4694,
  "▁smaller": 4695,
  "▁tsuruga": 4696,
  "▁takakuni": 4697,
  "gawara": 4698,
  "▁profit": 4699,
  "▁yorinaga": 4700,
  "▁fudai": 4701,
  "▁brigade": 4702,
  "▁draw": 4703,
  "▁realized": 4704,
  "▁36": 4705,
  "▁week": 4706,
  "▁confrontation": 4707,
  "fujiwara": 4708,
  "▁kikuchi": 4709,
  "▁roughly": 4710,
  "off": 4711,
  "ministry": 4712,
  "▁flag": 4713,
  "▁holidays": 4714,
  "illustrated": 4715,
  "▁2002": 4716,
  "right": 4717,
  "▁pri": 4718,
  "word": 4719,
  "▁share": 4720,
  "▁represents": 4721,
  "bachi": 4722,
  "related": 4723,
  "▁sal": 4724,
  "▁argument": 4725,
  "▁exhibit": 4726,
  "saga": 4727,
  "▁mansion": 4728,
  "▁takatsukasa": 4729,
  "▁adjacent": 4730,
  "▁broth": 4731,
  "▁indicate": 4732,
  "▁exile": 4733,
  "▁moral": 4734,
  "▁keeping": 4735,
  "▁riot": 4736,
  "kun": 4737,
  "▁afterward": 4738,
  "water": 4739,
  "▁restore": 4740,
  "▁1931": 4741,
  "▁odawara": 4742,
  "▁toshiie": 4743,
  "▁sakurai": 4744,
  "large": 4745,
  "▁vicinity": 4746,
  "▁entrusted": 4747,
  "▁peers": 4748,
  "▁fuyu": 4749,
  "▁automatic": 4750,
  "▁80": 4751,
  "▁underground": 4752,
  "▁utensils": 4753,
  "▁peak": 4754,
  "▁exempt": 4755,
  "kokin": 4756,
  "▁flood": 4757,
  "▁sovereign": 4758,
  "神": 4759,
  "▁favored": 4760,
  "▁virtue": 4761,
  "over": 4762,
  "▁administrator": 4763,
  "▁wait": 4764,
  "south": 4765,
  "▁cloud": 4766,
  "gusa": 4767,
  "▁french": 4768,
  "▁ownership": 4769,
  "▁hachijo": 4770,
  "deputy": 4771,
  "▁ratio": 4772,
  "zake": 4773,
  "▁thing": 4774,
  "▁discussed": 4775,
  "▁imitat": 4776,
  "kake": 4777,
  "▁frame": 4778,
  "▁enacted": 4779,
  "▁joi": 4780,
  "▁naito": 4781,
  "▁sumiyoshi": 4782,
  "▁mourn": 4783,
  "▁lieutenant": 4784,
  "▁regardless": 4785,
  "▁grant": 4786,
  "heian": 4787,
  "▁finger": 4788,
  "▁utiliz": 4789,
  "kubo": 4790,
  "▁collapsed": 4791,
  "▁karate": 4792,
  "kku": 4793,
  "▁yoshitada": 4794,
  "▁characteriz": 4795,
  "place": 4796,
  "▁jugoinojo": 4797,
  "▁precinct": 4798,
  "▁vessel": 4799,
  "▁azuma": 4800,
  "▁procedures": 4801,
  "amitabha": 4802,
  "▁inscribed": 4803,
  "ketsu": 4804,
  "▁chairman": 4805,
  "▁chrysanthemum": 4806,
  "▁posthumously": 4807,
  "▁daytime": 4808,
  "▁shita": 4809,
  "▁oshima": 4810,
  "▁1970": 4811,
  "▁beyond": 4812,
  "▁wealthy": 4813,
  "▁sought": 4814,
  "ler": 4815,
  "▁graduated": 4816,
  "▁takahashi": 4817,
  "▁kobu": 4818,
  "▁presence": 4819,
  "▁kanezane": 4820,
  "▁abroad": 4821,
  "▁fiction": 4822,
  "▁mistake": 4823,
  "▁suzaku": 4824,
  "▁resistance": 4825,
  "nuki": 4826,
  "▁hida": 4827,
  "▁negotiations": 4828,
  "▁1928": 4829,
  "▁hashimoto": 4830,
  "▁bando": 4831,
  "▁sarugaku": 4832,
  "▁affected": 4833,
  "▁precepts": 4834,
  "▁worse": 4835,
  "▁approval": 4836,
  "▁specifically": 4837,
  "arch": 4838,
  "▁conventional": 4839,
  "▁actions": 4840,
  "▁kawara": 4841,
  "▁election": 4842,
  "▁payment": 4843,
  "nada": 4844,
  "▁excavation": 4845,
  "▁core": 4846,
  "▁observed": 4847,
  "▁uniform": 4848,
  "▁historian": 4849,
  "about": 4850,
  "▁dam": 4851,
  "sauce": 4852,
  "eastern": 4853,
  "▁expansion": 4854,
  "august": 4855,
  "▁growing": 4856,
  "▁throw": 4857,
  "▁technical": 4858,
  "▁confined": 4859,
  "▁terminal": 4860,
  "▁ice": 4861,
  "▁sino": 4862,
  "▁acid": 4863,
  "▁describe": 4864,
  "▁mask": 4865,
  "▁paris": 4866,
  "▁kenmu": 4867,
  "▁successful": 4868,
  "appointed": 4869,
  "▁regime": 4870,
  "▁provisions": 4871,
  "▁chuo": 4872,
  "▁taishi": 4873,
  "▁physical": 4874,
  "▁shoulder": 4875,
  "▁permanent": 4876,
  "▁abolish": 4877,
  "heike": 4878,
  "▁heiji": 4879,
  "sashi": 4880,
  "located": 4881,
  "▁manju": 4882,
  "▁weapons": 4883,
  "▁matsuo": 4884,
  "▁launched": 4885,
  "director": 4886,
  "july": 4887,
  "▁&": 4888,
  "▁printing": 4889,
  "▁koho": 4890,
  "▁koro": 4891,
  "▁manage": 4892,
  "▁jokyu": 4893,
  "▁wet": 4894,
  "▁doors": 4895,
  "▁russian": 4896,
  "▁firm": 4897,
  "hyaku": 4898,
  "▁critical": 4899,
  "▁complex": 4900,
  "wear": 4901,
  "▁handle": 4902,
  "▁presumed": 4903,
  "kuri": 4904,
  "▁adachi": 4905,
  "▁descendent": 4906,
  "▁publishing": 4907,
  "▁cr": 4908,
  "april": 4909,
  "▁selection": 4910,
  "tara": 4911,
  "▁seeing": 4912,
  "▁kobun": 4913,
  "▁goro": 4914,
  "bureau": 4915,
  "honcho": 4916,
  "▁sky": 4917,
  "▁1945": 4918,
  "▁inherit": 4919,
  "▁emerged": 4920,
  "▁accident": 4921,
  "▁guarded": 4922,
  "▁celebration": 4923,
  "▁strictly": 4924,
  "feudal": 4925,
  "▁1950": 4926,
  "▁universities": 4927,
  "▁destroy": 4928,
  "kyaku": 4929,
  "▁cook": 4930,
  "▁farming": 4931,
  "▁shimizu": 4932,
  "after": 4933,
  "▁nobutada": 4934,
  "▁dolls": 4935,
  "▁kibi": 4936,
  "▁chigyo": 4937,
  "▁1980": 4938,
  "▁convey": 4939,
  "▁bodies": 4940,
  "▁network": 4941,
  "izumi": 4942,
  "▁exercise": 4943,
  "▁expelled": 4944,
  "▁responsibility": 4945,
  "▁categorized": 4946,
  "▁fill": 4947,
  "bune": 4948,
  "▁bills": 4949,
  "tax": 4950,
  "▁diver": 4951,
  "▁senju": 4952,
  "▁climb": 4953,
  "▁shoten": 4954,
  "▁benefit": 4955,
  "▁spiritual": 4956,
  "▁improved": 4957,
  "▁initial": 4958,
  "▁mandokoro": 4959,
  "▁looking": 4960,
  "▁trusted": 4961,
  "▁awaji": 4962,
  "▁demoted": 4963,
  "hari": 4964,
  "most": 4965,
  "▁cultivation": 4966,
  "▁saitama": 4967,
  "▁dragon": 4968,
  "▁jisho": 4969,
  "records": 4970,
  "▁remnant": 4971,
  "captain": 4972,
  "▁sanada": 4973,
  "▁koban": 4974,
  "▁1898": 4975,
  "▁requir": 4976,
  "▁false": 4977,
  "▁dissolved": 4978,
  "▁rising": 4979,
  "▁cool": 4980,
  "▁strengthen": 4981,
  "▁consult": 4982,
  "▁1960": 4983,
  "▁hunt": 4984,
  "▁zuryo": 4985,
  "▁determin": 4986,
  "what": 4987,
  "▁protest": 4988,
  "▁banished": 4989,
  "▁holy": 4990,
  "▁successfully": 4991,
  "▁relat": 4992,
  "▁covering": 4993,
  "chiken": 4994,
  "▁extra": 4995,
  "gama": 4996,
  "▁lunch": 4997,
  "▁belongs": 4998,
  "kotoba": 4999,
  "▁blind": 5000,
  "▁losing": 5001,
  "▁kawaramachi": 5002,
  "▁zeami": 5003,
  "▁tensho": 5004,
  "▁fundamental": 5005,
  "、": 5006,
  "▁forward": 5007,
  "▁eleven": 5008,
  "▁regulation": 5009,
  "▁converted": 5010,
  "councillor": 5011,
  "▁win": 5012,
  "▁->": 5013,
  "▁fast": 5014,
  "▁twelfth": 5015,
  "stretch": 5016,
  "▁hashiba": 5017,
  "samurai": 5018,
  "september": 5019,
  "▁servants": 5020,
  "▁shite": 5021,
  "▁jiuta": 5022,
  "▁kame": 5023,
  "▁commenced": 5024,
  "▁familiar": 5025,
  "▁xi": 5026,
  "▁substitute": 5027,
  "▁preach": 5028,
  "▁separation": 5029,
  "zui": 5030,
  "▁carved": 5031,
  "▁favorite": 5032,
  "▁executive": 5033,
  "▁miyagi": 5034,
  "fine": 5035,
  "▁munemori": 5036,
  "▁yoshiharu": 5037,
  "▁tactic": 5038,
  "▁karo": 5039,
  "▁shoshiinoge": 5040,
  "▁enthroned": 5041,
  "王": 5042,
  "▁hunting": 5043,
  "▁participate": 5044,
  "▁suwa": 5045,
  "▁gathering": 5046,
  "▁masashige": 5047,
  "▁sports": 5048,
  "october": 5049,
  "▁prepare": 5050,
  "▁shinbun": 5051,
  "gyokuyo": 5052,
  "▁sumitomo": 5053,
  "nhk": 5054,
  "▁wrong": 5055,
  "▁juni": 5056,
  "▁fully": 5057,
  "hachiman": 5058,
  "▁contact": 5059,
  "▁providing": 5060,
  "▁counted": 5061,
  "▁classes": 5062,
  "▁suspended": 5063,
  "november": 5064,
  "regent": 5065,
  "▁kitabatake": 5066,
  "▁recommendation": 5067,
  "▁caus": 5068,
  "▁eleventh": 5069,
  "▁1884": 5070,
  "▁pun": 5071,
  "▁faced": 5072,
  "▁enforced": 5073,
  "▁wild": 5074,
  "▁sculpt": 5075,
  "▁invented": 5076,
  "▁lose": 5077,
  "▁dazaifu": 5078,
  "▁hondo": 5079,
  "phy": 5080,
  "▁shugodai": 5081,
  "▁sheet": 5082,
  "mitama": 5083,
  "▁raising": 5084,
  "▁hijikata": 5085,
  "▁viewpoint": 5086,
  "▁privilege": 5087,
  "▁lie": 5088,
  "voc": 5089,
  "▁sharp": 5090,
  "use": 5091,
  "▁housing": 5092,
  "▁conquer": 5093,
  "▁yomi": 5094,
  "▁parent": 5095,
  "▁expand": 5096,
  "▁matsui": 5097,
  "▁bicchu": 5098,
  "▁necessarily": 5099,
  "一": 5100,
  "▁delivered": 5101,
  "▁item": 5102,
  "▁southeast": 5103,
  "makura": 5104,
  "▁treasury": 5105,
  "continu": 5106,
  "▁1890": 5107,
  "▁loss": 5108,
  "▁architectural": 5109,
  "▁instructor": 5110,
  "▁recruit": 5111,
  "▁ayabe": 5112,
  "▁wrestler": 5113,
  "▁critic": 5114,
  "▁assume": 5115,
  "▁knew": 5116,
  "▁shoot": 5117,
  "▁icoca": 5118,
  "sub": 5119,
  "▁proper": 5120,
  "▁accomplish": 5121,
  "▁shore": 5122,
  "taiheiki": 5123,
  "▁fried": 5124,
  "inner": 5125,
  "▁bunko": 5126,
  "▁doll": 5127,
  "▁puppet": 5128,
  "▁1,000": 5129,
  "▁voice": 5130,
  "▁occupation": 5131,
  "▁shinsen": 5132,
  "▁commission": 5133,
  "▁enemies": 5134,
  "▁niwa": 5135,
  "▁divination": 5136,
  "▁resist": 5137,
  "▁1907": 5138,
  "▁vinegar": 5139,
  "▁sail": 5140,
  "▁entitled": 5141,
  "▁shochiku": 5142,
  "?'": 5143,
  "▁wei": 5144,
  "▁burning": 5145,
  "▁grass": 5146,
  "▁banquet": 5147,
  "▁equipment": 5148,
  "▁metropolitan": 5149,
  "▁buckwheat": 5150,
  "level": 5151,
  "▁retreated": 5152,
  "▁monzeki": 5153,
  "▁careful": 5154,
  "▁yorimichi": 5155,
  "▁breweries": 5156,
  "▁contemporary": 5157,
  "▁signal": 5158,
  "▁operate": 5159,
  "▁2001": 5160,
  "▁seishi": 5161,
  "▁deprived": 5162,
  "▁extent": 5163,
  "hannya": 5164,
  "suming": 5165,
  "▁gamo": 5166,
  "ginu": 5167,
  "▁usa": 5168,
  "▁spec": 5169,
  "▁hirano": 5170,
  "▁multiple": 5171,
  "▁purple": 5172,
  "▁1881": 5173,
  "▁atmosphere": 5174,
  "ikazuchi": 5175,
  "▁steamed": 5176,
  "▁strategy": 5177,
  "▁traveled": 5178,
  "▁promise": 5179,
  "person": 5180,
  "even": 5181,
  "▁ecchu": 5182,
  "▁dominant": 5183,
  "▁prominent": 5184,
  "▁tatami": 5185,
  "▁mill": 5186,
  "▁switch": 5187,
  "▁oban": 5188,
  "▁england": 5189,
  "▁withdrew": 5190,
  "▁yorimasa": 5191,
  "▁yoshimura": 5192,
  "▁acquired": 5193,
  "▁eizan": 5194,
  "▁suiko": 5195,
  "▁creating": 5196,
  "▁failure": 5197,
  "▁heritage": 5198,
  "quarter": 5199,
  "▁mari": 5200,
  "musubi": 5201,
  "▁1180": 5202,
  "▁candidate": 5203,
  "▁hoso": 5204,
  "▁hour": 5205,
  "▁hanazono": 5206,
  "▁couple": 5207,
  "▁fleet": 5208,
  "▁tied": 5209,
  "▁damaged": 5210,
  "▁separately": 5211,
  "▁32": 5212,
  "▁iri": 5213,
  "▁strict": 5214,
  "▁poison": 5215,
  "▁arm": 5216,
  "refined": 5217,
  "▁graveyard": 5218,
  "manor": 5219,
  "▁takechi": 5220,
  "▁potato": 5221,
  "▁shogoinoge": 5222,
  "duct": 5223,
  "▁kotoku": 5224,
  "▁kyoku": 5225,
  "▁researchers": 5226,
  "▁sixty": 5227,
  "fried": 5228,
  "▁nurse": 5229,
  "▁thread": 5230,
  "▁matsunaga": 5231,
  "▁katsuragi": 5232,
  ">": 5233,
  "iscal": 5234,
  "▁kajuji": 5235,
  "▁jiki": 5236,
  "▁donation": 5237,
  "▁sixteen": 5238,
  "▁majority": 5239,
  "▁seimei": 5240,
  "▁educat": 5241,
  "▁mobiliz": 5242,
  "▁hisahide": 5243,
  "tsuho": 5244,
  "▁sleeves": 5245,
  "▁ninna": 5246,
  "▁iki": 5247,
  "▁terr": 5248,
  "usu": 5249,
  "▁futa": 5250,
  "▁arrive": 5251,
  "empress": 5252,
  "▁monme": 5253,
  "flower": 5254,
  "▁1876": 5255,
  "bata": 5256,
  "▁kudara": 5257,
  "▁detail": 5258,
  "▁unusual": 5259,
  "▁yin": 5260,
  "▁earthenware": 5261,
  "▁execution": 5262,
  "▁basho": 5263,
  "▁catch": 5264,
  "▁confiscated": 5265,
  "▁statement": 5266,
  "▁multi": 5267,
  "express": 5268,
  "▁thinking": 5269,
  "人": 5270,
  "▁sculpture": 5271,
  "▁paternal": 5272,
  "▁monarch": 5273,
  "▁pseudonym": 5274,
  "▁stating": 5275,
  "▁recognition": 5276,
  "▁solid": 5277,
  "▁equipped": 5278,
  "▁shochu": 5279,
  "▁trust": 5280,
  "▁sutoku": 5281,
  "▁germany": 5282,
  "point": 5283,
  "▁collapse": 5284,
  "▁respond": 5285,
  "associate": 5286,
  "▁shifted": 5287,
  "night": 5288,
  "track": 5289,
  "▁naomasa": 5290,
  "▁fushiminomiya": 5291,
  "▁suppressed": 5292,
  "▁phil": 5293,
  "▁grown": 5294,
  "▁kanei": 5295,
  "▁yi": 5296,
  "nokuni": 5297,
  "▁birthplace": 5298,
  "▁lantern": 5299,
  "▁keishin": 5300,
  "▁chikuzen": 5301,
  "▁kagekatsu": 5302,
  "▁stamp": 5303,
  "▁signed": 5304,
  "▁celebrate": 5305,
  "▁detached": 5306,
  "▁tenmon": 5307,
  "▁russo": 5308,
  "▁smooth": 5309,
  "▁formally": 5310,
  "▁rarely": 5311,
  "▁retreat": 5312,
  "▁homyo": 5313,
  "▁katsumoto": 5314,
  "▁cotton": 5315,
  "▁nakagawa": 5316,
  "heishi": 5317,
  "tango": 5318,
  "▁viscount": 5319,
  "▁shinden": 5320,
  "天": 5321,
  "日": 5322,
  "▁shitenno": 5323,
  "▁copied": 5324,
  "▁soybean": 5325,
  "▁wrapped": 5326,
  "▁battlefield": 5327,
  "▁cave": 5328,
  "▁fashion": 5329,
  "▁omikami": 5330,
  "▁ceramic": 5331,
  "▁gunji": 5332,
  "▁shibata": 5333,
  "▁yokai": 5334,
  "▁coffee": 5335,
  "▁murata": 5336,
  "▁kusa": 5337,
  "▁respected": 5338,
  "▁speech": 5339,
  "▁understanding": 5340,
  "▁hina": 5341,
  "▁1877": 5342,
  "▁drive": 5343,
  "▁task": 5344,
  "▁wives": 5345,
  "▁mint": 5346,
  "▁beef": 5347,
  "▁activity": 5348,
  "▁daikan": 5349,
  "▁interpreted": 5350,
  "gasa": 5351,
  "▁tendency": 5352,
  "▁save": 5353,
  "▁normally": 5354,
  "▁brand": 5355,
  "▁hikaru": 5356,
  "▁depot": 5357,
  "▁itagaki": 5358,
  "▁plac": 5359,
  "▁immediate": 5360,
  "bime": 5361,
  "▁ride": 5362,
  "▁nohgaku": 5363,
  "▁tip": 5364,
  "▁kusu": 5365,
  "▁reinforcement": 5366,
  "▁governance": 5367,
  "▁growth": 5368,
  "▁extension": 5369,
  "▁1987": 5370,
  "▁abdicated": 5371,
  "▁govern": 5372,
  "▁soil": 5373,
  "chronicle": 5374,
  "▁generated": 5375,
  "▁horizontal": 5376,
  "▁encouraged": 5377,
  "▁regain": 5378,
  "yashiki": 5379,
  "▁blow": 5380,
  "tang": 5381,
  "▁inspection": 5382,
  "▁kiso": 5383,
  "▁tokuso": 5384,
  "▁yorimori": 5385,
  "▁1918": 5386,
  "▁seized": 5387,
  "▁admitted": 5388,
  "▁triggered": 5389,
  "▁withdraw": 5390,
  "puku": 5391,
  "biki": 5392,
  "▁honorific": 5393,
  "▁circular": 5394,
  "▁chain": 5395,
  "▁wheat": 5396,
  "▁outstanding": 5397,
  "▁takatsuki": 5398,
  "▁kanjin": 5399,
  "▁constitut": 5400,
  "▁drew": 5401,
  "sign": 5402,
  "▁shuri": 5403,
  "introduc": 5404,
  "although": 5405,
  "▁naturally": 5406,
  "▁experienced": 5407,
  "▁narrative": 5408,
  "▁honnoji": 5409,
  "▁proclamation": 5410,
  "▁takashima": 5411,
  "▁arrival": 5412,
  "▁keifuku": 5413,
  "▁mutual": 5414,
  "▁safety": 5415,
  "▁apply": 5416,
  "▁syllables": 5417,
  "▁koken": 5418,
  "▁kiyohara": 5419,
  "▁roshi": 5420,
  "▁wave": 5421,
  "▁nagai": 5422,
  "▁serizawa": 5423,
  "▁keyhole": 5424,
  "▁hometown": 5425,
  "▁dainichi": 5426,
  "▁friendship": 5427,
  "▁traditionally": 5428,
  "gged": 5429,
  "lower": 5430,
  "▁straw": 5431,
  "▁masterpiece": 5432,
  "▁merger": 5433,
  "▁sending": 5434,
  "▁compile": 5435,
  "▁yoshitsugu": 5436,
  "▁noriyori": 5437,
  "you": 5438,
  "▁continent": 5439,
  "▁advice": 5440,
  "▁gakko": 5441,
  "▁1910": 5442,
  "▁photograph": 5443,
  "▁expel": 5444,
  "▁occasionally": 5445,
  "gakko": 5446,
  "▁classic": 5447,
  "▁suburb": 5448,
  "▁conspiracy": 5449,
  "▁curve": 5450,
  "▁tram": 5451,
  "▁=>": 5452,
  "▁yasutoki": 5453,
  "▁really": 5454,
  "▁rennyo": 5455,
  "▁linked": 5456,
  "▁bloom": 5457,
  "▁arrest": 5458,
  "▁decide": 5459,
  "▁muko": 5460,
  "ended": 5461,
  "▁apprentice": 5462,
  "▁sagano": 5463,
  "▁1862": 5464,
  "▁nobutaka": 5465,
  "▁soldier": 5466,
  "▁teahouse": 5467,
  "▁reserve": 5468,
  "▁arose": 5469,
  "▁minato": 5470,
  "▁kiyomizu": 5471,
  "▁aristocrats": 5472,
  "owned": 5473,
  "▁holder": 5474,
  "gari": 5475,
  "▁omura": 5476,
  "▁pork": 5477,
  "▁kagetoki": 5478,
  "▁calligrapher": 5479,
  "▁rival": 5480,
  "fall": 5481,
  "▁garment": 5482,
  "▁umako": 5483,
  "▁bingo": 5484,
  "▁birthday": 5485,
  "grade": 5486,
  "▁negotiation": 5487,
  "▁komei": 5488,
  "▁hirata": 5489,
  "▁average": 5490,
  "▁nakatsukasa": 5491,
  "▁uzumasa": 5492,
  "rating": 5493,
  "▁describing": 5494,
  "▁chugoku": 5495,
  "▁affair": 5496,
  "tokugawa": 5497,
  "▁takamori": 5498,
  "▁procession": 5499,
  "▁plea": 5500,
  "▁planning": 5501,
  "▁timetable": 5502,
  "hiki": 5503,
  "▁essay": 5504,
  "▁violat": 5505,
  "▁1949": 5506,
  "▁workers": 5507,
  "▁convenience": 5508,
  "ographic": 5509,
  "inoge": 5510,
  "▁miki": 5511,
  "▁arima": 5512,
  "▁kamon": 5513,
  "▁ideal": 5514,
  "▁1911": 5515,
  "structed": 5516,
  "▁hairstyle": 5517,
  "▁adjust": 5518,
  "▁vertical": 5519,
  "▁diameter": 5520,
  "suppression": 5521,
  "▁fusuma": 5522,
  "▁performer": 5523,
  "▁injured": 5524,
  "▁danjuro": 5525,
  "▁okazaki": 5526,
  "▁missionary": 5527,
  "hajime": 5528,
  "▁calm": 5529,
  "approximately": 5530,
  "▁leadership": 5531,
  "▁gunma": 5532,
  "▁1185": 5533,
  "▁medium": 5534,
  "ddle": 5535,
  "▁scar": 5536,
  "▁barrier": 5537,
  "▁prefer": 5538,
  "▁1926": 5539,
  "▁jimyoin": 5540,
  "▁capture": 5541,
  "▁achieve": 5542,
  "▁independence": 5543,
  "▁saigoku": 5544,
  "▁contrary": 5545,
  "▁virtually": 5546,
  "▁ogre": 5547,
  "▁kume": 5548,
  "▁hizen": 5549,
  "june": 5550,
  "play": 5551,
  "gaoka": 5552,
  "▁baron": 5553,
  "▁safe": 5554,
  "▁debate": 5555,
  "cular": 5556,
  "post": 5557,
  "▁weather": 5558,
  "▁miscellaneous": 5559,
  "▁designation": 5560,
  "▁dictionary": 5561,
  "▁approx": 5562,
  "▁princesses": 5563,
  "▁1929": 5564,
  "▁imai": 5565,
  "▁journey": 5566,
  "▁speaking": 5567,
  "▁annex": 5568,
  "▁assembly": 5569,
  "▁panel": 5570,
  "▁finish": 5571,
  "▁persuade": 5572,
  "▁jisha": 5573,
  "▁stable": 5574,
  "▁cultivated": 5575,
  "▁1000": 5576,
  "▁belt": 5577,
  "▁ienari": 5578,
  "▁copies": 5579,
  "▁120": 5580,
  "▁burn": 5581,
  "▁denied": 5582,
  "▁kanazawa": 5583,
  "▁portray": 5584,
  "▁complicated": 5585,
  "▁scattered": 5586,
  "▁freedom": 5587,
  "▁suffering": 5588,
  "▁motonari": 5589,
  "▁takakage": 5590,
  "▁debt": 5591,
  "commander": 5592,
  "▁remark": 5593,
  "byo": 5594,
  "▁exclusively": 5595,
  "▁sanskrit": 5596,
  "▁excell": 5597,
  "▁walking": 5598,
  "▁1875": 5599,
  "▁1882": 5600,
  "office": 5601,
  "▁sanjonishi": 5602,
  "▁saiin": 5603,
  "▁konin": 5604,
  "▁1874": 5605,
  "▁mud": 5606,
  "▁parallel": 5607,
  "之": 5608,
  "▁angry": 5609,
  "▁greatest": 5610,
  "knowledge": 5611,
  "=>": 5612,
  "▁registration": 5613,
  "osa": 5614,
  "▁kuwa": 5615,
  "▁agent": 5616,
  "tsukuri": 5617,
  "▁pottery": 5618,
  "…": 5619,
  "▁revolution": 5620,
  "▁400": 5621,
  "▁milk": 5622,
  "▁alternative": 5623,
  "▁riding": 5624,
  "▁onmyodo": 5625,
  "▁rope": 5626,
  "▁affect": 5627,
  "▁fudoki": 5628,
  "▁mochihito": 5629,
  "daimyo": 5630,
  "▁wound": 5631,
  "▁1895": 5632,
  "▁shimousa": 5633,
  "▁tokimasa": 5634,
  "▁sliding": 5635,
  "▁elevated": 5636,
  "▁grill": 5637,
  "▁saigu": 5638,
  "▁abbot": 5639,
  "▁select": 5640,
  "▁banned": 5641,
  "▁alternate": 5642,
  "▁supporters": 5643,
  "people": 5644,
  "▁1885": 5645,
  "▁revenge": 5646,
  "colored": 5647,
  "▁application": 5648,
  "clock": 5649,
  "▁sufficient": 5650,
  "▁oblig": 5651,
  "▁reduc": 5652,
  "▁british": 5653,
  "▁okuninushi": 5654,
  "nyorai": 5655,
  "▁repeated": 5656,
  "korea": 5657,
  "▁remove": 5658,
  "▁1996": 5659,
  "▁honno": 5660,
  "affiliated": 5661,
  "▁yoriyuki": 5662,
  "▁federation": 5663,
  "▁koryo": 5664,
  "▁kutsuki": 5665,
  "▁revenue": 5666,
  "ranging": 5667,
  "▁curse": 5668,
  "▁specialty": 5669,
  "▁nobushige": 5670,
  "▁engraved": 5671,
  "▁managing": 5672,
  "▁informed": 5673,
  "▁layout": 5674,
  "▁danjo": 5675,
  "▁demanded": 5676,
  "▁coffin": 5677,
  "▁broadcasting": 5678,
  "▁kitakinki": 5679,
  "▁norinaga": 5680,
  "iratsume": 5681,
  "▁tumuli": 5682,
  "▁hirobumi": 5683,
  "▁kagawa": 5684,
  "三": 5685,
  "▁karu": 5686,
  "▁fourteenth": 5687,
  "▁myoho": 5688,
  "▁appearing": 5689,
  "▁exchanged": 5690,
  "▁distinction": 5691,
  "▁1999": 5692,
  "▁varieties": 5693,
  "▁exploit": 5694,
  "▁capacity": 5695,
  "▁insert": 5696,
  "▁1946": 5697,
  "▁resignation": 5698,
  "▁miwa": 5699,
  "▁satake": 5700,
  "▁seika": 5701,
  "▁saved": 5702,
  "▁maiden": 5703,
  "▁imina": 5704,
  "▁1947": 5705,
  "▁nagahama": 5706,
  "▁tokitada": 5707,
  "▁1989": 5708,
  "▁union": 5709,
  "▁tadamasa": 5710,
  "mawari": 5711,
  "▁beach": 5712,
  "private": 5713,
  "▁modeled": 5714,
  "▁seriously": 5715,
  "▁thirteen": 5716,
  "▁aiming": 5717,
  "▁greater": 5718,
  "▁kun": 5719,
  "▁yagi": 5720,
  "▁kitchen": 5721,
  "▁hagi": 5722,
  "▁abolition": 5723,
  "▁reproduc": 5724,
  "▁kyudo": 5725,
  "▁manufactured": 5726,
  "▁soseki": 5727,
  "ruiju": 5728,
  "▁primary": 5729,
  "▁variation": 5730,
  "▁enforcement": 5731,
  "▁controll": 5732,
  "▁sort": 5733,
  "▁extinct": 5734,
  "▁yosa": 5735,
  "▁tayu": 5736,
  "▁ridge": 5737,
  "▁enhance": 5738,
  "▁everything": 5739,
  "▁daruma": 5740,
  "▁shimane": 5741,
  "▁wing": 5742,
  "syllable": 5743,
  "▁install": 5744,
  "ceremony": 5745,
  "▁tadazane": 5746,
  "▁alter": 5747,
  "▁maintenance": 5748,
  "record": 5749,
  "▁ukai": 5750,
  "▁hikone": 5751,
  "▁intersection": 5752,
  "▁kodan": 5753,
  "lv": 5754,
  "▁nirvana": 5755,
  "▁180": 5756,
  "▁ocean": 5757,
  "▁672": 5758,
  "▁thorough": 5759,
  "▁katsuyori": 5760,
  "view": 5761,
  "special": 5762,
  "▁gozen": 5763,
  "▁ueda": 5764,
  "▁moronao": 5765,
  "▁konoefu": 5766,
  "▁ox": 5767,
  "▁meditation": 5768,
  "▁shichijo": 5769,
  "read": 5770,
  "▁crisis": 5771,
  "▁parade": 5772,
  "▁weapon": 5773,
  "▁tenpo": 5774,
  "▁nengu": 5775,
  "▁yoshiakira": 5776,
  "tanba": 5777,
  "▁keihanshin": 5778,
  "bankoku": 5779,
  "▁restrict": 5780,
  "▁manchuria": 5781,
  "▁outline": 5782,
  "▁remov": 5783,
  "▁1993": 5784,
  "▁tournament": 5785,
  "▁slow": 5786,
  "▁expulsion": 5787,
  "▁yasaka": 5788,
  "▁transition": 5789,
  "▁biggest": 5790,
  "▁scenery": 5791,
  "▁miyazaki": 5792,
  "▁impression": 5793,
  "▁conquered": 5794,
  "▁budget": 5795,
  "▁kazoku": 5796,
  "▁cavalry": 5797,
  "▁spite": 5798,
  "kkei": 5799,
  "▁hearing": 5800,
  "▁flu": 5801,
  "▁resemble": 5802,
  "▁band": 5803,
  "▁supposedly": 5804,
  "▁dealing": 5805,
  "▁surviving": 5806,
  "▁instance": 5807,
  "▁ninja": 5808,
  "kamakura": 5809,
  "when": 5810,
  "▁inspector": 5811,
  "▁3,000": 5812,
  "▁authorities": 5813,
  "▁sure": 5814,
  "▁everyday": 5815,
  "▁stipulated": 5816,
  "▁politician": 5817,
  "▁assassin": 5818,
  "▁teika": 5819,
  "▁reigen": 5820,
  "▁1998": 5821,
  "▁nakahara": 5822,
  "▁compound": 5823,
  "▁armies": 5824,
  "▁izanagi": 5825,
  "genpei": 5826,
  "▁crow": 5827,
  "▁para": 5828,
  "▁definition": 5829,
  "▁seventeen": 5830,
  "▁1900": 5831,
  "▁brown": 5832,
  "zakura": 5833,
  "▁ramen": 5834,
  "▁wafuku": 5835,
  "▁katsuie": 5836,
  "▁borrow": 5837,
  "▁data": 5838,
  "▁heavenly": 5839,
  "▁textile": 5840,
  "▁tsuda": 5841,
  "▁specialized": 5842,
  "▁retain": 5843,
  "0%": 5844,
  "▁enyu": 5845,
  "▁administered": 5846,
  "xx": 5847,
  "▁1897": 5848,
  "▁charcoal": 5849,
  "▁cloister": 5850,
  "▁iemoto": 5851,
  "▁german": 5852,
  "▁nagaya": 5853,
  "▁minted": 5854,
  "▁wu": 5855,
  "▁judging": 5856,
  "▁dwelling": 5857,
  "prostitute": 5858,
  "▁bestowed": 5859,
  "▁1891": 5860,
  "▁kiyomasa": 5861,
  "front": 5862,
  "▁tokudaiji": 5863,
  "▁fence": 5864,
  "▁teishi": 5865,
  "▁umewaka": 5866,
  "kabuki": 5867,
  "▁worth": 5868,
  "▁kokufu": 5869,
  "▁difficulty": 5870,
  "yang": 5871,
  "▁cord": 5872,
  "▁1887": 5873,
  "▁takayoshi": 5874,
  "▁jingi": 5875,
  "▁wakoku": 5876,
  "▁yagura": 5877,
  "▁export": 5878,
  "▁preached": 5879,
  "▁burden": 5880,
  "▁downfall": 5881,
  "▁benkei": 5882,
  "▁kyokai": 5883,
  "▁complain": 5884,
  "▁yose": 5885,
  "▁dough": 5886,
  "▁ingredient": 5887,
  "▁decorative": 5888,
  "gahara": 5889,
  "▁teach": 5890,
  "▁mainstream": 5891,
  "▁radical": 5892,
  "▁1920": 5893,
  "▁natto": 5894,
  "▁improve": 5895,
  "▁concrete": 5896,
  "▁clay": 5897,
  "▁yamauchi": 5898,
  "▁fermentation": 5899,
  "▁deploy": 5900,
  "▁1886": 5901,
  "▁strengthened": 5902,
  "▁araki": 5903,
  "▁harumoto": 5904,
  "▁junna": 5905,
  "▁pull": 5906,
  "spring": 5907,
  "▁spend": 5908,
  "▁appreciated": 5909,
  "▁totally": 5910,
  "▁hyuga": 5911,
  "▁syllabary": 5912,
  "▁ukiyoe": 5913,
  "▁shakuhachi": 5914,
  "▁masayuki": 5915,
  "▁courtier": 5916,
  "▁departure": 5917,
  "▁genpuku": 5918,
  "▁yoshichika": 5919,
  "▁warlord": 5920,
  "▁kunai": 5921,
  "shogunate": 5922,
  "open": 5923,
  "▁expect": 5924,
  "▁uncertain": 5925,
  "▁1943": 5926,
  "▁susanoo": 5927,
  "▁categories": 5928,
  "school": 5929,
  "gasaki": 5930,
  "▁himeji": 5931,
  "down": 5932,
  "▁mimasaka": 5933,
  "▁sonobe": 5934,
  "▁seasonal": 5935,
  "quality": 5936,
  "▁ukon": 5937,
  "▁tadaoki": 5938,
  "▁mahayana": 5939,
  "▁absolute": 5940,
  "▁riku": 5941,
  "▁kyotanabe": 5942,
  "▁crack": 5943,
  "▁species": 5944,
  "▁yoshimi": 5945,
  "▁iemochi": 5946,
  "▁starch": 5947,
  "▁bottle": 5948,
  "birth": 5949,
  "道": 5950,
  "evil": 5951,
  "▁textbook": 5952,
  "▁sleeve": 5953,
  "▁increasingly": 5954,
  "▁judgment": 5955,
  "▁occupy": 5956,
  "▁blossom": 5957,
  "▁telling": 5958,
  "▁conclusion": 5959,
  "▁handling": 5960,
  "▁craftsmen": 5961,
  "▁expensive": 5962,
  "secretary": 5963,
  "storied": 5964,
  "▁1888": 5965,
  "▁1995": 5966,
  "▁okami": 5967,
  "▁resort": 5968,
  "▁transformed": 5969,
  "▁bunroku": 5970,
  "▁debut": 5971,
  "▁salary": 5972,
  "▁pepper": 5973,
  "▁nakagyo": 5974,
  "▁listen": 5975,
  "院": 5976,
  "▁editor": 5977,
  "▁1912": 5978,
  "▁leather": 5979,
  "▁missing": 5980,
  "father": 5981,
  "▁loop": 5982,
  "▁elegant": 5983,
  "▁signature": 5984,
  "▁mercy": 5985,
  "▁deemed": 5986,
  "▁dressed": 5987,
  "▁review": 5988,
  "▁kitayama": 5989,
  "▁honorary": 5990,
  "▁gather": 5991,
  "▁shakyamuni": 5992,
  "▁handled": 5993,
  "▁rent": 5994,
  "▁1183": 5995,
  "▁valley": 5996,
  "500": 5997,
  "▁roman": 5998,
  "▁announcement": 5999,
  "▁kanpei": 6000,
  "tanabe": 6001,
  "▁ruined": 6002,
  "▁indian": 6003,
  "▁try": 6004,
  "▁independently": 6005,
  "▁revival": 6006,
  "▁aristocracy": 6007,
  "▁ronin": 6008,
  "sacred": 6009,
  "▁anger": 6010,
  "▁1930": 6011,
  "▁komatsu": 6012,
  "▁marked": 6013,
  "▁promulgated": 6014,
  "▁1988": 6015,
  "▁consolidat": 6016,
  "▁1184": 6017,
  "▁chancellor": 6018,
  "▁1896": 6019,
  "▁eiga": 6020,
  "▁lifetime": 6021,
  "▁animal": 6022,
  "▁sanesuke": 6023,
  "▁promoting": 6024,
  "▁malt": 6025,
  "▁mishima": 6026,
  "▁fifteenth": 6027,
  "▁1904": 6028,
  "▁shimbun": 6029,
  "break": 6030,
  "public": 6031,
  "▁yoshinari": 6032,
  "▁farmer": 6033,
  "▁nama": 6034,
  "▁interval": 6035,
  "comparable": 6036,
  "▁1865": 6037,
  "▁nobukatsu": 6038,
  "▁yoshinaga": 6039,
  "▁chogin": 6040,
  "▁difficulties": 6041,
  "▁participants": 6042,
  "▁1905": 6043,
  "▁mixture": 6044,
  "▁originates": 6045,
  "▁okamoto": 6046,
  "around": 6047,
  "▁1925": 6048,
  "▁makeup": 6049,
  "▁suga": 6050,
  "▁storage": 6051,
  "▁varies": 6052,
  "▁bore": 6053,
  "▁tangible": 6054,
  "▁queen": 6055,
  "▁sechie": 6056,
  "▁holiday": 6057,
  "▁experiment": 6058,
  "▁boom": 6059,
  "▁150": 6060,
  "▁happen": 6061,
  "▁originator": 6062,
  "priest": 6063,
  "▁1923": 6064,
  "▁qi": 6065,
  "▁restriction": 6066,
  "▁reins": 6067,
  "▁myojin": 6068,
  "rural": 6069,
  "▁purchased": 6070,
  "personal": 6071,
  "picture": 6072,
  "▁personality": 6073,
  "▁prefix": 6074,
  "▁1880": 6075,
  "▁tamura": 6076,
  "▁jewel": 6077,
  "▁kobayakawa": 6078,
  "▁column": 6079,
  "▁tadamichi": 6080,
  "▁struck": 6081,
  "▁shared": 6082,
  "▁shoshidai": 6083,
  "magistrate": 6084,
  "▁sleep": 6085,
  "▁1879": 6086,
  "▁1994": 6087,
  "▁haikai": 6088,
  "▁2009": 6089,
  "▁pulled": 6090,
  "▁load": 6091,
  "▁masayoshi": 6092,
  "▁seaweed": 6093,
  "▁tears": 6094,
  "▁closer": 6095,
  "▁demise": 6096,
  "▁gongen": 6097,
  "▁20,000": 6098,
  "▁dedicat": 6099,
  "▁haniwa": 6100,
  "▁ruin": 6101,
  "▁tablet": 6102,
  "▁masanobu": 6103,
  "▁sale": 6104,
  "▁shonagon": 6105,
  "▁seinan": 6106,
  "▁preface": 6107,
  "▁zone": 6108,
  "▁unification": 6109,
  "▁taika": 6110,
  "▁industries": 6111,
  "▁keeper": 6112,
  "▁benkan": 6113,
  "▁commuter": 6114,
  "▁kuranosuke": 6115,
  "▁invocation": 6116,
  "minami": 6117,
  "▁magic": 6118,
  "▁peaceful": 6119,
  "▁ceased": 6120,
  "▁600": 6121,
  "▁sencha": 6122,
  "▁toyooka": 6123,
  "▁37": 6124,
  "▁gozoku": 6125,
  "▁investiture": 6126,
  "▁onmyoji": 6127,
  "▁neighborhood": 6128,
  "▁iwami": 6129,
  "▁window": 6130,
  "▁provision": 6131,
  "▁credit": 6132,
  "bukuro": 6133,
  "▁nakamikado": 6134,
  "▁demachiyanagi": 6135,
  "▁fukuzawa": 6136,
  "▁horseback": 6137,
  "▁warship": 6138,
  "▁taga": 6139,
  "▁haihan": 6140,
  "▁toshizo": 6141,
  "▁strange": 6142,
  "standing": 6143,
  "▁mental": 6144,
  "▁mr": 6145,
  "▁1991": 6146,
  "▁sight": 6147,
  "▁1965": 6148,
  "▁bunka": 6149,
  "▁1940": 6150,
  "▁headship": 6151,
  "▁kilometers": 6152,
  "▁shimabara": 6153,
  "▁emphasized": 6154,
  "法": 6155,
  "▁yoshishige": 6156,
  "▁usual": 6157,
  "▁tsurugi": 6158,
  "▁sit": 6159,
  "▁guarantee": 6160,
  "▁1955": 6161,
  "▁sudden": 6162,
  "▁hiyoshi": 6163,
  "▁shigehira": 6164,
  "▁shaved": 6165,
  "▁kojima": 6166,
  "▁1878": 6167,
  "▁1919": 6168,
  "▁matsuyama": 6169,
  "▁tameyoshi": 6170,
  "▁nikkatsu": 6171,
  "zasu": 6172,
  "▁gokuraku": 6173,
  "▁afraid": 6174,
  "fifth": 6175,
  "▁quiet": 6176,
  "▁procedure": 6177,
  "▁1899": 6178,
  "▁reportedly": 6179,
  "▁korechika": 6180,
  "▁etiquette": 6181,
  "▁ceiling": 6182,
  "▁mototsune": 6183,
  "▁yukinaga": 6184,
  "muryoju": 6185,
  "本": 6186,
  "▁chair": 6187,
  "▁relief": 6188,
  "▁lion": 6189,
  "scribe": 6190,
  "gging": 6191,
  "▁nevertheless": 6192,
  "ground": 6193,
  "▁konparu": 6194,
  "▁nobuyoshi": 6195,
  "▁loincloth": 6196,
  "▁storehouse": 6197,
  "▁1951": 6198,
  "▁nanzen": 6199,
  "▁submit": 6200,
  "immer": 6201,
  "▁kikkawa": 6202,
  "▁archives": 6203,
  "▁cycle": 6204,
  "▁tight": 6205,
  "▁encourage": 6206,
  "▁mural": 6207,
  "▁journal": 6208,
  "▁kosode": 6209,
  "▁climate": 6210,
  "▁kashihara": 6211,
  "▁fuhito": 6212,
  "gakari": 6213,
  "▁deeds": 6214,
  "▁simplified": 6215,
  "▁tochigi": 6216,
  "▁continuously": 6217,
  "▁argued": 6218,
  "▁enormous": 6219,
  "▁absorbed": 6220,
  "▁respective": 6221,
  "▁decrease": 6222,
  "▁external": 6223,
  "▁gomizunoo": 6224,
  "▁taisei": 6225,
  "hall": 6226,
  "▁specter": 6227,
  "▁evaluated": 6228,
  "▁townspeople": 6229,
  "▁iwate": 6230,
  "▁ogimachi": 6231,
  "▁widespread": 6232,
  "▁delivery": 6233,
  "▁myoshin": 6234,
  "▁histories": 6235,
  "▁steep": 6236,
  "▁1944": 6237,
  "▁yukichi": 6238,
  "▁shigenobu": 6239,
  "▁driver": 6240,
  "bodhi": 6241,
  "▁suspected": 6242,
  "▁fukakusa": 6243,
  "御": 6244,
  "▁stem": 6245,
  "▁dialect": 6246,
  "▁takarazuka": 6247,
  "shogunal": 6248,
  "▁anything": 6249,
  "▁sanctuary": 6250,
  "▁impact": 6251,
  "officer": 6252,
  "▁ancestr": 6253,
  "▁subjugate": 6254,
  "▁1894": 6255,
  "▁1901": 6256,
  "▁ornament": 6257,
  "▁toshimichi": 6258,
  "▁thirteenth": 6259,
  "▁tokiwa": 6260,
  "sweet": 6261,
  "▁hostage": 6262,
  "▁iesada": 6263,
  "▁lowest": 6264,
  "▁yoshikage": 6265,
  "▁obama": 6266,
  "▁bullet": 6267,
  "unit": 6268,
  "tsuhiko": 6269,
  "▁masahiro": 6270,
  "▁brewed": 6271,
  "▁possess": 6272,
  "▁youngest": 6273,
  "▁pardoned": 6274,
  "し": 6275,
  "▁substantial": 6276,
  "▁rusu": 6277,
  "▁preced": 6278,
  "▁hyakunin": 6279,
  "▁circulation": 6280,
  "original": 6281,
  "▁fortress": 6282,
  "▁corridor": 6283,
  "▁ningyo": 6284,
  "▁theatre": 6285,
  "▁patriarch": 6286,
  "▁dawn": 6287,
  "▁koyasan": 6288,
  "superintendent": 6289,
  "▁transmitted": 6290,
  "▁miroku": 6291,
  "volume": 6292,
  "▁threat": 6293,
  "▁exposed": 6294,
  "▁rescue": 6295,
  "▁tune": 6296,
  "▁taxation": 6297,
  "▁gofukakusa": 6298,
  "▁treat": 6299,
  "田": 6300,
  "▁geographical": 6301,
  "▁amagasaki": 6302,
  "▁1985": 6303,
  "▁illegitimate": 6304,
  "▁fulfill": 6305,
  "▁earned": 6306,
  "▁byodo": 6307,
  "▁wealth": 6308,
  "▁hidden": 6309,
  "▁oath": 6310,
  "storey": 6311,
  "▁saeki": 6312,
  "▁concentrated": 6313,
  "▁1927": 6314,
  "▁comprised": 6315,
  "▁passes": 6316,
  "▁ritsumeikan": 6317,
  "▁businesses": 6318,
  "▁nasu": 6319,
  "▁manufacture": 6320,
  "▁yoshioki": 6321,
  "▁disappear": 6322,
  "▁unless": 6323,
  "▁pleasure": 6324,
  "▁1948": 6325,
  "paper": 6326,
  "▁kobori": 6327,
  "▁bitter": 6328,
  "▁desert": 6329,
  "pure": 6330,
  "▁mold": 6331,
  "▁whi": 6332,
  "▁yoshifusa": 6333,
  "▁michitaka": 6334,
  "▁delay": 6335,
  "▁1866": 6336,
  "▁treaties": 6337,
  "▁tabi": 6338,
  "▁hut": 6339,
  "▁stole": 6340,
  "▁oppress": 6341,
  "except": 6342,
  "▁honmon": 6343,
  "▁suspicion": 6344,
  "child": 6345,
  "gold": 6346,
  "▁cubic": 6347,
  "poem": 6348,
  "saru": 6349,
  "▁resign": 6350,
  "▁sumimoto": 6351,
  "▁positive": 6352,
  "▁infantry": 6353,
  "▁yoritsuna": 6354,
  "▁enshrining": 6355,
  "meaning": 6356,
  "▁apparently": 6357,
  "▁woodblock": 6358,
  "zong": 6359,
  "▁praise": 6360,
  "▁folklore": 6361,
  "▁perspective": 6362,
  "▁snake": 6363,
  "▁bright": 6364,
  "▁glass": 6365,
  "▁accused": 6366,
  "▁significantly": 6367,
  "▁dormitory": 6368,
  "▁sunpu": 6369,
  "▁encounter": 6370,
  "painting": 6371,
  "northern": 6372,
  "▁yoshiyasu": 6373,
  "▁1615": 6374,
  "▁ascend": 6375,
  "▁violent": 6376,
  "▁quoted": 6377,
  "▁yugiri": 6378,
  "▁jushiinojo": 6379,
  "posthumous": 6380,
  "▁1908": 6381,
  "▁precedent": 6382,
  "▁loyalty": 6383,
  "▁comparison": 6384,
  "faced": 6385,
  "▁brew": 6386,
  "▁neck": 6387,
  "▁introduce": 6388,
  "▁boiling": 6389,
  "▁naosuke": 6390,
  "▁subjugation": 6391,
  "▁1969": 6392,
  "▁fellow": 6393,
  "▁bought": 6394,
  "▁shogoi": 6395,
  "▁feud": 6396,
  "▁kenkyu": 6397,
  "▁1942": 6398,
  "▁circulated": 6399,
  "▁brewery": 6400,
  "▁nominal": 6401,
  "▁contribut": 6402,
  "world": 6403,
  "warrior": 6404,
  "▁1976": 6405,
  "▁fox": 6406,
  "▁severely": 6407,
  "▁shift": 6408,
  "▁dealt": 6409,
  "▁1986": 6410,
  "▁chokusen": 6411,
  "▁shigetada": 6412,
  "▁tsutsui": 6413,
  "▁fukei": 6414,
  "▁kelp": 6415,
  "power": 6416,
  "▁divorce": 6417,
  "tched": 6418,
  "▁daikon": 6419,
  "▁uemon": 6420,
  "music": 6421,
  "▁ichinomiya": 6422,
  "▁1972": 6423,
  "▁statesman": 6424,
  "▁shimada": 6425,
  "▁counties": 6426,
  "▁nobuyori": 6427,
  "▁precise": 6428,
  "▁oita": 6429,
  "▁remember": 6430,
  "▁1902": 6431,
  "▁derive": 6432,
  "▁danjiri": 6433,
  "▁actress": 6434,
  "▁drunk": 6435,
  "▁yoshimochi": 6436,
  "onym": 6437,
  "▁adoption": 6438,
  "▁supervised": 6439,
  "▁tokiyori": 6440,
  "▁nakatomi": 6441,
  "▁shopping": 6442,
  "▁mochiuji": 6443,
  "▁laugh": 6444,
  "▁maruyama": 6445,
  "▁mikkyo": 6446,
  "▁obey": 6447,
  "▁proof": 6448,
  "another": 6449,
  "▁sunday": 6450,
  "▁tokushima": 6451,
  "▁jushii": 6452,
  "▁scheme": 6453,
  "kazari": 6454,
  "▁chion": 6455,
  "▁shintoism": 6456,
  "▁renge": 6457,
  "▁acquir": 6458,
  "▁considerable": 6459,
  "▁negative": 6460,
  "lift": 6461,
  "white": 6462,
  "▁native": 6463,
  "▁oriental": 6464,
  "▁buzen": 6465,
  "▁reduction": 6466,
  "▁confronted": 6467,
  "▁storyteller": 6468,
  "▁yoshitane": 6469,
  "▁tametomo": 6470,
  "complete": 6471,
  "▁poured": 6472,
  "▁balance": 6473,
  "anthologies": 6474,
  "▁tsukushi": 6475,
  "generation": 6476,
  "▁purchase": 6477,
  "▁kinoshita": 6478,
  "▁yorimitsu": 6479,
  "▁enomoto": 6480,
  "▁extraordinary": 6481,
  "▁phenomenon": 6482,
  "burg": 6483,
  "▁1953": 6484,
  "battle": 6485,
  "province": 6486,
  "uesugi": 6487,
  "▁keitai": 6488,
  "▁reassigned": 6489,
  "▁patron": 6490,
  "▁mediation": 6491,
  "▁monju": 6492,
  "▁famine": 6493,
  "▁himiko": 6494,
  "horse": 6495,
  "▁lover": 6496,
  "▁morosuke": 6497,
  "▁knot": 6498,
  "▁shortage": 6499,
  "▁1903": 6500,
  "▁abdication": 6501,
  "▁matches": 6502,
  "▁honmaru": 6503,
  "▁wedding": 6504,
  "▁noodle": 6505,
  "▁kusakabe": 6506,
  "▁sukeroku": 6507,
  "▁authentic": 6508,
  "▁hierarchy": 6509,
  "▁confused": 6510,
  "▁confirm": 6511,
  "▁discriminat": 6512,
  "▁honden": 6513,
  "pound": 6514,
  "▁preserve": 6515,
  "▁dropped": 6516,
  "▁cedar": 6517,
  "▁ministries": 6518,
  "▁purification": 6519,
  "▁employee": 6520,
  "▁communities": 6521,
  "▁unearthed": 6522,
  "▁kiln": 6523,
  "▁sahyoe": 6524,
  "▁chronological": 6525,
  "▁daibutsu": 6526,
  "▁1585": 6527,
  "▁ultimately": 6528,
  "▁elected": 6529,
  "▁collective": 6530,
  "▁kaidan": 6531,
  "▁advocate": 6532,
  "wide": 6533,
  "▁charm": 6534,
  "▁link": 6535,
  "▁relocation": 6536,
  "▁diplomacy": 6537,
  "▁deliver": 6538,
  "命": 6539,
  "▁loan": 6540,
  "▁kobayashi": 6541,
  "▁yamatai": 6542,
  "daughter": 6543,
  "▁cypress": 6544,
  "▁behalf": 6545,
  "▁sanction": 6546,
  "▁else": 6547,
  "▁fame": 6548,
  "▁immortal": 6549,
  "▁collaborat": 6550,
  "▁effectively": 6551,
  "xian": 6552,
  "▁chest": 6553,
  "▁centuries": 6554,
  "▁hosso": 6555,
  "▁attach": 6556,
  "▁vary": 6557,
  "slave": 6558,
  "▁cited": 6559,
  "inspector": 6560,
  "▁conservative": 6561,
  "▁demonstrate": 6562,
  "▁gosaga": 6563,
  "annotation": 6564,
  "super": 6565,
  "member": 6566,
  "▁rectangular": 6567,
  "▁jujutsu": 6568,
  "▁oyamazaki": 6569,
  "▁tadatsune": 6570,
  "engraving": 6571,
  "hyakki": 6572,
  "▁azana": 6573,
  "▁initiative": 6574,
  "▁inheritance": 6575,
  "▁1573": 6576,
  "▁stabiliz": 6577,
  "▁1909": 6578,
  "▁heizei": 6579,
  "▁kinema": 6580,
  "▁kiritsubo": 6581,
  "privileged": 6582,
  "▁pollution": 6583,
  "▁izanami": 6584,
  "▁sexual": 6585,
  "bility": 6586,
  "▁1981": 6587,
  "▁advocat": 6588,
  "▁1932": 6589,
  "▁gable": 6590,
  "▁choice": 6591,
  "▁scientific": 6592,
  "confucianism": 6593,
  "regular": 6594,
  "▁shelter": 6595,
  "▁tourism": 6596,
  "▁jingikan": 6597,
  "▁boundary": 6598,
  "▁1915": 6599,
  "▁aoyama": 6600,
  "▁sawamura": 6601,
  "▁concern": 6602,
  "▁heavily": 6603,
  "▁comprehensive": 6604,
  "▁constant": 6605,
  "etary": 6606,
  "▁artistic": 6607,
  "north": 6608,
  "▁destination": 6609,
  "document": 6610,
  "▁1333": 6611,
  "▁1941": 6612,
  "▁hasegawa": 6613,
  "▁nakajima": 6614,
  "▁eighteen": 6615,
  "▁negoro": 6616,
  "▁orthodox": 6617,
  "▁welfare": 6618,
  "▁inferior": 6619,
  "▁reveal": 6620,
  "zhi": 6621,
  "▁carrie": 6622,
  "konjaku": 6623,
  "▁seeds": 6624,
  "▁waist": 6625,
  "▁surprised": 6626,
  "merging": 6627,
  "▁frequent": 6628,
  "▁driven": 6629,
  "▁overlap": 6630,
  "▁liquid": 6631,
  "▁nikaido": 6632,
  "▁cormorant": 6633,
  "▁pursued": 6634,
  "▁welcomed": 6635,
  "▁obaku": 6636,
  "▁ippon": 6637,
  "▁driving": 6638,
  "▁sekke": 6639,
  "▁flying": 6640,
  "▁strike": 6641,
  "▁1892": 6642,
  "▁possibly": 6643,
  "▁hachimangu": 6644,
  "village": 6645,
  "▁negotiate": 6646,
  "▁outbound": 6647,
  "▁prohibition": 6648,
  "▁dominated": 6649,
  "▁poetic": 6650,
  "▁hattori": 6651,
  "▁monster": 6652,
  "▁precious": 6653,
  "▁kawagoe": 6654,
  "green": 6655,
  "▁examine": 6656,
  "▁assets": 6657,
  "▁osumi": 6658,
  "▁inaugurated": 6659,
  "▁component": 6660,
  "▁label": 6661,
  "▁1913": 6662,
  "▁atsutane": 6663,
  "▁1906": 6664,
  "▁arriving": 6665,
  "▁sakuma": 6666,
  "▁consumption": 6667,
  "▁ashigaru": 6668,
  "▁pitapa": 6669,
  "▁mathematics": 6670,
  "▁discuss": 6671,
  "▁distant": 6672,
  "▁civilization": 6673,
  "▁1924": 6674,
  "▁aomori": 6675,
  "▁urin": 6676,
  "▁depth": 6677,
  "prim": 6678,
  "▁1858": 6679,
  "▁flee": 6680,
  "▁saigyo": 6681,
  "▁jump": 6682,
  "waiting": 6683,
  "▁investigate": 6684,
  "▁forestry": 6685,
  "▁chopsticks": 6686,
  "▁1590": 6687,
  "▁mineyama": 6688,
  "▁naganori": 6689,
  "▁pioneer": 6690,
  "▁1934": 6691,
  "round": 6692,
  "▁asakusa": 6693,
  "yeong": 6694,
  "▁compromise": 6695,
  "▁iwashimizu": 6696,
  "volving": 6697,
  "polishing": 6698,
  "▁solve": 6699,
  "▁partition": 6700,
  "tumulus": 6701,
  "▁bonito": 6702,
  "▁troupe": 6703,
  "▁survive": 6704,
  "▁speak": 6705,
  "▁monopoliz": 6706,
  "▁authorized": 6707,
  "▁argue": 6708,
  "▁symbolize": 6709,
  "▁penalty": 6710,
  "▁1992": 6711,
  "▁continuing": 6712,
  "▁naming": 6713,
  "▁fix": 6714,
  "▁purge": 6715,
  "▁chichibu": 6716,
  "▁exactly": 6717,
  "▁underwent": 6718,
  "é": 6719,
  "▁factory": 6720,
  "▁2,000": 6721,
  "▁ginza": 6722,
  "buddha": 6723,
  "▁shinzei": 6724,
  "▁observation": 6725,
  "▁extensive": 6726,
  "▁nyudo": 6727,
  "▁thrown": 6728,
  "▁framework": 6729,
  "▁tempo": 6730,
  "▁manufacturers": 6731,
  "▁blame": 6732,
  "▁emergency": 6733,
  "held": 6734,
  "▁evaluation": 6735,
  "▁easier": 6736,
  "▁tsugaru": 6737,
  "▁winning": 6738,
  "▁illustrations": 6739,
  "▁unify": 6740,
  "▁tokimune": 6741,
  "▁joseon": 6742,
  "▁craftsman": 6743,
  "▁knead": 6744,
  "▁yoshikane": 6745,
  "▁amanohashidate": 6746,
  "▁kegon": 6747,
  "▁happiness": 6748,
  "▁translat": 6749,
  "▁kodama": 6750,
  "juhachi": 6751,
  "▁concert": 6752,
  "▁seventy": 6753,
  "▁guild": 6754,
  "▁clerk": 6755,
  "▁matsukata": 6756,
  "▁practitioner": 6757,
  "▁mysterious": 6758,
  "▁ensure": 6759,
  "keep": 6760,
  "▁prosperous": 6761,
  "▁involvement": 6762,
  "▁portable": 6763,
  "▁1979": 6764,
  "▁kitaoji": 6765,
  "▁airport": 6766,
  "▁kikugoro": 6767,
  "▁peculiar": 6768,
  "▁rough": 6769,
  "▁discovery": 6770,
  "▁engage": 6771,
  "▁contradict": 6772,
  "defense": 6773,
  "▁handwriting": 6774,
  "▁1893": 6775,
  "▁clique": 6776,
  "▁recipe": 6777,
  "▁1954": 6778,
  "▁destruction": 6779,
  "▁recogniz": 6780,
  "▁zodiac": 6781,
  "▁extract": 6782,
  "▁1935": 6783,
  "▁saneyori": 6784,
  "▁settle": 6785,
  "▁aunt": 6786,
  "▁gosanjo": 6787,
  "▁illegal": 6788,
  "▁1968": 6789,
  "▁accession": 6790,
  "▁texture": 6791,
  "▁threw": 6792,
  "▁robber": 6793,
  "▁fifteen": 6794,
  "▁intervention": 6795,
  "fermented": 6796,
  "▁diaries": 6797,
  "▁assumption": 6798,
  "▁1975": 6799,
  "royal": 6800,
  "▁amity": 6801,
  "▁television": 6802,
  "▁identify": 6803,
  "▁oracle": 6804,
  "▁assistance": 6805,
  "▁absence": 6806,
  "▁tathagata": 6807,
  "▁rescript": 6808,
  "▁1933": 6809,
  "forfeit": 6810,
  "▁fond": 6811,
  "▁supervision": 6812,
  "▁tsukuba": 6813,
  "▁hitotsubashi": 6814,
  "▁engineer": 6815,
  "palace": 6816,
  "▁sasa": 6817,
  "▁phase": 6818,
  "▁spoke": 6819,
  "agaru": 6820,
  "▁medal": 6821,
  "▁1921": 6822,
  "▁yusoku": 6823,
  "▁shimonoseki": 6824,
  "▁kanemichi": 6825,
  "▁isonokami": 6826,
  "▁tokihira": 6827,
  "▁transmission": 6828,
  "▁thatched": 6829,
  "り": 6830,
  "▁habit": 6831,
  "life": 6832,
  "▁confidence": 6833,
  "▁lodging": 6834,
  "▁radish": 6835,
  "▁refuge": 6836,
  "▁shugendo": 6837,
  "▁allegedly": 6838,
  "▁danger": 6839,
  "▁1922": 6840,
  "▁1963": 6841,
  "▁1974": 6842,
  "▁takashina": 6843,
  "▁provok": 6844,
  "▁30,000": 6845,
  "▁marutamachi": 6846,
  "▁tamakazura": 6847,
  "▁error": 6848,
  "▁seclusion": 6849,
  "▁modernization": 6850,
  "▁asceticism": 6851,
  "▁renowned": 6852,
  "study": 6853,
  "▁import": 6854,
  "▁league": 6855,
  "▁paint": 6856,
  "▁skirt": 6857,
  "▁1952": 6858,
  "▁britain": 6859,
  "▁nishioji": 6860,
  "`": 6861,
  "▁iruka": 6862,
  "▁broadcast": 6863,
  "▁illustrat": 6864,
  "▁saint": 6865,
  "上": 6866,
  "▁reverse": 6867,
  "black": 6868,
  "▁beads": 6869,
  "▁risk": 6870,
  "▁supplied": 6871,
  "▁lyrics": 6872,
  "▁pretext": 6873,
  "▁rendered": 6874,
  "manager": 6875,
  "▁archaeological": 6876,
  "▁lawsuit": 6877,
  "に": 6878,
  "▁convenient": 6879,
  "free": 6880,
  "▁wonder": 6881,
  "100": 6882,
  "▁presid": 6883,
  "▁artificial": 6884,
  "▁rebuild": 6885,
  "▁1967": 6886,
  "▁structural": 6887,
  "▁remarkable": 6888,
  "▁apparent": 6889,
  "▁1966": 6890,
  "▁smell": 6891,
  "▁compli": 6892,
  "igned": 6893,
  "▁discharge": 6894,
  "▁yoshizumi": 6895,
  "▁sasayama": 6896,
  "▁fukuhara": 6897,
  "▁distinctive": 6898,
  "▁happy": 6899,
  "jyu": 6900,
  "▁1883": 6901,
  "▁kagetora": 6902,
  "▁stadium": 6903,
  "designated": 6904,
  "▁legendary": 6905,
  "▁device": 6906,
  "▁poverty": 6907,
  "▁pirates": 6908,
  "▁obvious": 6909,
  "▁verb": 6910,
  "minato": 6911,
  "▁equinox": 6912,
  "▁kawakami": 6913,
  "▁vocational": 6914,
  "▁kamatari": 6915,
  "▁crane": 6916,
  "limited": 6917,
  "▁realize": 6918,
  "▁teeth": 6919,
  "▁omitted": 6920,
  "▁1959": 6921,
  "▁furious": 6922,
  "▁remote": 6923,
  "cultural": 6924,
  "▁ukita": 6925,
  "▁autonomy": 6926,
  "▁decisive": 6927,
  "▁extant": 6928,
  "▁attire": 6929,
  "義": 6930,
  "▁byobu": 6931,
  "▁emphasis": 6932,
  "▁steel": 6933,
  "principal": 6934,
  "▁1957": 6935,
  "▁exert": 6936,
  "▁gohojo": 6937,
  "▁vietnam": 6938,
  "▁advised": 6939,
  "▁prospered": 6940,
  "▁instant": 6941,
  "▁marquis": 6942,
  "▁sakon": 6943,
  "▁ensemble": 6944,
  "▁wasabi": 6945,
  "▁fool": 6946,
  "▁simultaneously": 6947,
  "中": 6948,
  "▁pursue": 6949,
  "wife": 6950,
  "▁regret": 6951,
  "▁goryeo": 6952,
  "▁reverence": 6953,
  "▁preparing": 6954,
  "▁yoritsune": 6955,
  "▁tamuramaro": 6956,
  "▁marine": 6957,
  "▁measuring": 6958,
  "plant": 6959,
  "▁delicate": 6960,
  "▁varied": 6961,
  "\\": 6962,
  "▁clap": 6963,
  "servant": 6964,
  "▁ietsugu": 6965,
  "▁ajari": 6966,
  "十": 6967,
  "▁reconcil": 6968,
  "▁odd": 6969,
  "▁ienobu": 6970,
  "月": 6971,
  "▁swordplay": 6972,
  "▁impressed": 6973,
  "▁subsidiary": 6974,
  "▁spell": 6975,
  "▁1592": 6976,
  "▁publish": 6977,
  "▁observe": 6978,
  "▁assault": 6979,
  "▁tray": 6980,
  "▁ietsuna": 6981,
  "▁1914": 6982,
  "tenmangu": 6983,
  "▁punitive": 6984,
  "▁katagiri": 6985,
  "between": 6986,
  "historical": 6987,
  "▁tawara": 6988,
  "▁1971": 6989,
  "▁glue": 6990,
  "▁baseball": 6991,
  "▁kuninomiyatsuko": 6992,
  "▁diesel": 6993,
  "arrow": 6994,
  "▁chosokabe": 6995,
  "宗": 6996,
  "寺": 6997,
  "▁astronomy": 6998,
  "female": 6999,
  "▁1984": 7000,
  "▁preferred": 7001,
  "▁mushroom": 7002,
  "▁trunk": 7003,
  "worthy": 7004,
  "▁gorgeous": 7005,
  "▁manhood": 7006,
  "▁earliest": 7007,
  "▁requirement": 7008,
  "▁regiment": 7009,
  "▁rhythm": 7010,
  "▁starring": 7011,
  "▁yuryaku": 7012,
  "▁treatise": 7013,
  "▁forefather": 7014,
  "▁substance": 7015,
  "▁strategic": 7016,
  "▁smoke": 7017,
  "▁intellectual": 7018,
  "▁measurement": 7019,
  "▁allegiance": 7020,
  "▁1964": 7021,
  "▁custody": 7022,
  "▁theatrical": 7023,
  "▁consumer": 7024,
  "▁sukiya": 7025,
  "▁whisk": 7026,
  "abolition": 7027,
  "▁kazunomiya": 7028,
  "▁ukifune": 7029,
  "▁knee": 7030,
  "▁essence": 7031,
  "▁extreme": 7032,
  "title": 7033,
  "▁emphasize": 7034,
  "▁nyobo": 7035,
  "▁folded": 7036,
  "▁thunder": 7037,
  "▁challenge": 7038,
  "grandchild": 7039,
  "▁1.8": 7040,
  "▁vendor": 7041,
  "correspond": 7042,
  "▁aritomo": 7043,
  "▁sashimi": 7044,
  "▁katsudon": 7045,
  "▁reliable": 7046,
  "▁gokomatsu": 7047,
  "文": 7048,
  "▁carving": 7049,
  "▁kuwana": 7050,
  "▁orange": 7051,
  "▁resolve": 7052,
  "▁partially": 7053,
  "▁interfere": 7054,
  "▁furukawa": 7055,
  "▁gouda": 7056,
  "▁nantan": 7057,
  "lady": 7058,
  "▁pillow": 7059,
  "▁knife": 7060,
  "▁brick": 7061,
  "▁dismissal": 7062,
  "▁ekiben": 7063,
  "▁onmyoryo": 7064,
  "▁accurate": 7065,
  "▁abandon": 7066,
  "二": 7067,
  "公": 7068,
  "earth": 7069,
  "▁whereupon": 7070,
  "▁foodstuff": 7071,
  "▁apprais": 7072,
  "▁mixing": 7073,
  "▁yagyu": 7074,
  "▁washed": 7075,
  "▁saturday": 7076,
  "territory": 7077,
  "▁onwards": 7078,
  "▁1956": 7079,
  "▁deliberat": 7080,
  "▁cordon": 7081,
  "▁mistress": 7082,
  "▁initiated": 7083,
  "▁corrupt": 7084,
  "▁guess": 7085,
  "▁worried": 7086,
  "▁pretend": 7087,
  "▁compiling": 7088,
  "▁quantity": 7089,
  "▁accus": 7090,
  "▁disorder": 7091,
  "▁disembowelment": 7092,
  "▁kajiwara": 7093,
  "▁narichika": 7094,
  "▁1937": 7095,
  "▁gentle": 7096,
  "▁fiber": 7097,
  "▁universal": 7098,
  "numera": 7099,
  "▁dialogue": 7100,
  "▁obligation": 7101,
  "▁carriage": 7102,
  "▁elaborate": 7103,
  "▁preparator": 7104,
  "▁ichinotani": 7105,
  "▁shikinai": 7106,
  "▁turmoil": 7107,
  "▁dying": 7108,
  "▁mokuroku": 7109,
  "▁epic": 7110,
  "▁washing": 7111,
  "auspicious": 7112,
  "group": 7113,
  "▁1978": 7114,
  "▁certified": 7115,
  "deposited": 7116,
  "▁1936": 7117,
  "▁cemetery": 7118,
  "throne": 7119,
  "▁drastically": 7120,
  "▁maximum": 7121,
  "▁ninigi": 7122,
  "▁kemari": 7123,
  "▁batter": 7124,
  "▁cinema": 7125,
  "princess": 7126,
  "▁privy": 7127,
  "皇": 7128,
  "▁faithful": 7129,
  "▁wield": 7130,
  "▁radio": 7131,
  "▁tiger": 7132,
  "記": 7133,
  "▁victim": 7134,
  "▁tonsure": 7135,
  "▁conversation": 7136,
  "will": 7137,
  "▁inspired": 7138,
  "▁1973": 7139,
  "▁resumed": 7140,
  "▁closing": 7141,
  "▁motif": 7142,
  "▁battalion": 7143,
  "▁chemical": 7144,
  "▁susano": 7145,
  "▁forbidden": 7146,
  "▁quick": 7147,
  "▁gratitude": 7148,
  "▁northeast": 7149,
  "▁kanpyo": 7150,
  "い": 7151,
  "▁courtesy": 7152,
  "aristocratic": 7153,
  "▁nineteen": 7154,
  "▁1982": 7155,
  "▁descent": 7156,
  "▁munakata": 7157,
  "▁necessity": 7158,
  "especially": 7159,
  "▁timber": 7160,
  "▁goyozei": 7161,
  "▁pregnant": 7162,
  "jugoinoge": 7163,
  "▁reinforced": 7164,
  "glutinous": 7165,
  "▁forgiven": 7166,
  "▁stir": 7167,
  "▁gregori": 7168,
  "shikimoku": 7169,
  "▁summoned": 7170,
  "▁progressive": 7171,
  "▁storytelling": 7172,
  "▁hamamatsu": 7173,
  "▁jugoi": 7174,
  "▁hisamitsu": 7175,
  "▁discipline": 7176,
  "五": 7177,
  "▁practicing": 7178,
  "▁prewar": 7179,
  "▁clash": 7180,
  "▁1977": 7181,
  "▁shinagawa": 7182,
  "trust": 7183,
  "▁drift": 7184,
  "▁convention": 7185,
  "▁weakened": 7186,
  "▁barrel": 7187,
  "▁defensive": 7188,
  "field": 7189,
  "stream": 7190,
  "▁generic": 7191,
  "▁inauguration": 7192,
  "▁predict": 7193,
  "auxiliary": 7194,
  "▁priestess": 7195,
  "▁dangerous": 7196,
  "*": 7197,
  "because": 7198,
  "telling": 7199,
  "▁energy": 7200,
  "▁loose": 7201,
  "▁score": 7202,
  "▁announc": 7203,
  "▁speculat": 7204,
  "kinosaki": 7205,
  "matsudaira": 7206,
  "▁shoichii": 7207,
  "▁audit": 7208,
  "▁differentiate": 7209,
  "▁welcome": 7210,
  "▁meantime": 7211,
  "▁guidance": 7212,
  "dried": 7213,
  "▁memory": 7214,
  "▁kinugasa": 7215,
  "▁grudge": 7216,
  "▁carpenter": 7217,
  "system": 7218,
  "▁patient": 7219,
  "▁drove": 7220,
  "▁leap": 7221,
  "▁aesthetic": 7222,
  "▁tozama": 7223,
  "▁ogimachisanjo": 7224,
  "▁visual": 7225,
  "▁definite": 7226,
  "▁umbrella": 7227,
  "▁accommodate": 7228,
  "▁alias": 7229,
  "▁1962": 7230,
  "▁excessive": 7231,
  "▁zaibatsu": 7232,
  "▁paddy": 7233,
  "▁beverage": 7234,
  "▁farmland": 7235,
  "▁kamaboko": 7236,
  "▁comfort": 7237,
  "▁organize": 7238,
  "▁bread": 7239,
  "▁sapporo": 7240,
  "▁disadvantage": 7241,
  "▁yamanouchi": 7242,
  "▁isolation": 7243,
  "▁collar": 7244,
  "▁electrified": 7245,
  "▁sakonoe": 7246,
  "▁choose": 7247,
  "門": 7248,
  "hokke": 7249,
  "empt": 7250,
  "▁participation": 7251,
  "▁pledge": 7252,
  "▁harbor": 7253,
  "▁valid": 7254,
  "▁prompt": 7255,
  "▁winner": 7256,
  "▁graduation": 7257,
  "▁spearhead": 7258,
  "▁ikkyu": 7259,
  "▁devote": 7260,
  "▁1958": 7261,
  "▁imagine": 7262,
  "▁implies": 7263,
  "▁release": 7264,
  "▁sesame": 7265,
  "▁pavilion": 7266,
  "▁considerably": 7267,
  "▁convert": 7268,
  "regulated": 7269,
  "celebrat": 7270,
  "▁prescribed": 7271,
  "▁1917": 7272,
  "▁arisugawanomiya": 7273,
  "▁unexpected": 7274,
  "▁swimming": 7275,
  "▁atsuta": 7276,
  "▁cutlet": 7277,
  "▁oinomikado": 7278,
  "▁stroke": 7279,
  "▁1961": 7280,
  "kannon": 7281,
  "女": 7282,
  "▁standpoint": 7283,
  "▁modified": 7284,
  "▁defect": 7285,
  "▁enthusiast": 7286,
  "stitution": 7287,
  "▁beijing": 7288,
  "▁synonym": 7289,
  "▁emotion": 7290,
  "▁jitsuroku": 7291,
  "▁municipalities": 7292,
  "▁transcribed": 7293,
  "▁punish": 7294,
  "▁sketch": 7295,
  "▁polished": 7296,
  "▁impos": 7297,
  "▁novelist": 7298,
  "▁yabusame": 7299,
  "▁patronage": 7300,
  "野": 7301,
  "▁glory": 7302,
  "▁bereaved": 7303,
  "▁identical": 7304,
  "▁disguise": 7305,
  "▁strife": 7306,
  "▁ginger": 7307,
  "▁umayado": 7308,
  "▁demonstration": 7309,
  "▁creature": 7310,
  "▁appreciation": 7311,
  "長": 7312,
  "▁relieve": 7313,
  "▁breath": 7314,
  "flat": 7315,
  "▁goguryeo": 7316,
  "▁victor": 7317,
  "ritual": 7318,
  "southern": 7319,
  "▁bunmyaku": 7320,
  "▁reclamation": 7321,
  "season": 7322,
  "▁unchanged": 7323,
  "▁blend": 7324,
  "▁yonezawa": 7325,
  "▁issuance": 7326,
  "▁operator": 7327,
  "castle": 7328,
  "▁paekche": 7329,
  "▁surprise": 7330,
  "▁azechi": 7331,
  "▁abbreviation": 7332,
  "▁invade": 7333,
  "正": 7334,
  "家": 7335,
  "combining": 7336,
  "▁prohibit": 7337,
  "▁consecutive": 7338,
  "▁harsh": 7339,
  "▁witness": 7340,
  "▁artisans": 7341,
  "郎": 7342,
  "▁concentration": 7343,
  "▁sophisticated": 7344,
  "▁outdoor": 7345,
  "lotus": 7346,
  "collect": 7347,
  "▁regency": 7348,
  "those": 7349,
  "▁midnight": 7350,
  "▁genuine": 7351,
  "太": 7352,
  "▁volunteer": 7353,
  "▁gravestone": 7354,
  "▁1595": 7355,
  "▁kawabata": 7356,
  "▁wholesale": 7357,
  "▁uhyoe": 7358,
  "▁ambassador": 7359,
  "▁calculation": 7360,
  "▁kurosawa": 7361,
  "▁hongwan": 7362,
  "▁qualification": 7363,
  "▁naginata": 7364,
  "▁1938": 7365,
  "▁empty": 7366,
  "please": 7367,
  "gukansho": 7368,
  "sponsored": 7369,
  "▁wrapping": 7370,
  "▁infrastructure": 7371,
  "▁patrol": 7372,
  "close": 7373,
  "▁tanabata": 7374,
  "▁declaration": 7375,
  "▁shimogamo": 7376,
  "▁maneuver": 7377,
  "+": 7378,
  "▁revive": 7379,
  "▁retire": 7380,
  "▁palanquin": 7381,
  "diploma": 7382,
  "▁sliced": 7383,
  "▁repose": 7384,
  "▁fittings": 7385,
  "▁chestnut": 7386,
  "▁chushingura": 7387,
  "▁dynastic": 7388,
  "▁drain": 7389,
  "▁ndl": 7390,
  "▁ashihara": 7391,
  "▁honinbo": 7392,
  "commentary": 7393,
  "▁madenokoji": 7394,
  "▁autonomous": 7395,
  "▁suffer": 7396,
  "▁accumulated": 7397,
  "drawn": 7398,
  "▁misfortune": 7399,
  "anthology": 7400,
  "▁shibukawa": 7401,
  "▁mineral": 7402,
  "▁combat": 7403,
  "regional": 7404,
  "▁pigment": 7405,
  "▁ninomaru": 7406,
  "▁advancing": 7407,
  "▁tramway": 7408,
  "▁intervene": 7409,
  "▁grip": 7410,
  "▁quasi": 7411,
  "▁gleanings": 7412,
  "▁literati": 7413,
  "▁beheaded": 7414,
  "equivalent": 7415,
  "▁statistics": 7416,
  "▁oribe": 7417,
  "▁parliamentar": 7418,
  "▁platoon": 7419,
  "▁isbn": 7420,
  "poetry": 7421,
  "▁monastery": 7422,
  "cloth": 7423,
  "明": 7424,
  "▁formula": 7425,
  "▁permit": 7426,
  "▁clause": 7427,
  "▁delegate": 7428,
  "▁confess": 7429,
  "▁1983": 7430,
  "▁isolated": 7431,
  "▁melody": 7432,
  "▁democratic": 7433,
  "control": 7434,
  "▁agree": 7435,
  "▁stuck": 7436,
  "vajra": 7437,
  "▁communicat": 7438,
  "生": 7439,
  "▁flourish": 7440,
  "▁counterattack": 7441,
  "を": 7442,
  "城": 7443,
  "▁trail": 7444,
  "▁amendment": 7445,
  "▁inspect": 7446,
  "▁siblings": 7447,
  "urged": 7448,
  "▁kamigamo": 7449,
  "▁protocol": 7450,
  "retainer": 7451,
  "≒": 7452,
  "sanjusangen": 7453,
  "▁eligible": 7454,
  "多": 7455,
  "dynasty": 7456,
  "▁reconciliation": 7457,
  "▁longevity": 7458,
  "liaison": 7459,
  "▁drown": 7460,
  "▁itsukushima": 7461,
  "▁remind": 7462,
  "▁reply": 7463,
  "stick": 7464,
  "▁shinpachi": 7465,
  "▁mizoguchi": 7466,
  "▁revered": 7467,
  "▁seclud": 7468,
  "阿": 7469,
  "無": 7470,
  "▁incorporating": 7471,
  "▁aggressive": 7472,
  "▁assignment": 7473,
  "▁monkey": 7474,
  "▁descend": 7475,
  "▁relics": 7476,
  "▁magnificent": 7477,
  "▁curtain": 7478,
  "▁disinherit": 7479,
  "corn": 7480,
  "▁kuruwa": 7481,
  "▁confectionery": 7482,
  "stringed": 7483,
  "▁hozonkai": 7484,
  "▁mackerel": 7485,
  "平": 7486,
  "部": 7487,
  "▁collateral": 7488,
  "▁paragraph": 7489,
  "▁allotted": 7490,
  "▁demesne": 7491,
  "▁toilet": 7492,
  "▁immigrants": 7493,
  "▁protein": 7494,
  "小": 7495,
  "▁controversy": 7496,
  "▁systematic": 7497,
  "▁zhu": 7498,
  "▁diminish": 7499,
  "▁thumb": 7500,
  "▁residing": 7501,
  "▁confinement": 7502,
  "student": 7503,
  "▁excuse": 7504,
  "▁tassel": 7505,
  "安": 7506,
  "▁taruhito": 7507,
  "▁gakushuin": 7508,
  "▁tsukigase": 7509,
  "▁swordsmanship": 7510,
  "▁global": 7511,
  "▁context": 7512,
  "revere": 7513,
  "▁ethnic": 7514,
  "▁devised": 7515,
  "▁fragrance": 7516,
  "▁daisojo": 7517,
  "▁castellan": 7518,
  "▁breed": 7519,
  "▁analysis": 7520,
  "ballad": 7521,
  "▁occurrence": 7522,
  "▁launch": 7523,
  "▁juice": 7524,
  "▁hyojoshu": 7525,
  "published": 7526,
  "元": 7527,
  "▁taboo": 7528,
  "木": 7529,
  "▁significance": 7530,
  "▁neutral": 7531,
  "▁warfare": 7532,
  "き": 7533,
  "expeditionary": 7534,
  "▁weigh": 7535,
  "▁eaves": 7536,
  "kagura": 7537,
  "▁garrison": 7538,
  "▁shrimp": 7539,
  "roshigumi": 7540,
  "▁cartoon": 7541,
  "八": 7542,
  "▁taoism": 7543,
  "▁physician": 7544,
  "▁manifest": 7545,
  "▁palm": 7546,
  "▁hollow": 7547,
  "musume": 7548,
  "encyclopedia": 7549,
  "▁betrayal": 7550,
  "piece": 7551,
  "▁akasaka": 7552,
  "▁bicycle": 7553,
  "▁certification": 7554,
  "▁stipulat": 7555,
  "building": 7556,
  "▁plastic": 7557,
  "crown": 7558,
  "▁christ": 7559,
  "▁colleague": 7560,
  "▁weekdays": 7561,
  "▁emblem": 7562,
  "mikuriya": 7563,
  "▁unprecedented": 7564,
  "dharma": 7565,
  "▁silent": 7566,
  "▁paradise": 7567,
  "下": 7568,
  "▁replied": 7569,
  "▁jealous": 7570,
  "▁legitimacy": 7571,
  "▁element": 7572,
  "▁meritorious": 7573,
  "▁cheap": 7574,
  "ornamental": 7575,
  "▁credibility": 7576,
  "goshui": 7577,
  "▁consumed": 7578,
  "professor": 7579,
  "川": 7580,
  "▁flank": 7581,
  "▁lumber": 7582,
  "▁broiled": 7583,
  "▁nabeshima": 7584,
  "▁clerical": 7585,
  "▁repeat": 7586,
  "光": 7587,
  "▁explor": 7588,
  "▁rokujizo": 7589,
  "▁ambition": 7590,
  "▁banishment": 7591,
  "▁vacant": 7592,
  "▁profession": 7593,
  "▁serial": 7594,
  "▁reluctant": 7595,
  "▁dissolution": 7596,
  "▁privatization": 7597,
  "（": 7598,
  "▁nyoirin": 7599,
  "金": 7600,
  "▁unstable": 7601,
  "▁hook": 7602,
  "▁accede": 7603,
  "▁sphere": 7604,
  "preliminary": 7605,
  "proprietor": 7606,
  "izumo": 7607,
  "▁arisugawa": 7608,
  "▁aikido": 7609,
  "▁nagashino": 7610,
  "▁gesture": 7611,
  "信": 7612,
  "▁brilliant": 7613,
  "▁twist": 7614,
  "▁session": 7615,
  "▁courtesan": 7616,
  "▁basket": 7617,
  "▁depriv": 7618,
  "▁phenomena": 7619,
  "▁supplies": 7620,
  "▁micro": 7621,
  "▁bacteria": 7622,
  "engishiki": 7623,
  "▁conscription": 7624,
  "▁takoyaki": 7625,
  "▁emergence": 7626,
  "early": 7627,
  "▁cream": 7628,
  "department": 7629,
  "▁quarrel": 7630,
  "color": 7631,
  "▁widow": 7632,
  "▁betrayed": 7633,
  "▁distinct": 7634,
  "▁conspir": 7635,
  "bakama": 7636,
  "▁moderate": 7637,
  "▁reaction": 7638,
  "▁elite": 7639,
  "6,000": 7640,
  "▁agencies": 7641,
  "retired": 7642,
  "▁sakhalin": 7643,
  "▁wrestling": 7644,
  "▁clam": 7645,
  "▁playwright": 7646,
  "▁shionoya": 7647,
  "▁pedestal": 7648,
  "▁contemplat": 7649,
  "▁purify": 7650,
  "▁overwhelming": 7651,
  "▁flesh": 7652,
  "▁grasp": 7653,
  "▁neglect": 7654,
  "bamboo": 7655,
  "▁tokonoma": 7656,
  "▁indispensable": 7657,
  "aratame": 7658,
  "▁xavier": 7659,
  "▁kuruma": 7660,
  "▁amusement": 7661,
  "approx": 7662,
  "▁jinmyocho": 7663,
  "▁yanagawa": 7664,
  "▁sumeramikoto": 7665,
  "▁animation": 7666,
  "▁shohatto": 7667,
  "和": 7668,
  "▁logic": 7669,
  "▁oneself": 7670,
  "▁coincide": 7671,
  "▁gunnery": 7672,
  "▁relied": 7673,
  "▁shuttle": 7674,
  "▁profound": 7675,
  "hundred": 7676,
  "▁intensified": 7677,
  "▁improving": 7678,
  "▁shugakuin": 7679,
  "▁stuff": 7680,
  "▁channel": 7681,
  "▁suspicious": 7682,
  "▁renovation": 7683,
  "nippon": 7684,
  "▁equestrian": 7685,
  "▁slices": 7686,
  "事": 7687,
  "経": 7688,
  "ldom": 7689,
  "▁recommend": 7690,
  "accumulat": 7691,
  "▁capturing": 7692,
  "▁pursuit": 7693,
  "▁restrain": 7694,
  "▁desperate": 7695,
  "▁trap": 7696,
  "▁lessons": 7697,
  "▁vote": 7698,
  "▁unfortunate": 7699,
  "▁citizen": 7700,
  "▁internet": 7701,
  "▁unequal": 7702,
  "▁karaoke": 7703,
  "候": 7704,
  "▁anegakoji": 7705,
  "▁salvation": 7706,
  "高": 7707,
  "る": 7708,
  "transfer": 7709,
  "▁gauge": 7710,
  "▁stress": 7711,
  "▁dissatisfied": 7712,
  "▁niece": 7713,
  "▁kanroji": 7714,
  "▁shortened": 7715,
  "▁splendid": 7716,
  "▁supermarket": 7717,
  "▁kawanakajima": 7718,
  "▁turret": 7719,
  "ノ": 7720,
  "drama": 7721,
  "▁confection": 7722,
  "■": 7723,
  "武": 7724,
  "genealogies": 7725,
  "▁nominated": 7726,
  "ceremonial": 7727,
  "▁prevailing": 7728,
  "▁jesus": 7729,
  "▁sorrow": 7730,
  "▁amateur": 7731,
  "▁absorb": 7732,
  "▁ribbon": 7733,
  "▁smallpox": 7734,
  "▁calculated": 7735,
  "▁vanguard": 7736,
  "▁binding": 7737,
  "▁earnest": 7738,
  "▁continuous": 7739,
  "▁architect": 7740,
  "▁slander": 7741,
  "▁souvenir": 7742,
  "▁consent": 7743,
  "▁taoist": 7744,
  "▁stew": 7745,
  "▁miniature": 7746,
  "原": 7747,
  "suicide": 7748,
  "talk": 7749,
  "lieutenant": 7750,
  "▁qualified": 7751,
  "mawashi": 7752,
  "▁counterfeit": 7753,
  "▁seiyukai": 7754,
  "▁saving": 7755,
  "▁propagation": 7756,
  "不": 7757,
  "mandala": 7758,
  "ā": 7759,
  "殿": 7760,
  "▁replica": 7761,
  "▁repository": 7762,
  "▁relevant": 7763,
  "pronounced": 7764,
  "▁hakone": 7765,
  "▁confucius": 7766,
  "▁luxury": 7767,
  "▁perhaps": 7768,
  "living": 7769,
  "▁photo": 7770,
  "造": 7771,
  "▁solution": 7772,
  "▁wakadoshiyori": 7773,
  "▁typhoon": 7774,
  "▁compensation": 7775,
  "▁karafuto": 7776,
  "▁yodoyabashi": 7777,
  "▁magatama": 7778,
  "▁yatsuhashi": 7779,
  "▁torinoko": 7780,
  "▁tsurayuki": 7781,
  "▁shitokan": 7782,
  "真": 7783,
  "respect": 7784,
  "blue": 7785,
  "▁indigenous": 7786,
  "▁shield": 7787,
  "▁strait": 7788,
  "▁quota": 7789,
  "▁disliked": 7790,
  "▁indication": 7791,
  "▁astronomical": 7792,
  "ologist": 7793,
  "▁slash": 7794,
  "through": 7795,
  "▁wrap": 7796,
  "▁snack": 7797,
  "▁uneme": 7798,
  "writing": 7799,
  "▁universe": 7800,
  "▁stomach": 7801,
  "religious": 7802,
  "▁accomplishments": 7803,
  "correct": 7804,
  "treasure": 7805,
  "▁escaping": 7806,
  "。": 7807,
  "▁disclos": 7808,
  "▁abilities": 7809,
  "▁phonetic": 7810,
  "▁declining": 7811,
  "▁conceal": 7812,
  "▁celebrating": 7813,
  "▁cancelled": 7814,
  "<": 7815,
  "▁irimoya": 7816,
  "▁hydro": 7817,
  "▁potential": 7818,
  "▁aveng": 7819,
  "▁upgraded": 7820,
  "▁gosanke": 7821,
  "▁tsukuyomi": 7822,
  "headquarters": 7823,
  "尊": 7824,
  "内": 7825,
  "名": 7826,
  "oriented": 7827,
  "▁striking": 7828,
  "▁scandal": 7829,
  "▁ethics": 7830,
  "covered": 7831,
  "▁implicated": 7832,
  "8,000": 7833,
  "▁miyasudokoro": 7834,
  "▁escort": 7835,
  "boiled": 7836,
  "▁omelet": 7837,
  "▁minakuchi": 7838,
  "常": 7839,
  "▁relax": 7840,
  "▁hectares": 7841,
  "▁1602": 7842,
  "吉": 7843,
  "▁identity": 7844,
  "▁tenpyo": 7845,
  "▁lodge": 7846,
  "▁embrac": 7847,
  "▁pilgrim": 7848,
  "▁slip": 7849,
  "都": 7850,
  "summer": 7851,
  "▁disturb": 7852,
  "▁completing": 7853,
  "▁legislation": 7854,
  "な": 7855,
  "▁cruel": 7856,
  "▁netherlands": 7857,
  "▁pedigree": 7858,
  "▁chemistry": 7859,
  "仏": 7860,
  "▁evolved": 7861,
  "と": 7862,
  "▁london": 7863,
  "宮": 7864,
  "▁threatened": 7865,
  "twelve": 7866,
  "▁whereabouts": 7867,
  "▁boast": 7868,
  "▁persimmon": 7869,
  "▁renounc": 7870,
  "▁gomurakami": 7871,
  "education": 7872,
  "▁primarily": 7873,
  "良": 7874,
  "▁imprisoned": 7875,
  "▁japonica": 7876,
  "▁treason": 7877,
  "▁graduating": 7878,
  "▁kidendo": 7879,
  "barbarian": 7880,
  "▁aforementioned": 7881,
  "▁sequel": 7882,
  "▁skewer": 7883,
  "▁sokutai": 7884,
  "▁reorganization": 7885,
  "▁abdicate": 7886,
  "▁confiscat": 7887,
  "）": 7888,
  "▁recitation": 7889,
  "plain": 7890,
  "▁participating": 7891,
  "▁repel": 7892,
  "▁assembled": 7893,
  "model": 7894,
  "▁neighbor": 7895,
  "▁facilitat": 7896,
  "▁pink": 7897,
  "▁firearms": 7898,
  "▁profile": 7899,
  "▁squid": 7900,
  "▁shizugatake": 7901,
  "left": 7902,
  "▁comprise": 7903,
  "fresh": 7904,
  "▁acquainted": 7905,
  "▁refuse": 7906,
  "distribut": 7907,
  "▁colonel": 7908,
  "行": 7909,
  "久": 7910,
  "年": 7911,
  "有": 7912,
  "清": 7913,
  "師": 7914,
  "氏": 7915,
  "方": 7916,
  "石": 7917,
  "▁deposit": 7918,
  "倭": 7919,
  "通": 7920,
  "徳": 7921,
  "ん": 7922,
  "ら": 7923,
  "か": 7924,
  "比": 7925,
  "士": 7926,
  "publisher": 7927,
  "姫": 7928,
  "世": 7929,
  "て": 7930,
  "海": 7931,
  "居": 7932,
  "津": 7933,
  "[": 7934,
  "馬": 7935,
  "如": 7936,
  "く": 7937,
  "藤": 7938,
  "相": 7939,
  "東": 7940,
  "社": 7941,
  "▁regulat": 7942,
  "定": 7943,
  "手": 7944,
  "南": 7945,
  "ニ": 7946,
  "佐": 7947,
  "伊": 7948,
  "楽": 7949,
  "以": 7950,
  "－": 7951,
  "豊": 7952,
  "主": 7953,
  "村": 7954,
  "シ": 7955,
  "書": 7956,
  "は": 7957,
  "す": 7958,
  "ま": 7959,
  "心": 7960,
  "重": 7961,
  "志": 7962,
  "言": 7963,
  "う": 7964,
  "代": 7965,
  "百": 7966,
  "も": 7967,
  "井": 7968,
  "蔵": 7969,
  "政": 7970,
  "水": 7971,
  "次": 7972,
  "万": 7973,
  "四": 7974,
  "六": 7975,
  "臣": 7976,
  "た": 7977,
  "朝": 7978,
  "松": 7979,
  "古": 7980,
  "成": 7981,
  "華": 7982,
  "変": 7983,
  "波": 7984,
  "西": 7985,
  "申": 7986,
  "所": 7987,
  "前": 7988,
  "物": 7989,
  "九": 7990,
  "美": 7991,
  "ⅱ": 7992,
  "時": 7993,
  "入": 7994,
  "さ": 7995,
  "表": 7996,
  "ヲ": 7997,
  "七": 7998,
  "更": 7999,
  "→": 8000,
  "—": 8001,
  "⋯": 8002,
  "℃": 8003
}